<pad>	0
<unk>	0
<s>	0
</s>	0
০	0
১	0
২	0
৩	0
৪	0
৫	0
৬	0
৭	0
৮	0
৯	0
▁ক	-0
ার	-1
▁স	-2
য়	-3
▁প	-4
্য	-5
▁\	-6
▁ব	-7
ের	-8
টি	-9
্র	-10
▁এ	-11
▁কর	-12
▁=	-13
▁ম	-14
▁ত	-15
▁দ	-16
▁আ	-17
্যা	-18
▁হ	-19
▁জ	-20
▁য	-21
র্	-22
▁প্র	-23
ান	-24
িন	-25
ছে	-26
▁অ	-27
▁ন	-28
▁$	-29
তে	-30
▁সং	-31
কে	-32
▁-	-33
তি	-34
▁গ	-35
▁+	-36
▁সংখ	-37
er	-38
বে	-39
য়ে	-40
বং	-41
▁এবং	-42
▁জন	-43
▁t	-44
রা	-45
▁সংখ্যা	-46
▁এক	-47
াক	-48
ন্	-49
▁সম	-50
লে	-51
▁তা	-52
োট	-53
▁করে	-54
লি	-55
▁(	-56
ড়	-57
▁\(	-58
▁থ	-59
▁আম	-60
es	-61
▁চ	-62
▁মোট	-63
্ত	-64
▁প্রতি	-65
▁th	-66
in	-67
িক	-68
লা	-69
▁শ	-70
▁a	-71
▁ট	-72
▁*	-73
▁নি	-74
্ব	-75
ti	-76
▁পর	-77
ভা	-78
▁ছ	-79
গু	-80
ায়	-81
▁A	-82
িত	-83
▁জন্য	-84
▁তার	-85
দের	-86
ns	-87
ত্র	-88
▁উ	-89
▁আমরা	-90
▁খ	-91
▁\[	-92
▁কত	-93
▁the	-94
▁করতে	-95
▁একটি	-96
িল	-97
wer	-98
nswer	-99
▁র	-100
্ষ	-101
▁Answer	-102
ac	-103
্ট	-104
না	-105
▁টি	-106
▁করি	-107
েকে	-108
▁আছে	-109
▁কা	-110
▁\)	-111
▁যে	-112
▁পার	-113
▁পা	-114
▁\]	-115
▁বি	-116
}{	-117
fr	-118
লো	-119
te	-120
mes	-121
োগ	-122
▁o	-123
য়া	-124
times	-125
জন	-126
▁বা	-127
▁ধ	-128
▁হবে	-129
▁থেকে	-130
▁সে	-131
্ক	-132
▁নির্	-133
▁c	-134
▁এর	-135
frac	-136
▁ঘ	-137
িট	-138
▁প্রতিটি	-139
▁n	-140
is	-141
থম	-142
্ন	-143
▁দ্ব	-144
▁b	-145
▁s	-146
▁ফ	-147
্থ	-148
▁করা	-149
গুলি	-150
▁তিন	-151
▁তাই	-152
ুর	-153
\)	-154
াকা	-155
▁মা	-156
▁ভ	-157
▁সা	-158
েয়ে	-159
ুক	-160
▁বে	-161
**	-162
▁যা	-163
▁**	-164
িয়ে	-165
▁দু	-166
▁p	-167
▁ড	-168
খন	-169
le	-170
রি	-171
<<	-172
>>	-173
রণ	-174
মা	-175
▁ব্য	-176
▁of	-177
▁ভা	-178
al	-179
re	-180
▁প্রথম	-181
লের	-182
nd	-183
দি	-184
um	-185
ক্ষ	-186
▁যোগ	-187
বার	-188
▁বাক	-189
ন্ট	-190
xt	-191
তু	-192
▁এই	-193
▁ছা	-194
text	-195
▁T	-196
ির	-197
▁দে	-198
াম	-199
্প	-200
্রি	-201
▁হল	-202
▁হয়	-203
ফল	-204
▁পরি	-205
on	-206
▁w	-207
▁করার	-208
▁উপ	-209
ীয়	-210
বা	-211
ওয়া	-212
ot	-213
▁কে	-214
▁টাকা	-215
▁f	-216
▁এখন	-217
▁d	-218
সে	-219
▁গণ	-220
▁x	-221
ধ্য	-222
▁দিয়ে	-223
্চ	-224
▁অন	-225
ছর	-226
▁is	-227
ারা	-228
▁বছর	-229
or	-230
য়েছে	-231
▁দিন	-232
▁<<	-233
▁বের	-234
▁সংখ্য	-235
য়ার	-236
য়স	-237
হার	-238
শি	-239
এব	-240
তএব	-241
▁গু	-242
▁অতএব	-243
▁ই	-244
▁যদি	-245
ঙ্ক	-246
▁অর্	-247
en	-248
▁ছাত্র	-249
ারণ	-250
▁লা	-251
নের	-252
াকে	-253
▁গণনা	-254
ন্ড	-255
হে	-256
▁মধ্য	-257
ber	-258
▁বাকি	-259
▁ছিল	-260
umber	-261
▁ও	-262
▁কাছে	-263
▁বয়স	-264
▁ব্যব	-265
াদের	-266
রে	-267
পে	-268
▁m	-269
ীক	-270
▁থাকে	-271
ানে	-272
▁তাহ	-273
▁পারে	-274
▁তাহলে	-275
▁Th	-276
ড়া	-277
▁ভাগ	-278
ষ্	-279
ার্	-280
▁গুণ	-281
মি	-282
an	-283
▁সময়	-284
ূর্	-285
ংশ	-286
েষ	-287
▁না	-288
ing	-289
ীকরণ	-290
ig	-291
▁আমাদের	-292
▁বিক	-293
▁number	-294
▁and	-295
▁দুটি	-296
▁/	-297
▁নির্ণ	-298
▁নির্ণয়	-299
iv	-300
it	-301
▁মধ্যে	-302
▁সু	-303
তা	-304
▁কো	-305
:**	-306
ুন	-307
qu	-308
ৃত	-309
▁তৈ	-310
▁মি	-311
ছিল	-312
▁তৈরি	-313
▁S	-314
▁কম	-315
াই	-316
▁অঙ্ক	-317
ed	-318
at	-319
▁রা	-320
▁পারি	-321
েত্র	-322
▁চেয়ে	-323
ূর্ণ	-324
▁মিন	-325
র্ত	-326
ুজ	-327
om	-328
ভাবে	-329
্রে	-330
▁সংখ্যার	-331
স্থ	-332
▁to	-333
▁দ্বারা	-334
ূল	-335
▁কিন	-336
পা	-337
▁তিনি	-338
▁e	-339
ছি	-340
জে	-341
কের	-342
্তা	-343
থে	-344
সং	-345
▁ব্যবহার	-346
▁নে	-347
▁মিনিট	-348
▁অনু	-349
▁তাদের	-350
dot	-351
ন্ত	-352
গুলো	-353
▁ল	-354
সের	-355
▁গা	-356
ro	-357
▁খে	-358
▁in	-359
ারে	-360
▁সমা	-361
নি	-362
▁P	-363
িন্ন	-364
ul	-365
▁সমীকরণ	-366
ধান	-367
▁ক্ষ	-368
**:	-369
▁বেশি	-370
্তি	-371
াপ	-372
▁ঘন্ট	-373
ুল	-374
▁সম্	-375
ar	-376
দ্	-377
▁পে	-378
us	-379
হেতু	-380
▁মান	-381
ষ্ট	-382
cdot	-383
▁যোগফল	-384
গুণ	-385
$।	-386
▁করেছে	-387
লেন	-388
\]	-389
বো	-390
িটার	-391
েক	-392
িতীয়	-393
▁বই	-394
ত্ত	-395
▁মূল	-396
▁৳	-397
▁খু	-398
িতে	-399
▁গড়	-400
্রম	-401
োর	-402
▁প্রথমে	-403
লার	-404
ভাব	-405
▁C	-406
▁কি	-407
▁রয়েছে	-408
র্গ	-409
মাণ	-410
▁যায়	-411
কা	-412
▁যেহেতু	-413
▁সমান	-414
প্তা	-415
কার	-416
ুরু	-417
im	-418
বি	-419
ুট	-420
▁খুঁ	-421
ভুজ	-422
th	-423
পর	-424
▁সব	-425
▁দ্বিতীয়	-426
ওয়ার	-427
▁সুত	-428
সা	-429
থা	-430
রাং	-431
লিখ	-432
▁সুতরাং	-433
▁ভিন্ন	-434
▁থাক	-435
▁সাথে	-436
ম্ব	-437
টির	-438
▁পূর্ণ	-439
গে	-440
▁স্থ	-441
ol	-442
▁হলো	-443
▁এটি	-444
ভয়	-445
▁পাই	-446
▁জো	-447
ঞ্চ	-448
্লা	-449
ষ্ঠ	-450
ce	-451
▁খা	-452
▁উভয়	-453
▁অব	-454
ধু	-455
ir	-456
▁সপ্তা	-457
ble	-458
র্ঘ	-459
▁বর্গ	-460
▁সমাধান	-461
▁শেষ	-462
▁জান	-463
▁সমস	-464
▁ব্যা	-465
▁খুঁজে	-466
বাচ	-467
▁$\	-468
▁গ্র	-469
##	-470
▁আয়	-471
ম্ন	-472
টা	-473
▁পরিমাণ	-474
et	-475
▁চার	-476
▁ক্ষেত্র	-477
দিন	-478
ছিলেন	-479
▁সর্	-480
$,	-481
▁নির্বাচ	-482
মের	-483
চ্চ	-484
▁দৈ	-485
▁The	-486
সংখ	-487
য়ের	-488
▁বিন	-489
od	-490
দ্ধ	-491
ণ্ট	-492
▁খর	-493
▁কুক	-494
▁ঘন্টা	-495
▁তিনটি	-496
গ্র	-497
ati	-498
▁দুই	-499
খানে	-500
জি	-501
্ম	-502
▁সম্ভাব	-503
ীর	-504
▁পরে	-505
▁আপে	-506
as	-507
নে	-508
য়োগ	-509
▁কতটি	-510
র্ঘ্য	-511
▁কাজ	-512
▁আর	-513
▁বিক্রি	-514
▁ওজন	-515
▁রঙ	-516
রের	-517
▁স্ক	-518
▁পর্য	-519
▁we	-520
▁ছোট	-521
▁g	-522
▁দৈর্ঘ্য	-523
▁হয়েছে	-524
▁প্যা	-525
ধারণ	-526
▁কতগুলি	-527
▁দ্বি	-528
ানের	-529
▁h	-530
▁be	-531
▁দাম	-532
▁বাক্	-533
্দ	-534
োজন	-535
▁ক্যা	-536
▁কোন	-537
▁দেওয়া	-538
ay	-539
▁for	-540
▁খরচ	-541
মে	-542
▁একই	-543
▁মাই	-544
▁অংশ	-545
▁বৃ	-546
মন	-547
ন্স	-548
▁বন্	-549
ল্প	-550
▁B	-551
▁ঘণ্ট	-552
▁হতে	-553
▁অ্যা	-554
▁হি	-555
▁বো	-556
চ্	-557
য়োজন	-558
▁করলে	-559
id	-560
▁তারা	-561
োম	-562
▁দ্বিগুণ	-563
থাৎ	-564
তির	-565
$.	-566
▁প্রয়োজন	-567
▁by	-568
▁y	-569
ড়ি	-570
``	-571
▁পৃ	-572
▁ডি	-573
▁r	-574
▁\\	-575
উন্ড	-576
▁ছে	-577
▁বাদ	-578
▁দেখ	-579
ুক্ত	-580
▁প্রত	-581
েছে	-582
▁are	-583
▁প্রা	-584
▁pro	-585
ve	-586
ছু	-587
তুন	-588
ক্তি	-589
bin	-590
গুলির	-591
▁নী	-592
▁অর্থাৎ	-593
▁বার	-594
টার	-595
সংখ্যা	-596
▁পর্যন্ত	-597
▁নিম্ন	-598
▁অর্ধ	-599
লিক	-600
▁গো	-601
os	-602
▁মিটার	-603
▁নির্বাচন	-604
বর্ত	-605
▁কারণ	-606
▁যেখানে	-607
▁F	-608
ere	-609
ind	-610
▁সক	-611
▁re	-612
▁কিছু	-613
▁W	-614
মান	-615
ons	-616
▁নতুন	-617
if	-618
াত	-619
igh	-620
প্র	-621
▁টুক	-622
▁&	-623
▁L	-624
ুদ	-625
গ্রহ	-626
▁ফুট	-627
▁চা	-628
রো	-629
▁ক্লা	-630
▁ধরি	-631
লিখিত	-632
▁ব্যক্তি	-633
াকার	-634
▁$$	-635
▁can	-636
▁ত্রি	-637
ight	-638
▁থাকা	-639
▁নিম্নলিখিত	-640
▁পৃষ্ঠ	-641
▁একজন	-642
▁শি	-643
▁লি	-644
)।	-645
▁মূল্য	-646
ঙ্	-647
▁আপেল	-648
▁জে	-649
_{	-650
▁এমন	-651
▁বিয়োগ	-652
কো	-653
টের	-654
▁উপায়	-655
▁that	-656
ানো	-657
শে	-658
দা	-659
জ্	-660
▁লো	-661
^{	-662
▁v	-663
▁স্ট	-664
▁ধরে	-665
▁দূ	-666
ঠিক	-667
▁বন্ধু	-668
ec	-669
▁মাইল	-670
▁চি	-671
ত্ব	-672
▁দিনে	-673
▁সংখ্যক	-674
▁সর	-675
▁সম্প	-676
▁সকল	-677
ers	-678
জা	-679
▁D	-680
ad	-681
▁আরও	-682
▁মৌ	-683
▁অর্ধেক	-684
▁তারপর	-685
igit	-686
▁বড়	-687
▁অঙ্কের	-688
}$	-689
▁গতি	-690
binom	-691
ুপ	-692
▁সংখ্যাটি	-693
াপন	-694
▁ত্রিভুজ	-695
▁বিভা	-696
বল	-697
▁অনুস	-698
▁হার	-699
▁wh	-700
▁পেয়ে	-701
▁প্রতিদিন	-702
টে	-703
▁নম্ব	-704
▁সম্ভাব্য	-705
▁l	-706
ার্ড	-707
▁শুরু	-708
ou	-709
▁নয়	-710
▁লাল	-711
▁বল	-712
্ড	-713
ান্ত	-714
্দু	-715
▁numbers	-716
▁সপ্তাহে	-717
মাত্র	-718
ge	-719
▁ইঞ্চ	-720
ার্ট	-721
▁জানি	-722
▁R	-723
▁আয়ত	-724
equ	-725
ষ্টি	-726
তম	-727
্যার	-728
▁সমস্যা	-729
),	-730
স্ত	-731
▁পো	-732
▁তৃত	-733
ক্ষেত্র	-734
বেশ	-735
শেষ	-736
▁উত্ত	-737
▁ঘণ্টা	-738
বর্তী	-739
▁মে	-740
▁পাউন্ড	-741
▁করুন	-742
নার	-743
▁আস	-744
▁দূর	-745
▁পদ	-746
িক্ষ	-747
দিষ্ট	-748
▁তুল	-749
▁টুকরো	-750
ic	-751
▁ne	-752
থমিক	-753
ft	-754
ন্দ	-755
ts	-756
▁গাছ	-757
এর	-758
▁প্রত্য	-759
▁বিকল্প	-760
▁পূর্ণসংখ্যা	-761
▁নির্দিষ্ট	-762
▁div	-763
▁তবে	-764
ীক্ষ	-765
হি	-766
য়েন্ট	-767
▁রে	-768
▁ইঞ্চি	-769
▁ক্ষেত্রফল	-770
pl	-771
ড়ে	-772
▁রাখ	-773
্ল	-774
il	-775
▁সি	-776
▁নম্বর	-777
▁মৌলিক	-778
▁করেন	-779
চনা	-780
▁দূরত্ব	-781
yth	-782
হু	-783
বিন	-784
▁পি	-785
▁সার	-786
▁খাবার	-787
▁প্রশ	-788
স্ট	-789
ython	-790
জ্য	-791
▁ঘন	-792
▁কাপ	-793
▁তৃতীয়	-794
▁দেয়	-795
▁করেছেন	-796
িনি	-797
▁বিবে	-798
ible	-799
▁কেজি	-800
ঁচ	-801
▁করবো	-802
▁দি	-803
র্ষ	-804
▁প্রদ	-805
▁পরীক্ষ	-806
ন্য	-807
▁ডলার	-808
▁k	-809
▁নীল	-810
▁দশ	-811
্রা	-812
ক্ষে	-813
▁N	-814
▁as	-815
▁পান	-816
▁×	-817
▁যার	-818
▁পায়	-819
▁তাকে	-820
▁পয়েন্ট	-821
ation	-822
ate	-823
ানোর	-824
▁অনুসারে	-825
▁বিবেচনা	-826
শু	-827
▁ছেলে	-828
সি	-829
..	-830
▁কার্ড	-831
▁সূ	-832
▁##	-833
▁বেছে	-834
নায়	-835
ore	-836
▁প্রাথমিক	-837
▁সমীকরণটি	-838
লেট	-839
্যাক	-840
▁মাছ	-841
▁শিক্ষ	-842
▁us	-843
ুরুষ	-844
শিষ্ট	-845
▁সরল	-846
right	-847
▁করব	-848
otal	-849
▁ছাত্রদের	-850
ছেন	-851
তুর্	-852
▁থাকবে	-853
স্য	-854
সংহার	-855
▁জোড়া	-856
=<<	-857
▁পুরুষ	-858
ho	-859
ঙ্গ	-860
▁need	-861
▁কুকুর	-862
ারের	-863
▁উত্তর	-864
▁সপ্তাহ	-865
▁নির্ধারণ	-866
blem	-867
ভি	-868
▁pr	-869
▁অন্য	-870
quad	-871
▁বৃদ্ধ	-872
▁হয়ে	-873
▁তুলনায়	-874
▁আগে	-875
\).	-876
▁চারটি	-877
left	-878
▁স্ব	-879
▁প্রশ্ন	-880
ূপ	-881
সম	-882
▁ইউ	-883
▁দিনের	-884
োক	-885
irs	-886
ox	-887
▁মু	-888
ow	-889
mod	-890
্থক	-891
▁সদ	-892
▁ক্রম	-893
্থক্য	-894
▁M	-895
▁হলে	-896
ut	-897
▁on	-898
▁হিসে	-899
▁We	-900
▁লে	-901
শ্র	-902
▁টিক	-903
▁find	-904
▁অন্ত	-905
▁হিসেবে	-906
▁পৃষ্ঠা	-907
▁problem	-908
▁বর্ত	-909
▁গুণিত	-910
ach	-911
▁বিভাজ্য	-912
ণের	-913
▁সংগ্রহ	-914
▁###	-915
▁সূত্র	-916
▁$(	-917
all	-918
▁digit	-919
্যাল	-920
▁পার্থক্য	-921
ince	-922
▁an	-923
tion	-924
▁সহ	-925
▁কিনে	-926
▁খেলা	-927
▁fr	-928
যুক্ত	-929
▁লোক	-930
▁জু	-931
েকেন্ড	-932
▁বাক্স	-933
ার্থ	-934
▁sum	-935
তিক	-936
▁উচ্চ	-937
tep	-938
▁মো	-939
▁টিকিট	-940
▁E	-941
▁পাঁচ	-942
▁টে	-943
রণের	-944
▁লাগ	-945
▁লিখ	-946
▁শী	-947
▁মার্	-948
বের	-949
▁ধা	-950
বোচ্চ	-951
▁"	-952
জ্ঞ	-953
▁যেতে	-954
জের	-955
▁একক	-956
▁val	-957
িং	-958
▁বয়সের	-959
ays	-960
িক্ত	-961
ode	-962
▁le	-963
তিরিক্ত	-964
ith	-965
▁পেতে	-966
▁ফে	-967
কেট	-968
▁সাধারণ	-969
▁সর্বোচ্চ	-970
চেয়ে	-971
▁চতুর্	-972
▁কর্ম	-973
▁কুকি	-974
▁পরবর্তী	-975
▁করবে	-976
ুলে	-977
▁কমলা	-978
স্থাপন	-979
▁Python	-980
▁ভাই	-981
▁ধাপে	-982
▁যখন	-983
ন্সিল	-984
▁জোড়	-985
▁স্থান	-986
ver	-987
▁``	-988
▁শু	-989
▁ট্রে	-990
▁করেছিল	-991
▁```	-992
▁সর্ব	-993
▁পেন্সিল	-994
▁মার	-995
\),	-996
▁উৎ	-997
__	-998
▁G	-999
ap	-1000
নো	-1001
▁সবচেয়ে	-1002
্টি	-1003
▁this	-1004
▁অতিরিক্ত	-1005
মোট	-1006
▁মেয়ে	-1007
box	-1008
ফলের	-1009
তার	-1010
▁ম্যা	-1011
▁বৃদ্ধি	-1012
▁হা	-1013
▁sol	-1014
est	-1015
কারী	-1016
▁সদস্য	-1017
▁পছ	-1018
▁প্রতিস্থাপন	-1019
▁স্ত	-1020
ime	-1021
ম্প	-1022
▁শীর্ষ	-1023
্স	-1024
▁একটা	-1025
▁নিয়ে	-1026
▁দৌ	-1027
boxed	-1028
▁রঙের	-1029
uc	-1030
erm	-1031
ond	-1032
▁কতজন	-1033
▁যাবে	-1034
চ্ছে	-1035
▁গাড়ি	-1036
▁I	-1037
qr	-1038
ri	-1039
▁#	-1040
cul	-1041
qrt	-1042
▁divis	-1043
▁দল	-1044
▁নেয়	-1045
▁পাওয়া	-1046
্তু	-1047
য়ান	-1048
ies	-1049
▁বোত	-1050
equiv	-1051
▁প্রদত্ত	-1052
াদ	-1053
sqrt	-1054
▁বিভ	-1055
▁কিন্তু	-1056
্না	-1057
▁কার	-1058
alcul	-1059
▁There	-1060
▁শিশু	-1061
▁যাক	-1062
ধুমাত্র	-1063
কাশ	-1064
ীমা	-1065
act	-1066
▁code	-1067
ign	-1068
য়ন	-1069
fore	-1070
ang	-1071
▁গোল	-1072
▁গুণিতক	-1073
▁from	-1074
▁করেছিলেন	-1075
▁অর্থ	-1076
impl	-1077
▁\).	-1078
্রেণ	-1079
▁মহি	-1080
▁সেকেন্ড	-1081
▁giv	-1082
▁টাই	-1083
▁ছয়	-1084
▁শ্রেণ	-1085
▁প্রকাশ	-1086
্লে	-1087
পাদ	-1088
esul	-1089
▁আউ	-1090
খা	-1091
align	-1092
▁মিলি	-1093
▁সেমি	-1094
ine	-1095
)^	-1096
ent	-1097
CM	-1098
▁হওয়া	-1099
টিতে	-1100
▁শর্ত	-1101
lo	-1102
▁মহিলা	-1103
সাথে	-1104
▁ডিম	-1105
▁ধরণের	-1106
▁একসাথে	-1107
▁পছন্দ	-1108
পের	-1109
বেল	-1110
ভব	-1111
▁শুধুমাত্র	-1112
▁জনের	-1113
লোয়া	-1114
▁বস	-1115
▁নেওয়া	-1116
eg	-1117
▁আই	-1118
▁গে	-1119
লোয়াড়	-1120
▁ধার	-1121
পাত	-1122
ma	-1123
▁ডে	-1124
▁সমস্ত	-1125
▁স্যা	-1126
▁total	-1127
▁মিষ্টি	-1128
জো	-1129
▁pos	-1130
▁যাতে	-1131
▁বিন্যা	-1132
▁সাজ	-1133
▁যেকো	-1134
▁Therefore	-1135
▁সো	-1136
)$	-1137
▁খেলোয়াড়	-1138
শন	-1139
ust	-1140
▁\\[	-1141
am	-1142
থ্য	-1143
esult	-1144
গের	-1145
▁রো	-1146
▁মাসে	-1147
ence	-1148
▁উপসংহার	-1149
▁দলের	-1150
▁বর্তমান	-1151
▁each	-1152
▁\(\	-1153
▁তথ্য	-1154
▁চক	-1155
▁মাস	-1156
ডি	-1157
▁লম্ব	-1158
▁Since	-1159
ৃত্ত	-1160
▁বছরের	-1161
▁ব্যয়	-1162
ানা	-1163
ur	-1164
▁al	-1165
জার	-1166
▁বিড়া	-1167
ছা	-1168
▁ছাত্রের	-1169
▁সবুজ	-1170
▁সমাবেশ	-1171
▁with	-1172
▁স্কোর	-1173
▁হিসা	-1174
▁কিনতে	-1175
▁ফলা	-1176
▁পরীক্ষা	-1177
▁বাক্সে	-1178
▁কল	-1179
▁ঠিক	-1180
▁valu	-1181
▁সঠিক	-1182
▁পেয়েছে	-1183
▁equ	-1184
▁খেয়ে	-1185
▁পারবে	-1186
▁পূ	-1187
বিন্দু	-1188
▁উৎপাদ	-1189
▁\),	-1190
▁সম্ভব	-1191
যোগ	-1192
▁সম্ভাবনা	-1193
▁বৃহ	-1194
▁দিতে	-1195
▁using	-1196
হ্ন	-1197
ফি	-1198
▁উচ্চতা	-1199
▁দোক	-1200
▁মুখ	-1201
▁পুন	-1202
▁\[\	-1203
লির	-1204
ুদ্র	-1205
▁একত্র	-1206
▁উপর	-1207
▁Let	-1208
▁বিত	-1209
dd	-1210
▁হয়েছিল	-1211
▁V	-1212
শ্য	-1213
জোড়	-1214
▁ক্রে	-1215
ধিক	-1216
▁cho	-1217
▁রু	-1218
▁সরলীকরণ	-1219
▁কোনও	-1220
▁পূরণ	-1221
পক্ষে	-1222
}}	-1223
▁লাগবে	-1224
▁চিহ্ন	-1225
▁আয়তক্ষেত্র	-1226
▁st	-1227
▁অবশিষ্ট	-1228
ates	-1229
):	-1230
কেল	-1231
▁ex	-1232
্মক	-1233
▁ট্র	-1234
irc	-1235
▁com	-1236
চে	-1237
▁লাই	-1238
▁গুণফল	-1239
▁H	-1240
কটি	-1241
চিত	-1242
}\	-1243
▁সেই	-1244
end	-1245
▁কী	-1246
ঙ্কের	-1247
▁থাকতে	-1248
▁মিনিটে	-1249
পাশে	-1250
ডের	-1251
▁To	-1252
▁ট্যা	-1253
).	-1254
▁ভিত	-1255
▁must	-1256
▁ভ্রম	-1257
▁রান	-1258
রু	-1259
ক্ত	-1260
▁u	-1261
▁বু	-1262
▁পড়	-1263
▁গ্যাল	-1264
ান্তর	-1265
▁লিখতে	-1266
▁ঘন্টায়	-1267
ড়ির	-1268
▁বইয়ের	-1269
▁বিন্দু	-1270
মিক	-1271
▁লম্বা	-1272
)}	-1273
নিম্ন	-1274
pmod	-1275
▁শতা	-1276
ak	-1277
ly	-1278
▁আল	-1279
▁হাত	-1280
CD	-1281
▁রূপ	-1282
হা	-1283
চের	-1284
▁লাগে	-1285
▁আউন্স	-1286
▁মার্বেল	-1287
▁কমপক্ষে	-1288
nt	-1289
▁ব্ল	-1290
▁যেকোনো	-1291
মার	-1292
▁তখন	-1293
▁টাকার	-1294
ab	-1295
নাত	-1296
▁বাহু	-1297
▁সর্বনিম্ন	-1298
্রু	-1299
teg	-1300
irst	-1301
▁ছাড়	-1302
iti	-1303
▁বছরে	-1304
▁বিক্র	-1305
▁চিহ্নিত	-1306
শা	-1307
▁কতগুলো	-1308
▁গঠ	-1309
▁বয়সী	-1310
▁অনুপাত	-1311
▁tw	-1312
▁তিনগুণ	-1313
ুলের	-1314
ess	-1315
loor	-1316
▁প্রত্যেকে	-1317
▁integ	-1318
▁গ্যালন	-1319
▁জি	-1320
▁ধরা	-1321
▁লিটার	-1322
▁ha	-1323
▁বলে	-1324
▁জল	-1325
▁বৃত্ত	-1326
alculate	-1327
থবা	-1328
স্থিত	-1329
ple	-1330
▁it	-1331
▁গ্রুপ	-1332
▁divisible	-1333
য়ম	-1334
▁বেল	-1335
▁স্টি	-1336
▁শীর্ষবিন্দু	-1337
মিটার	-1338
▁বিতরণ	-1339
▁ভিত্তি	-1340
▁দৌড়	-1341
▁প্রয়োজনীয়	-1342
েছেন	-1343
▁খেল	-1344
▁সম্পূর্ণ	-1345
▁বিজোড়	-1346
▁<	-1347
▁ধনাত	-1348
▁given	-1349
}}{	-1350
int	-1351
▁digits	-1352
বারের	-1353
▁শিক্ষার্থ	-1354
sible	-1355
অঙ্কের	-1356
▁ধনাত্মক	-1357
*}	-1358
শের	-1359
▁দিয়েছে	-1360
ন্টি	-1361
▁ষ	-1362
স্প	-1363
▁করো	-1364
actor	-1365
▁This	-1366
ীত	-1367
▁শতাংশ	-1368
▁তো	-1369
▁নোট	-1370
▁সেট	-1371
▁বাস	-1372
▁prime	-1373
▁প্রাণ	-1374
▁পাথ	-1375
angle	-1376
▁নেওয়ার	-1377
floor	-1378
pr	-1379
▁হলুদ	-1380
িনের	-1381
▁গণিত	-1382
ুরগ	-1383
▁&=	-1384
▁or	-1385
▁খায়	-1386
▁গোলা	-1387
াইম	-1388
▁ভে	-1389
▁সাদা	-1390
leq	-1391
▁two	-1392
col	-1393
▁ক্লাসে	-1394
▁জানতে	-1395
▁per	-1396
▁pa	-1397
▁ধারণ	-1398
▁ধারা	-1399
▁হওয়ার	-1400
▁ছাড়া	-1401
▁রূপান্তর	-1402
▁বৈ	-1403
গুলোর	-1404
মু	-1405
▁চে	-1406
▁কিল	-1407
▁পুর	-1408
▁শার্ট	-1409
শেষে	-1410
▁বাই	-1411
ange	-1412
গ্রহণ	-1413
▁দিকে	-1414
▁কেক	-1415
▁মুরগ	-1416
▁নেই	-1417
row	-1418
!}{	-1419
▁ত্রিভুজের	-1420
▁কাগ	-1421
▁নিতে	-1422
ডে	-1423
▁'	-1424
▁বী	-1425
▁অতিক	-1426
সংখ্যার	-1427
গ্না	-1428
গ্নাংশ	-1429
▁কিমি	-1430
লায়	-1431
▁rema	-1432
▁শেষে	-1433
গুলিকে	-1434
▁সেন্ট	-1435
▁।	-1436
▁po	-1437
▁চতুর্থ	-1438
▁স্থানে	-1439
▁বিশ	-1440
▁বিষ	-1441
▁সমস্যাটি	-1442
▁For	-1443
্যাপ	-1444
▁ক্ষেত্রে	-1445
▁form	-1446
▁have	-1447
▁ভগ্নাংশ	-1448
...	-1449
▁\)।	-1450
▁\,	-1451
▁কলা	-1452
▁অক্ষ	-1453
▁ফলাফল	-1454
ন্ন	-1455
বর্	-1456
▁পঞ্চ	-1457
▁পদ্ধ	-1458
▁প্রাথমিকভাবে	-1459
▁ব্যক্তির	-1460
ast	-1461
▁প্যাকে	-1462
▁বর্গক্ষেত্র	-1463
▁অথবা	-1464
app	-1465
▁তুলে	-1466
গুলিতে	-1467
inal	-1468
mall	-1469
ulti	-1470
beg	-1471
begin	-1472
ভুজের	-1473
▁পরিস	-1474
▁দেওয়ার	-1475
▁প্রত্যেক	-1476
েরি	-1477
▁অতিক্রম	-1478
্কার	-1479
▁ইতি	-1480
▁পাখ	-1481
বাধিক	-1482
▁গ্রা	-1483
াল	-1484
ount	-1485
▁ক্র	-1486
pi	-1487
গো	-1488
ন্ডি	-1489
প্রতি	-1490
▁করছে	-1491
▁একত্রিত	-1492
▁solve	-1493
ub	-1494
▁>	-1495
ভুক্ত	-1496
ক্রি	-1497
▁পিজ্	-1498
▁ঘণ্টায়	-1499
▁সোম	-1500
▁যাত্র	-1501
দে	-1502
শ্চ	-1503
িয়া	-1504
▁ইউন	-1505
▁সর্বাধিক	-1506
টো	-1507
▁পাঁচটি	-1508
▁term	-1509
ীদের	-1510
▁গ্রাম	-1511
▁হিসাব	-1512
▁LCM	-1513
duc	-1514
ভার	-1515
▁আক	-1516
▁বিড়াল	-1517
▁অন্তত	-1518
▁ভ্রমণ	-1519
ঞ্	-1520
}\)	-1521
▁লাভ	-1522
▁চায়	-1523
ese	-1524
▁জ্যা	-1525
দ্ধান	-1526
▁তিনজন	-1527
▁সিদ্ধান	-1528
▁পড়ে	-1529
▁factor	-1530
ধি	-1531
▁শে	-1532
▁স্প	-1533
ুষ	-1534
!}	-1535
}(	-1536
ich	-1537
▁ধর	-1538
$$	-1539
▁int	-1540
▁ঝ	-1541
▁ধাপ	-1542
মিশ্র	-1543
▁আয়তন	-1544
▁প্রস্থ	-1545
▁সিদ্ধান্ত	-1546
▁কাজের	-1547
াকায়	-1548
▁একবার	-1549
oth	-1550
implies	-1551
▁পাশে	-1552
স্ক	-1553
▁ব্যাগ	-1554
তো	-1555
ষণ	-1556
▁z	-1557
▁chocol	-1558
▁বিভিন্ন	-1559
▁উভয়পাশে	-1560
ist	-1561
▁বাহ	-1562
▁জা	-1563
ra	-1564
ven	-1565
▁O	-1566
ডার	-1567
▁সংমিশ্র	-1568
কাল	-1569
ill	-1570
ints	-1571
▁possible	-1572
ify	-1573
are	-1574
▁বোতল	-1575
ks	-1576
ড়িতে	-1577
ষা	-1578
▁small	-1579
▁দেখা	-1580
▁these	-1581
▁নিম্নলিখিতভাবে	-1582
শো	-1583
বু	-1584
▁দা	-1585
▁যত	-1586
▁অংশগ্রহণ	-1587
▁চকলেট	-1588
শাক	-1589
dots	-1590
বিল	-1591
▁অবস্থ	-1592
▁চাল	-1593
কারের	-1594
▁কেবল	-1595
▁ইউনিট	-1596
fer	-1597
▁পাঠ	-1598
▁ক্লাস	-1599
▁আপ	-1600
▁উল	-1601
▁cons	-1602
ক্ষণ	-1603
▁first	-1604
▁পারেন	-1605
ওয়	-1606
চার	-1607
াপ্ত	-1608
উপ	-1609
▁odd	-1610
▁will	-1611
▁কোণ	-1612
▁বাদাম	-1613
▁ভাগশেষ	-1614
নির	-1615
▁সম্পর্	-1616
▁রি	-1617
▁which	-1618
▁pl	-1619
ations	-1620
▁AB	-1621
ণ্ড	-1622
সার	-1623
▁উচিত	-1624
▁গেছে	-1625
▁সপ্তাহের	-1626
▁চিত	-1627
▁স্থাপন	-1628
}\]	-1629
▁Thus	-1630
▁বিনি	-1631
কি	-1632
duct	-1633
▁কালো	-1634
▁অবশেষে	-1635
▁প্রায়	-1636
▁step	-1637
▁পোশাক	-1638
▁ফুল	-1639
▁divid	-1640
div	-1641
র্ড	-1642
ঙ্গল	-1643
▁ছবি	-1644
▁শত	-1645
▁যথ	-1646
▁পাতা	-1647
▁মোজা	-1648
▁হচ্ছে	-1649
শ্যই	-1650
imum	-1651
শ্চিত	-1652
▁where	-1653
▁বন্ধ	-1654
▁পু	-1655
▁সেন্টি	-1656
ুই	-1657
▁কয়ে	-1658
▁বাহুর	-1659
(\	-1660
▁all	-1661
▁কোনো	-1662
▁অবশ্যই	-1663
গা	-1664
ধ্যে	-1665
▁আপেলের	-1666
iz	-1667
▁কলম	-1668
▁চলে	-1669
▁J	-1670
our	-1671
দান	-1672
▁সোমবার	-1673
▁নিশ্চিত	-1674
▁প্যাকেট	-1675
▁if	-1676
▁স্বা	-1677
▁গ্রাহ	-1678
iffer	-1679
যে	-1680
বির	-1681
▁সাই	-1682
▁X	-1683
ধিত	-1684
▁বেলুন	-1685
▁জন্ম	-1686
▁কর্	-1687
▁ফেলে	-1688
▁যাওয়া	-1689
▁লক্ষ	-1690
▁রাউন্ড	-1691
▁সারিতে	-1692
ta	-1693
}^{	-1694
▁অন্তর্	-1695
▁খাবারের	-1696
▁টমে	-1697
ায়ী	-1698
digit	-1699
চ্ছ	-1700
line	-1701
কারণ	-1702
▁কয়	-1703
ভে	-1704
▁one	-1705
▁multi	-1706
▁|	-1707
▁at	-1708
▁প্রাপ্ত	-1709
জক	-1710
▁If	-1711
▁পূর্ণসংখ্যার	-1712
▁কুকুরের	-1713
তন	-1714
পি	-1715
▁শুক	-1716
▁দান	-1717
▁দিক	-1718
▁তে	-1719
▁দেখতে	-1720
ন্ত্র	-1721
দ্ব	-1722
▁আট	-1723
▁বীজ	-1724
sum	-1725
▁ভুল	-1726
▁even	-1727
arrow	-1728
inder	-1729
প্রথম	-1730
▁জিনি	-1731
▁সমষ্টি	-1732
খে	-1733
▁হে	-1734
্লেষণ	-1735
▁কিলোম	-1736
▁ছয়টি	-1737
▁সমীকরণে	-1738
পূর্ণ	-1739
▁মঙ্গল	-1740
মধ্যে	-1741
▁মাসের	-1742
ীল	-1743
▁গত	-1744
ষ্কার	-1745
▁সারি	-1746
▁খেলে	-1747
▁মানে	-1748
ct	-1749
তৃত	-1750
লিন	-1751
circ	-1752
▁ক্যান্ডি	-1753
▁squ	-1754
equence	-1755
▁values	-1756
rox	-1757
ফুট	-1758
▁has	-1759
▁বৃহত্ত	-1760
▁product	-1761
▁{	-1762
}$.	-1763
▁বৈধ	-1764
▁মিলে	-1765
উই	-1766
▁চাই	-1767
ax	-1768
mon	-1769
ীয়া	-1770
▁বাগ	-1771
▁integer	-1772
মূল	-1773
ঘন্ট	-1774
ldots	-1775
▁চেয়ার	-1776
▁লক্ষ্য	-1777
▁যাওয়ার	-1778
▁not	-1779
▁বন্ধুদের	-1780
▁কিলোমিটার	-1781
▁ফল	-1782
▁বান	-1783
ীব	-1784
▁আলা	-1785
ীয়াংশ	-1786
▁টাকায়	-1787
▁শিক্ষক	-1788
য়াম	-1789
▁সমীকরণের	-1790
▁সংখ্যাগুলি	-1791
▁ইতিমধ্যে	-1792
)(	-1793
AB	-1794
▁শব	-1795
over	-1796
▁বাম	-1797
▁সাম	-1798
▁পদ্ধতি	-1799
ানি	-1800
▁আলাদা	-1801
▁টেবিল	-1802
▁min	-1803
▁খাওয়া	-1804
▁ক্রেয়ন	-1805
▁চল	-1806
ীতে	-1807
টিকে	-1808
▁পাবে	-1809
▁গাছের	-1810
▁ব্যাস	-1811
▁ব্যবস্থ	-1812
▁সংখ্যাকে	-1813
▁মাত্র	-1814
▁দৈর্ঘ্যের	-1815
ose	-1816
▁ছু	-1817
▁বিন্যাস	-1818
ear	-1819
les	-1820
▁ব্র	-1821
▁ক্রি	-1822
▁রাখে	-1823
▁differ	-1824
▁খেলার	-1825
\_	-1826
ূন্য	-1827
▁দুধ	-1828
▁নাশ	-1829
উপসংহার	-1830
▁পরিসীমা	-1831
লেক	-1832
▁আবার	-1833
▁ব্লক	-1834
approx	-1835
▁চান	-1836
▁সংমিশ্রণ	-1837
র্শ	-1838
▁sequence	-1839
▁smallest	-1840
▁ক্ষুদ্র	-1841
হন	-1842
▁...	-1843
গার	-1844
▁চার্	-1845
▁সেন্টিমিটার	-1846
▁পাথর	-1847
▁বলের	-1848
্যান্ড	-1849
▁ঘনক	-1850
▁ষড়	-1851
▁উপায়ের	-1852
▁ঘাত	-1853
▁পড়া	-1854
geq	-1855
▁গতিতে	-1856
▁ছেলেদের	-1857
▁equation	-1858
নিক	-1859
▁নিক	-1860
▁পাখি	-1861
▁chocolates	-1862
রাব	-1863
▁নিয়ম	-1864
সব	-1865
বেরি	-1866
▁বুধ	-1867
▁বিভক্ত	-1868
▁পরের	-1869
▁পূর্	-1870
▁ক্যান	-1871
▁গোলাপ	-1872
▁হারে	-1873
▁ঘর	-1874
▁ফলে	-1875
েষ্ট	-1876
▁বাড়ি	-1877
▁}	-1878
▁ডা	-1879
ity	-1880
বিক	-1881
▁খাম	-1882
▁মানুষ	-1883
▁স্থানের	-1884
▁বেক	-1885
▁গ্রাহক	-1886
ন্ব	-1887
ঘন্টা	-1888
▁pairs	-1889
▁কয়টি	-1890
ার্ধ	-1891
▁উভয়ই	-1892
ents	-1893
▁দলে	-1894
্যাম্প	-1895
▁টমেটো	-1896
কেক	-1897
▁কাটা	-1898
▁ধারার	-1899
▁পিজ্জা	-1900
art	-1901
▁উপস্থিত	-1902
▁remainder	-1903
▁সুদ	-1904
▁প্রতিনি	-1905
পার	-1906
্রের	-1907
▁সমন্ব	-1908
▁স্ট্র	-1909
▁দোকানে	-1910
▁যোগফলের	-1911
▁than	-1912
▁সীমা	-1913
▁সমানভাবে	-1914
▁days	-1915
▁ডান	-1916
▁সাত	-1917
্যাক্ট	-1918
▁নির্বাচনের	-1919
ition	-1920
▁value	-1921
^\	-1922
বদ্ধ	-1923
▁ডজন	-1924
▁cond	-1925
▁যারা	-1926
▁ঘনকের	-1927
ng	-1928
▁con	-1929
▁নাম	-1930
▁বিপর	-1931
▁উপহার	-1932
ুম	-1933
▁max	-1934
▁শিক্ষার্থী	-1935
ূড়	-1936
ution	-1937
▁বিশ্লেষণ	-1938
▁(\	-1939
মেন্ট	-1940
ূড়ান্ত	-1941
▁ক্লাসের	-1942
ড্র	-1943
▁জিনিস	-1944
riangle	-1945
▁গাড়ির	-1946
we	-1947
মুনা	-1948
▁পক্ষ	-1949
▁নাশপা	-1950
▁সময়ের	-1951
▁পুরো	-1952
▁কারণে	-1953
▁সমান্ত	-1954
▁এরপর	-1955
লিপ	-1956
▁সাজানো	-1957
ব্য	-1958
ায়ে	-1959
▁দুইজন	-1960
থি	-1961
▁both	-1962
▁সুদের	-1963
▁answer	-1964
▁ট্রেনের	-1965
বৃ	-1966
▁বাক্সের	-1967
থাংশ	-1968
েকের	-1969
ভাবিক	-1970
▁আসুন	-1971
▁সন্ত	-1972
▁নমুনা	-1973
▁বাচ্চ	-1974
ion	-1975
▁আইটে	-1976
ংক	-1977
তের	-1978
▁ch	-1979
্ষিক	-1980
econd	-1981
▁ঘরের	-1982
uch	-1983
▁then	-1984
▁বিজ্ঞ	-1985
▁উপায়ে	-1986
▁প্রাণী	-1987
____	-1988
▁বিল	-1989
▁প্রাইম	-1990
▁ক্ষুদ্রতম	-1991
▁মার্ক	-1992
ute	-1993
▁পুনর্	-1994
▁cm	-1995
▁ভাজক	-1996
▁when	-1997
▁কেন্দ	-1998
▁খেলনা	-1999
▁বর্গফুট	-2000
▁বিক্রয়	-2001
▁স্বাভাবিক	-2002
▁বেতন	-2003
▁print	-2004
ুদ্রা	-2005
▁মুরগি	-2006
▁সমস্যার	-2007
{\	-2008
ীন	-2009
▁গড়ে	-2010
▁বুধবার	-2011
▁শ্রেণীর	-2012
▁কিনেছিলেন	-2013
ঠি	-2014
)}{	-2015
▁ট্রেন	-2016
▁square	-2017
▁অন্তর্ভুক্ত	-2018
স্তা	-2019
▁অক্ষর	-2020
▁মুদ্রা	-2021
▁ফ্যাক্ট	-2022
ree	-2023
▁let	-2024
▁আয়তক্ষেত্রের	-2025
লব	-2026
ase	-2027
চ্ছি	-2028
▁মঙ্গলবার	-2029
▁ফির	-2030
▁শুক্র	-2031
▁স্কুলে	-2032
▁পরিবর্ত	-2033
▁বার্ষিক	-2034
▁tak	-2035
▁ভাবে	-2036
▁বর্গক্ষেত্রের	-2037
গ্রি	-2038
▁ক্রমিক	-2039
▁চূড়ান্ত	-2040
▁পৌ	-2041
ষ্টির	-2042
▁কর্ণ	-2043
uti	-2044
▁such	-2045
▁ব্যাসার্ধ	-2046
LCM	-2047
্যান	-2048
▁range	-2049
▁দোকান	-2050
▁সাজানোর	-2051
▁ডো	-2052
স্থি	-2053
ter	-2054
িয়েছে	-2055
▁আজ	-2056
মানে	-2057
্লাস	-2058
▁ছেদ	-2059
overline	-2060
{(	-2061
শীল	-2062
্রাম	-2063
ৃত্তি	-2064
▁বলা	-2065
▁there	-2066
▁অনন্য	-2067
▁গেম	-2068
▁মাঝ	-2069
its	-2070
▁দী	-2071
লোরি	-2072
▁স্কুল	-2073
বুক	-2074
▁রাশি	-2075
▁গঠন	-2076
▁ওয়া	-2077
▁সারির	-2078
▁উৎপাদক	-2079
$:	-2080
িতা	-2081
▁un	-2082
▁ver	-2083
▁পার্	-2084
▁points	-2085
▁জনসংখ্যা	-2086
ধন	-2087
uld	-2088
▁নির্ণয়ের	-2089
টতম	-2090
▁রেখা	-2091
python	-2092
পরে	-2093
্রমে	-2094
▁আসন	-2095
▁কাগজ	-2096
▁বাবা	-2097
ফের	-2098
▁এল	-2099
▁জানা	-2100
▁চারজন	-2101
▁মেয়েদের	-2102
▁স্	-2103
▁দশমিক	-2104
▁টা	-2105
▁ভর	-2106
▁bet	-2107
▁ক্যালোরি	-2108
!(	-2109
▁মাছের	-2110
▁মিশ্র	-2111
cl	-2112
un	-2113
▁বৃত্তের	-2114
\\	-2115
ph	-2116
হৃত	-2117
স্পতি	-2118
ath	-2119
ween	-2120
্লাই	-2121
▁শব্দ	-2122
▁লোকের	-2123
▁অতি	-2124
▁বহু	-2125
▁যাদের	-2126
▁টিকিটের	-2127
পিং	-2128
▁উই	-2129
▁\):	-2130
▁আইস	-2131
▁বিপরীত	-2132
বিদ	-2133
▁অভি	-2134
▁তালি	-2135
▁পঞ্চম	-2136
▁between	-2137
▁স্যান্ড	-2138
})	-2139
▁পৌঁ	-2140
▁কিনেছেন	-2141
লগ	-2142
ঘণ্ট	-2143
▁টুপ	-2144
▁দীর্ঘ	-2145
▁কতভাবে	-2146
▁প্রয়োগ	-2147
▁সংখ্যাগুলো	-2148
▁($	-2149
▁ঘরে	-2150
▁জীব	-2151
▁বাল	-2152
▁পরিবার	-2153
▁me	-2154
▁দুজন	-2155
▁স্টিকার	-2156
▁ঝু	-2157
▁সংখ্যাগুলির	-2158
▁অধ	-2159
▁শূন্য	-2160
▁তারপরে	-2161
▁নিকটতম	-2162
day	-2163
▁বর্গের	-2164
▁calculate	-2165
el	-2166
fy	-2167
eck	-2168
▁শহ	-2169
▁মিল	-2170
▁শুক্রবার	-2171
বাহ	-2172
ুপে	-2173
▁area	-2174
▁ওজনের	-2175
▁কিনেছে	-2176
▁পরবর্তীতে	-2177
কৃত	-2178
য়াল	-2179
▁আসে	-2180
ওয়ায়	-2181
▁গিয়ে	-2182
▁ভোট	-2183
press	-2184
▁Step	-2185
▁গোলক	-2186
▁প্রতিনিধিত	-2187
)!}	-2188
▁তর	-2189
▁মতো	-2190
▁পোষা	-2191
▁প্রতিযোগ	-2192
সিক	-2193
্তে	-2194
▁টাইল	-2195
lfloor	-2196
rfloor	-2197
▁three	-2198
▁ব্যবহৃত	-2199
াকড়	-2200
▁হ্যা	-2201
▁count	-2202
▁বর্তমানে	-2203
*.	-2204
put	-2205
▁sid	-2206
▁বাজ	-2207
▁রাখা	-2208
াস	-2209
▁গ্রে	-2210
▁থাকার	-2211
eterm	-2212
ল্পনা	-2213
▁ব্যাঙ	-2214
ভূ	-2215
▁বিদ	-2216
▁মের	-2217
▁পরিক	-2218
▁পরিষ্কার	-2219
Result	-2220
▁মাধ্য	-2221
▁অর্ডার	-2222
পুর	-2223
▁এসে	-2224
প্রতিটি	-2225
কালে	-2226
▁গ্রহ	-2227
itions	-2228
▁বিষয়	-2229
▁গ্রুপে	-2230
▁ভাইয়ের	-2231
▁দর	-2232
ther	-2233
▁ডিগ্রি	-2234
রাবৃত্তি	-2235
arg	-2236
স্ব	-2237
▁অংশের	-2238
▁any	-2239
▁পানি	-2240
▁পাত্র	-2241
▁divided	-2242
ef	-2243
▁কাঠ	-2244
▁জেম	-2245
▁মাং	-2246
যেহেতু	-2247
▁second	-2248
ণি	-2249
▁তু	-2250
ায়ের	-2251
▁dist	-2252
্যান্য	-2253
▁সম্পর্ক	-2254
▁বৃহস্পতি	-2255
ch	-2256
▁যৌ	-2257
্যাস	-2258
▁জাম	-2259
াক্রমে	-2260
ud	-2261
প্তাহ	-2262
▁দেখে	-2263
▁সম্পন্ন	-2264
সু	-2265
\)।	-2266
\_\_	-2267
▁আগের	-2268
▁কর্মী	-2269
▁combin	-2270
▁কিনেছিল	-2271
যা	-2272
▁ways	-2273
▁গুটি	-2274
▁রেখে	-2275
▁মূল্যের	-2276
▁into	-2277
▁পরিবর্তন	-2278
▁নির্বাচিত	-2279
ঞ্জ	-2280
▁এখানে	-2281
▁থাকলে	-2282
▁যুক্ত	-2283
▁পরিস্থি	-2284
ect	-2285
▁অপর	-2286
▁হাই	-2287
▁circ	-2288
▁উপরের	-2289
▁প্রতিনিধিত্ব	-2290
▁শতক	-2291
ফে	-2292
▁কন	-2293
▁Number	-2294
▁প্রতিটিতে	-2295
▁ফি	-2296
ঘণ্টা	-2297
▁ডিমের	-2298
▁শুরুতে	-2299
সন	-2300
▁অভ	-2301
▁রবি	-2302
▁final	-2303
▁ট্রি	-2304
▁উপার্	-2305
▁সেটের	-2306
▁যথাক্রমে	-2307
থক	-2308
▁রাখতে	-2309
▁ব্যাগে	-2310
▁নাশপাতি	-2311
▁\$	-2312
▁ছি	-2313
▁পর্যবে	-2314
per	-2315
▁ফো	-2316
▁উপার্জন	-2317
")	-2318
▁so	-2319
▁বোন	-2320
▁সিন	-2321
▁উপরে	-2322
▁পদের	-2323
▁চিত্র	-2324
▁ট্রাক	-2325
▁প্রদান	-2326
বক	-2327
▁\((	-2328
▁বন্ধুর	-2329
▁আইসক্রি	-2330
ame	-2331
▁সেকেন্ডে	-2332
▁out	-2333
▁শনি	-2334
ility	-2335
▁ম্যাচ	-2336
▁express	-2337
▁হওয়ায়	-2338
▁বিড়ালের	-2339
▁গঠিত	-2340
▁লাইব	-2341
▁সারা	-2342
▁জ্যাক	-2343
▁ভি	-2344
▁ড্র	-2345
▁বোঝ	-2346
▁বৃহত্তম	-2347
▁বিনিয়োগ	-2348
▁সীমাবদ্ধ	-2349
ট্র	-2350
ন্ধ	-2351
▁স্ট্রবেরি	-2352
ডা	-2353
ত্য	-2354
▁গর	-2355
▁শিশুদের	-2356
তৃতীয়াংশ	-2357
▁q	-2358
ula	-2359
্সের	-2360
▁আমার	-2361
▁এখনও	-2362
▁সমাবেশের	-2363
ubs	-2364
▁গাজ	-2365
▁asks	-2366
▁নোটবুক	-2367
▁কাছ	-2368
যায়ী	-2369
▁আছেন	-2370
▁লেখা	-2371
▁valid	-2372
▁পুনরাবৃত্তি	-2373
▁ar	-2374
িটারে	-2375
▁নীতি	-2376
▁অঙ্কটি	-2377
▁মিনিটের	-2378
▁কেবলমাত্র	-2379
কর্	-2380
▁se	-2381
▁গরু	-2382
▁অনুযায়ী	-2383
up	-2384
▁টুপি	-2385
▁পৃথক	-2386
▁দিয়েছিল	-2387
$)	-2388
▁So	-2389
পত্র	-2390
ূল্য	-2391
▁GCD	-2392
▁স্কুলের	-2393
▁অন্যান্য	-2394
▁প্রতিটির	-2395
atis	-2396
্টার	-2397
▁গুণন	-2398
▁কেনার	-2399
▁get	-2400
▁চিন	-2401
▁লাফ	-2402
)\)	-2403
▁সময়ে	-2404
▁বোতলের	-2405
কোণ	-2406
▁দৃ	-2407
ড়ার	-2408
▁অসম	-2409
▁খরগো	-2410
▁result	-2411
▁থাকায়	-2412
ংরে	-2413
▁ষড়ভুজ	-2414
etermine	-2415
▁রোপ	-2416
▁জলের	-2417
▁জুতা	-2418
▁মিলিয়ে	-2419
tand	-2420
▁satis	-2421
rib	-2422
nders	-2423
▁জায়	-2424
▁পদক্ষে	-2425
▁[	-2426
▁বহন	-2427
▁ছেলের	-2428
▁ফুলের	-2429
▁কোয়ার	-2430
nderstand	-2431
দেশ	-2432
বাই	-2433
▁উঠ	-2434
বয়স	-2435
▁পর্	-2436
▁verify	-2437
▁উৎপাদন	-2438
▁কাগজের	-2439
▁ঘন্টার	-2440
লাই	-2441
▁পারবেন	-2442
▁পরিকল্পনা	-2443
iven	-2444
▁non	-2445
ুক্তি	-2446
▁খুঁজ	-2447
▁বাস্	-2448
গুলোকে	-2449
▁অনুসরণ	-2450
▁স্যান্ডউই	-2451
▁বৃহস্পতিবার	-2452
▁পয়স	-2453
▁এইভাবে	-2454
▁যাত্রা	-2455
াকি	-2456
▁অপ	-2457
স্তু	-2458
▁স্লাই	-2459
▁কেন্দ্র	-2460
▁least	-2461
▁কোম্প	-2462
▁ধরনের	-2463
▁পরীক্ষার	-2464
by	-2465
cd	-2466
▁একা	-2467
▁দিলে	-2468
▁ফা	-2469
▁তোম	-2470
▁নিই	-2471
▁টায়	-2472
▁নিচে	-2473
▁নিয়মিত	-2474
▁integers	-2475
▁difference	-2476
ass	-2477
▁ফের	-2478
ছাত্র	-2479
▁larg	-2480
▁last	-2481
▁ap	-2482
য়ানের	-2483
▁বোনের	-2484
▁formula	-2485
ans	-2486
ারি	-2487
▁common	-2488
▁খেলায়	-2489
লিয়ে	-2490
স্টার	-2491
▁ইংরে	-2492
▁করছেন	-2493
▁খেয়েছে	-2494
▁মানগুলি	-2495
▁টম	-2496
pm	-2497
ors	-2498
োগ্রাম	-2499
▁রান্না	-2500
▁factors	-2501
▁প্রান্ত	-2502
▁multiple	-2503
}")	-2504
und	-2505
▁sh	-2506
ঙ্গু	-2507
▁কিনা	-2508
▁প্রাণীর	-2509
োল	-2510
tic	-2511
▁co	-2512
বাহু	-2513
▁মেল	-2514
▁ক্ষতি	-2515
▁maximum	-2516
\%	-2517
▁কেনা	-2518
▁আড়	-2519
▁কাট	-2520
দ্বিতীয়	-2521
▁পরিবারের	-2522
ug	-2523
▁j	-2524
▁আন	-2525
▁পরা	-2526
▁অংশে	-2527
▁সন্তান	-2528
▁প্রশ্নের	-2529
▁i	-2530
বয়স্ক	-2531
▁terms	-2532
▁আকারের	-2533
▁তালিকা	-2534
▁পরিবর্	-2535
▁শনিবার	-2536
▁অবস্থান	-2537
▁বাস্কেট	-2538
Step	-2539
্রাউ	-2540
▁বেস	-2541
▁জনকে	-2542
▁দশটি	-2543
▁প্যালিন	-2544
▁পেয়েছিল	-2545
own	-2546
▁লু	-2547
িকের	-2548
▁কেস	-2549
ড়াতে	-2550
▁...,	-2551
▁খাওয়ার	-2552
▁পরিস্থিতি	-2553
মিন	-2554
ment	-2555
▁ফ্র	-2556
ining	-2557
▁অ্যাপ	-2558
▁গ্রহণ	-2559
pe	-2560
ue	-2561
ted	-2562
ves	-2563
কল্প	-2564
Right	-2565
▁year	-2566
▁ফিরে	-2567
▁ভাড়া	-2568
▁সংযুক্ত	-2569
▁তুমি	-2570
▁তোমার	-2571
▁পড়তে	-2572
Rightarrow	-2573
শুর	-2574
সাই	-2575
▁লাইন	-2576
▁Given	-2577
▁যাচ্ছে	-2578
ider	-2579
ngth	-2580
লগ্ন	-2581
▁বেগু	-2582
▁ফুটবল	-2583
▁ইউয়ান	-2584
▁নির্দেশ	-2585
▁মাধ্যমে	-2586
▁ti	-2587
▁কমি	-2588
▁চকো	-2589
ating	-2590
▁অনুষ্ঠ	-2591
▁দিয়েছেন	-2592
▁`	-2593
tit	-2594
শার	-2595
▁দিই	-2596
▁ফলের	-2597
▁সাজা	-2598
▁their	-2599
ালা	-2600
▁day	-2601
▁আরে	-2602
▁ছাগ	-2603
▁মুদ্র	-2604
▁কাপকেক	-2605
▁ছাড়ের	-2606
))	-2607
ভের	-2608
▁ডাক	-2609
▁বেগ	-2610
▁ball	-2611
▁জিতে	-2612
▁মুরগির	-2613
চাই	-2614
ক্ষম	-2615
িলের	-2616
▁গরুর	-2617
▁সমাধানের	-2618
▁স্ট্যাম্প	-2619
ম্	-2620
▁সৈ	-2621
্দুর	-2622
্ল্যা	-2623
▁ললিপ	-2624
▁হিসাবে	-2625
▁কার্ডের	-2626
age	-2627
তুল	-2628
▁ময়	-2629
▁দিয়েছিলেন	-2630
▁অর্জন	-2631
▁কর্মচার	-2632
ইন	-2633
tern	-2634
মিলি	-2635
▁খেতে	-2636
▁কলমের	-2637
▁অনুশীল	-2638
▁ব্যবস্থা	-2639
enti	-2640
▁দুপুর	-2641
▁ভাইবো	-2642
▁পাথরের	-2643
▁গ্রুপের	-2644
▁বন্ধুকে	-2645
▁চতুর্থাংশ	-2646
▁প্রাপ্তবয়স্ক	-2647
}.	-2648
▁নৌ	-2649
বর্গ	-2650
▁আলু	-2651
▁কথা	-2652
▁জয়	-2653
▁পেন্সিলের	-2654
্ধ	-2655
ূপে	-2656
ason	-2657
▁একে	-2658
▁গান	-2659
▁বসে	-2660
ক্ষিক	-2661
▁টুকর	-2662
▁equal	-2663
▁পরিশো	-2664
মুজ	-2665
▁ab	-2666
▁আদ	-2667
ific	-2668
▁start	-2669
▁আইসক্রিম	-2670
্যক	-2671
একটি	-2672
▁মনে	-2673
স্তার	-2674
▁ক্রমে	-2675
▁length	-2676
▁চো	-2677
▁ডোনা	-2678
▁সঙ্গ	-2679
▁সমন্বয়	-2680
▁তম	-2681
জির	-2682
িনা	-2683
▁\\]	-2684
▁man	-2685
▁তরমুজ	-2686
▁অংশগ্রহণকারী	-2687
এক	-2688
)$,	-2689
্লি	-2690
▁ang	-2691
▁প্যাক	-2692
▁মানের	-2693
▁গুণনীয়	-2694
লক	-2695
ace	-2696
মির	-2697
শ্ব	-2698
্লো	-2699
▁ছোটো	-2700
▁বাচ্চা	-2701
▁সংলগ্ন	-2702
রূপ	-2703
▁ঘট	-2704
ally	-2705
▁তোলা	-2706
▁সালে	-2707
▁পক্ষকে	-2708
্পি	-2709
▁টু	-2710
fter	-2711
▁Now	-2712
▁পৃষ্ঠার	-2713
▁আপেক্ষিক	-2714
▁সংখ্যায়	-2715
আপ	-2716
▁বির	-2717
▁simpl	-2718
}$।	-2719
র্ণ	-2720
▁টিউ	-2721
▁কতটা	-2722
▁দৃশ্য	-2723
▁নিকেল	-2724
▁বর্গাকার	-2725
গত	-2726
▁.	-2727
ডিও	-2728
▁কফি	-2729
ছাড়া	-2730
▁পনির	-2731
▁কাজটি	-2732
ধার	-2733
দিনে	-2734
▁আটটি	-2735
▁বিশেষ	-2736
▁যাচাই	-2737
▁টুকরোর	-2738
▁রবিবার	-2739
▁ক্ষেত্রফলের	-2740
▁পূর্ণসংখ্যায়	-2741
গি	-2742
বেগ	-2743
▁রস	-2744
▁চোখ	-2745
বিজ্ঞ	-2746
▁রুটি	-2747
▁সত্য	-2748
▁other	-2749
▁যোগদান	-2750
▁Calculate	-2751
▁পরীক্ষায়	-2752
▁Fr	-2753
রামি	-2754
্রাস	-2755
▁col	-2756
▁মোল	-2757
▁খালি	-2758
ubstit	-2759
▁ফলাফলের	-2760
▁মিষ্টির	-2761
cm	-2762
ফিন	-2763
বিলে	-2764
সনের	-2765
টার্ন	-2766
▁টপিং	-2767
▁কাপড়	-2768
▁মায়ের	-2769
▁নিয়েছে	-2770
বাদ	-2771
োরি	-2772
▁&\	-2773
▁বব	-2774
ৌলিক	-2775
▁মিঃ	-2776
▁পার্ক	-2777
▁পরিমাণের	-2778
--	-2779
low	-2780
}\).	-2781
▁ভেত	-2782
▁only	-2783
▁কার্	-2784
▁Total	-2785
▁Result	-2786
_{\	-2787
প্ত	-2788
ater	-2789
▁পূর্ব	-2790
▁circle	-2791
▁বিদ্যাল	-2792
▁সঠিকভাবে	-2793
▁বাস্কেটবল	-2794
▁conditions	-2795
▁দেন	-2796
ন্টের	-2797
▁সোডা	-2798
▁আইটেম	-2799
},	-2800
র্থ	-2801
প্রা	-2802
▁নিজে	-2803
▁কার্ট	-2804
▁কমলালে	-2805
▁চকোলেট	-2806
▁জোড়ার	-2807
▁প্রবেশ	-2808
▁ছাত্রকে	-2809
▁up	-2810
▁use	-2811
য়মূল্য	-2812
▁পরিশোধ	-2813
▁বেগুনি	-2814
ds	-2815
▁:	-2816
ize	-2817
▁te	-2818
▁ভূ	-2819
▁যৌগ	-2820
▁উপাদ	-2821
▁উল্ট	-2822
▁এটিকে	-2823
সেকেন্ড	-2824
▁triangle	-2825
▁প্যাটার্ন	-2826
urn	-2827
্যায়	-2828
▁ব্রে	-2829
সপ্তাহ	-2830
▁এছাড়া	-2831
▁টেবিলে	-2832
মৌলিক	-2833
▁সঞ্চ	-2834
▁multipl	-2835
▁পেয়েছেন	-2836
ice	-2837
▁পিছ	-2838
▁শতকরা	-2839
GCD	-2840
▁tra	-2841
▁মূলত	-2842
▁check	-2843
▁স্থানীয়	-2844
▁আপনি	-2845
▁দূরে	-2846
▁শিশুর	-2847
asoning	-2848
\(	-2849
ুরে	-2850
ানার	-2851
▁ভর্	-2852
▁যান	-2853
▁same	-2854
▁সকালে	-2855
▁প্যাকেটে	-2856
▁লাইব্রের	-2857
rightarrow	-2858
▁সরা	-2859
▁____	-2860
▁পরিধি	-2861
▁অনুমান	-2862
▁গতিবেগ	-2863
▁নিচ্ছি	-2864
▁স্যান্ডউইচ	-2865
▁খেলোয়াড়ের	-2866
ূন	-2867
bab	-2868
র্শন	-2869
ুনের	-2870
ূনতম	-2871
▁$$\	-2872
ollow	-2873
কেলের	-2874
ায়িত	-2875
▁কতবার	-2876
▁মাসিক	-2877
▁বিশিষ্ট	-2878
▁আকৃ	-2879
▁টিন	-2880
ative	-2881
েষ্টা	-2882
▁দ্রু	-2883
▁কাটার	-2884
▁পয়সা	-2885
▁স্লাইস	-2886
▁সমান্তর	-2887
▁প্রত্যেকের	-2888
▁he	-2889
▁শা	-2890
▁জ্ব	-2891
▁শর্	-2892
▁আকার	-2893
▁রোপণ	-2894
▁করবেন	-2895
▁স্কুপ	-2896
▁তুলেছে	-2897
ধা	-2898
টিং	-2899
reak	-2900
▁চিপ	-2901
▁চেক	-2902
▁হোম	-2903
চতুর্	-2904
▁করেছি	-2905
▁বাবার	-2906
▁এছাড়াও	-2907
▁সময়কাল	-2908
▁গুণনীয়ক	-2909
▁প্রতিবেশ	-2910
▁দ্বিগুণের	-2911
pec	-2912
▁আমি	-2913
▁পাশ	-2914
▁আড়ু	-2915
▁means	-2916
▁অ্যালি	-2917
▁পরিবেশ	-2918
▁বিন্যাসের	-2919
ary	-2920
মুন	-2921
োটি	-2922
▁গোষ্ঠ	-2923
▁বিনিম	-2924
▁ললিপপ	-2925
তল	-2926
cap	-2927
▁খো	-2928
▁এটা	-2929
▁জেলি	-2930
▁ইংরেজি	-2931
▁পিরামি	-2932
▁বাড়িতে	-2933
▁consider	-2934
▁solution	-2935
▁খেয়েছিল	-2936
▁গাজর	-2937
▁মাংস	-2938
▁follow	-2939
▁চারগুণ	-2940
ure	-2941
▁তাক	-2942
▁largest	-2943
▁ঘো	-2944
▁লুক	-2945
সমীকরণ	-2946
▁কয়েন	-2947
▁চেষ্টা	-2948
▁পদক্ষেপ	-2949
▁km	-2950
▁স্তর	-2951
bability	-2952
▁প্যালিনড্র	-2953
\):	-2954
বাকি	-2955
▁its	-2956
▁আলি	-2957
▁গাম	-2958
▁ন্য	-2959
▁many	-2960
▁নীচের	-2961
▁যথেষ্ট	-2962
▁সাইকেল	-2963
নিং	-2964
▁তল	-2965
শার্ট	-2966
▁break	-2967
▁আঙ্গু	-2968
▁মূলধন	-2969
▁পরিমাণে	-2970
▁মুদ্রার	-2971
্পে	-2972
▁আঁ	-2973
লব্ধ	-2974
্যের	-2975
▁নেন	-2976
▁ন্যূনতম	-2977
ারী	-2978
very	-2979
▁বাগানে	-2980
▁অঙ্কগুলির	-2981
cc	-2982
use	-2983
দার	-2984
রাল	-2985
লেক্স	-2986
▁অষ্ট	-2987
▁প্লে	-2988
▁টুকরা	-2989
▁মেয়ের	-2990
দ্দ	-2991
▁চুল	-2992
▁In	-2993
▁Re	-2994
মাংশ	-2995
ান্তে	-2996
▁এভাবে	-2997
▁সংখ্যাটিকে	-2998
▁শিক্ষার্থীর	-2999
▁চও	-3000
োয়া	-3001
▁তলা	-3002
▁দৈনিক	-3003
▁মেরির	-3004
ৃশ	-3005
▁sc	-3006
▁পথ	-3007
ours	-3008
ান্ড	-3009
▁জের	-3010
▁ওয়ে	-3011
▁জেমস	-3012
▁দর্শ	-3013
▁সিনে	-3014
▁ভর্তি	-3015
▁যৌগিক	-3016
▁রাখার	-3017
▁গণিতের	-3018
▁সাজাতে	-3019
▁minimum	-3020
▁ব্যক্তিকে	-3021
ভীর	-3022
▁den	-3023
▁ষষ্ঠ	-3024
utions	-3025
▁তৈরির	-3026
▁একত্রে	-3027
▁লোকদের	-3028
প্রাথমিক	-3029
উন	-3030
িখ	-3031
িজ	-3032
▁bec	-3033
▁**\(	-3034
▁পেনি	-3035
attern	-3036
▁সংজ্ঞ	-3037
▁অনুশীলন	-3038
ys	-3039
িতার	-3040
▁Sol	-3041
▁উপলব্ধ	-3042
▁দৌড়ায়	-3043
মো	-3044
ving	-3045
ায়া	-3046
▁Each	-3047
▁down	-3048
▁কচ্ছ	-3049
▁every	-3050
▁চওড়া	-3051
▁দ্রুত	-3052
▁মালিক	-3053
}$,	-3054
মেল	-3055
▁রক	-3056
উন্ট	-3057
▁পোক	-3058
▁স্য	-3059
▁অতিথি	-3060
▁পানীয়	-3061
▁একইভাবে	-3062
▁নম্বরের	-3063
▁ভ্রমণের	-3064
সর	-3065
য্য	-3066
▁set	-3067
▁জুন	-3068
▁বুঝ	-3069
since	-3070
▁বাসে	-3071
▁ল্যা	-3072
▁অপরের	-3073
▁এককের	-3074
▁অ্যান্ড	-3075
▁চালিয়ে	-3076
▁শার্টের	-3077
▁হারিয়ে	-3078
▁পর্যবেক্ষণ	-3079
▁সীমাবদ্ধতা	-3080
▁cl	-3081
▁গজ	-3082
ানির	-3083
▁টিম	-3084
▁ওভার	-3085
▁চিঠি	-3086
ামাকড়	-3087
▁গ্লাস	-3088
▁নিজের	-3089
▁কার্যক	-3090
▁প্যালিনড্রোম	-3091
পতি	-3092
▁BC	-3093
▁রোল	-3094
▁sides	-3095
▁কেকের	-3096
▁দরকার	-3097
▁সাতটি	-3098
▁গোলাপের	-3099
.\]	-3100
days	-3101
▁mod	-3102
▁sho	-3103
▁সঞ্চয়	-3104
▁লাইব্রেরিতে	-3105
)=	-3106
st	-3107
ote	-3108
▁মহ	-3109
ক্ষা	-3110
▁Pro	-3111
▁নমুন	-3112
▁সবগুলো	-3113
so	-3114
ছাই	-3115
মুখ	-3116
▁রাই	-3117
▁ডাইম	-3118
য়ারের	-3119
▁স্বাদ	-3120
▁পাওয়ার	-3121
▁সদস্যের	-3122
▁গুণিতকের	-3123
দশ	-3124
্কা	-3125
▁pe	-3126
▁স্টে	-3127
▁gives	-3128
ক্রিয়া	-3129
▁পোকামাকড়	-3130
▁আয়তক্ষেত্রাকার	-3131
%।	-3132
িয়	-3133
▁wr	-3134
fect	-3135
ামের	-3136
বার্ট	-3137
▁বাদে	-3138
▁কোণের	-3139
▁খরগোশ	-3140
▁আরেকটি	-3141
তায়	-3142
দিকে	-3143
শনের	-3144
▁মেশ	-3145
▁সরব	-3146
▁রঙিন	-3147
▁দশকের	-3148
▁অঙ্কগুলি	-3149
enc	-3150
তিত	-3151
▁পণ	-3152
্রমিক	-3153
▁গাছে	-3154
▁পরস্প	-3155
▁মুখের	-3156
▁উত্তরটি	-3157
ঘাত	-3158
▁ডল	-3159
▁gre	-3160
▁how	-3161
▁চাম	-3162
▁পর্ব	-3163
▁সমান্তরাল	-3164
বুর	-3165
লিয়া	-3166
▁চক্র	-3167
▁পাশা	-3168
▁ফ্রে	-3169
▁ট্যাব	-3170
▁দামের	-3171
▁ব্রাউ	-3172
▁রাস্তা	-3173
▁বিজ্ঞান	-3174
▁শ্রেণীতে	-3175
▁ব্যক্তিদের	-3176
▁%	-3177
▁চিন্তা	-3178
▁combinations	-3179
লাল	-3180
▁কৃ	-3181
▁mon	-3182
▁জার	-3183
▁মোম	-3184
▁বস্তা	-3185
▁চারপাশে	-3186
arr	-3187
▁জমা	-3188
▁তাস	-3189
▁বরা	-3190
ভূমিক	-3191
▁ক্ষম	-3192
▁চার্জ	-3193
▁বেসবল	-3194
▁ভেতরে	-3195
clus	-3196
▁box	-3197
▁চাচ	-3198
বেলের	-3199
▁four	-3200
▁ফেরত	-3201
▁দুটির	-3202
▁স্তম্	-3203
▁স্থির	-3204
▁বৃদ্ধির	-3205
▁ব্যাগের	-3206
গণ	-3207
ীমার	-3208
▁অফি	-3209
িয়ার	-3210
▁চাকা	-3211
তন্ত্র	-3212
▁কুকির	-3213
▁ছিলেন	-3214
▁ডোনাট	-3215
▁বাইরে	-3216
and	-3217
কেন	-3218
▁তাপ	-3219
itive	-3220
▁more	-3221
▁করছি	-3222
▁অ্যাল	-3223
▁আকারে	-3224
▁সংগ্র	-3225
▁স্যাম	-3226
বিশিষ্ট	-3227
▁remaining	-3228
urs	-3229
▁def	-3230
▁শিয়া	-3231
▁হ্রাস	-3232
ত্বপূর্ণ	-3233
▁সদস্যদের	-3234
}^	-3235
cho	-3236
not	-3237
য়ং	-3238
▁Sum	-3239
entify	-3240
ড়িয়ে	-3241
▁units	-3242
▁সমকোণ	-3243
▁সৈন্য	-3244
▁হ্যাম	-3245
▁পদ্ধতির	-3246
▁condition	-3247
খান	-3248
লিভি	-3249
িনার	-3250
▁end	-3251
▁সাব	-3252
ecuti	-3253
▁গুরু	-3254
▁দণ্ড	-3255
▁ভ্যা	-3256
▁মেরি	-3257
▁সদৃশ	-3258
▁তলায়	-3259
▁বাছাই	-3260
▁বিরতি	-3261
▁মিলিত	-3262
ecutive	-3263
▁do	-3264
▁অক	-3265
▁ল্যাপ	-3266
▁সমবাহু	-3267
▁Numbers	-3268
▁সংগ্রহে	-3269
▁তাপমাত্র	-3270
▁স্বতন্ত্র	-3271
▁পূর্ববর্তী	-3272
mol	-3273
▁==	-3274
ould	-3275
▁ভেঙ	-3276
▁সন্	-3277
erson	-3278
ণিতিক	-3279
▁also	-3280
▁দৌড়ে	-3281
▁বুঝতে	-3282
▁প্রধান	-3283
▁বরাদ্দ	-3284
▁determine	-3285
ib	-3286
▁হর	-3287
▁mar	-3288
▁would	-3289
▁পড়ার	-3290
বিজ্ঞান	-3291
খার	-3292
▁পত	-3293
ন্সি	-3294
স্টে	-3295
▁ভুট	-3296
▁রেক	-3297
চ্ছেন	-3298
▁টাইপ	-3299
▁পরিপ	-3300
▁সাহা	-3301
▁পাখির	-3302
▁সরবরা	-3303
▁ঝুড়িতে	-3304
ack	-3305
করণ	-3306
মাল	-3307
হরণ	-3308
াতে	-3309
্টর	-3310
eter	-3311
▁আসল	-3312
লেটের	-3313
্যস্ত	-3314
▁লেবু	-3315
▁First	-3316
▁বাড়ির	-3317
triangle	-3318
্যু	-3319
কেলে	-3320
▁ret	-3321
▁গভীর	-3322
▁balls	-3323
▁month	-3324
▁times	-3325
▁সরবরাহ	-3326
▁মারিয়া	-3327
nderstanding	-3328
ive	-3329
িল্প	-3330
্যাশ	-3331
▁খরচের	-3332
▁ঘূর্ণ	-3333
▁ময়দা	-3334
▁সংখ্যাগুলোর	-3335
বেন	-3336
▁পের	-3337
▁নৌকা	-3338
▁অসমতা	-3339
implify	-3340
▁choose	-3341
▁পাঁচজন	-3342
▁বৃহত্তর	-3343
▁positive	-3344
)!	-3345
ne	-3346
দু	-3347
ছানা	-3348
▁add	-3349
য়নের	-3350
▁math	-3351
▁পাশের	-3352
▁রাস্তার	-3353
alculation	-3354
▁গুরুত্বপূর্ণ	-3355
দী	-3356
ভাগ	-3357
pres	-3358
reas	-3359
সেমি	-3360
▁অপে	-3361
ন্সের	-3362
ভাপতি	-3363
যোগ্য	-3364
▁চাবি	-3365
▁কার্পে	-3366
▁জায়গা	-3367
▁আইটেমের	-3368
▁সাধারণত	-3369
▁সাহায্য	-3370
ik	-3371
আউ	-3372
তিন	-3373
▁ছক	-3374
▁কোষ	-3375
▁চালা	-3376
▁angle	-3377
▁trans	-3378
▁অবদান	-3379
▁দিকের	-3380
▁মানুষের	-3381
▁পুরুষদের	-3382
ll	-3383
▁?	-3384
র্ম	-3385
▁par	-3386
▁আলো	-3387
▁return	-3388
▁satisfy	-3389
সেস	-3390
▁Ver	-3391
▁lea	-3392
▁ইনিং	-3393
▁বক্ত	-3394
▁ইয়ার	-3395
▁মেশিন	-3396
▁পুনর্বিন	-3397
ip	-3398
টর	-3399
মাস	-3400
্রী	-3401
▁im	-3402
▁আব	-3403
ning	-3404
▁reg	-3405
▁গেল	-3406
▁সাপ	-3407
িতায়	-3408
▁বালতি	-3409
▁পায়ের	-3410
▁বিষয়ে	-3411
▁তৃতীয়াংশ	-3412
▁কোয়ার্টার	-3413
▁পপ	-3414
ance	-3415
ause	-3416
ular	-3417
দাহরণ	-3418
▁কেটে	-3419
▁চামচ	-3420
▁পনের	-3421
▁বসতে	-3422
▁যেকোন	-3423
▁হয়নি	-3424
▁person	-3425
▁ক্ষেত্রের	-3426
out	-3427
ফার	-3428
্টা	-3429
prime	-3430
▁অঞ্চ	-3431
▁থালা	-3432
▁কমলার	-3433
▁ভিডিও	-3434
▁উভয়ের	-3435
▁স্ট্রি	-3436
▁divisor	-3437
▁প্রার্থ	-3438
ification	-3439
টিক	-3440
ধাপ	-3441
ঙ্কে	-3442
ায়ক	-3443
▁দশক	-3444
▁মাথা	-3445
▁প্যান	-3446
▁শর্তটি	-3447
▁perfect	-3448
▁চালানোর	-3449
▁তুলেছিল	-3450
▁প্রশিক্ষ	-3451
▁consecutive	-3452
▁probability	-3453
▁প্রতিযোগিতায়	-3454
ফো	-3455
▁শেল	-3456
▁ভেঙে	-3457
▁দর্শক	-3458
▁রাতের	-3459
▁সালের	-3460
▁অবস্থিত	-3461
▁দুপুরের	-3462
▁মধ্যবর্তী	-3463
টিই	-3464
লাম	-3465
স্টি	-3466
▁শাক	-3467
▁after	-3468
▁কর্মীর	-3469
▁pattern	-3470
▁তিনজনের	-3471
▁পার্শ্ব	-3472
▁সম্পর্কে	-3473
adi	-3474
▁\\(	-3475
▁ফাই	-3476
ধারিত	-3477
▁কেনে	-3478
▁ছাগল	-3479
▁রাতে	-3480
▁কম্পি	-3481
▁তারিখ	-3482
▁পাতার	-3483
▁বিস্ত	-3484
▁অ্যালব	-3485
▁উপাদান	-3486
▁গিয়েছিল	-3487
রী	-3488
rea	-3489
রির	-3490
চ্ছা	-3491
▁পেই	-3492
ments	-3493
▁ইতিহা	-3494
▁বিস্ক	-3495
▁ব্যাক	-3496
▁transl	-3497
▁কম্পিউ	-3498
▁প্যাকেজ	-3499
▁ইতিমধ্যেই	-3500
▁ঘাস	-3501
▁less	-3502
▁পরিদ	-3503
▁পুতুল	-3504
aligned	-3505
▁inters	-3506
▁অক্ষরের	-3507
▁বিস্কুট	-3508
▁অনুভূমিক	-3509
▁খেলোয়াড়দের	-3510
সির	-3511
▁দাগ	-3512
▁হাঁ	-3513
▁সকাল	-3514
▁খাওয়	-3515
▁মিসেস	-3516
Calculate	-3517
▁নির্ধারিত	-3518
ag	-3519
ঠা	-3520
neg	-3521
সান	-3522
▁inc	-3523
▁নিজ	-3524
জারের	-3525
▁কাঠের	-3526
▁সরলরে	-3527
ization	-3528
▁repres	-3529
▁বিভাগে	-3530
▁Substit	-3531
▁প্রকল্প	-3532
▁solutions	-3533
tr	-3534
ish	-3535
cess	-3536
▁ঘুম	-3537
▁স্ন	-3538
verage	-3539
▁প্লাস	-3540
▁বৃষ্টি	-3541
▁শিয়াও	-3542
▁এমনভাবে	-3543
▁কয়েকটি	-3544
▁ভিত্তিতে	-3545
▁ষড়ভুজের	-3546
▁পূর্ণবর্গ	-3547
ভর	-3548
সী	-3549
ant	-3550
জয়	-3551
}}{\	-3552
▁হান	-3553
ংয়ের	-3554
▁কমিক	-3555
▁গর্ত	-3556
▁বেড়া	-3557
▁খামারে	-3558
▁বহুভুজ	-3559
▁স্বাদের	-3560
!$	-3561
িকা	-3562
▁টেক	-3563
▁মাঠ	-3564
▁পরপর	-3565
▁বেগে	-3566
▁পিটার	-3567
▁পদগুলো	-3568
▁পার্কে	-3569
চতুর্থাংশ	-3570
ost	-3571
▁CP	-3572
clud	-3573
ople	-3574
িটের	-3575
িলার	-3576
▁দাদ	-3577
▁ভাষা	-3578
▁place	-3579
▁দুবার	-3580
▁denote	-3581
▁should	-3582
▁একাধিক	-3583
▁দেখানো	-3584
▁মার্বেলের	-3585
ls	-3586
me	-3587
ফা	-3588
ugh	-3589
বৃহ	-3590
ামে	-3591
▁আণ	-3592
▁বক	-3593
্যন্ত	-3594
▁কোর্	-3595
▁মাইক	-3596
▁আণবিক	-3597
▁দুইটি	-3598
▁পোশাকের	-3599
▁বিস্তৃত	-3600
▁কিলোগ্রাম	-3601
ইট	-3602
ৈধ	-3603
রুম	-3604
শনে	-3605
ীকে	-3606
▁AD	-3607
▁How	-3608
▁কোচ	-3609
▁ধরণ	-3610
▁ভাল	-3611
ন্ডির	-3612
ন্দের	-3613
▁Code	-3614
▁ভালো	-3615
▁সপ্ত	-3616
তৃতীয়	-3617
▁ভাগফল	-3618
▁মোমবা	-3619
▁জ্যামি	-3620
▁গুণফলের	-3621
▁পুরুষের	-3622
▁দূরত্বের	-3623
ূচ	-3624
োপ	-3625
Find	-3626
গারে	-3627
জনের	-3628
বার্	-3629
▁কমে	-3630
cdots	-3631
দিনের	-3632
▁প্রে	-3633
▁কচ্ছপ	-3634
▁স্তূপ	-3635
negative	-3636
▁অর্ধেকের	-3637
▁চতুর্ভুজ	-3638
লিত	-3639
সরি	-3640
▁lo	-3641
▁টমের	-3642
▁বলতে	-3643
▁exact	-3644
▁খুঁজছি	-3645
▁গোলকের	-3646
▁পরিবেশন	-3647
▁পিজ্জার	-3648
ুস	-3649
log	-3650
por	-3651
্সি	-3652
▁CD	-3653
sing	-3654
▁ens	-3655
▁exp	-3656
▁কাই	-3657
▁মিস	-3658
▁আমের	-3659
▁কাজে	-3660
▁সংশো	-3661
▁সোনা	-3662
clusion	-3663
▁ক্ষমতা	-3664
▁ব্যবধি	-3665
▁শ্রমিক	-3666
▁সরাসরি	-3667
▁উচ্চতার	-3668
▁পরিবর্তিত	-3669
▁খেয়েছিলেন	-3670
ংহ	-3671
val	-3672
য়ো	-3673
▁kn	-3674
▁নব	-3675
itial	-3676
choose	-3677
স্ট্রি	-3678
▁সক্ষম	-3679
▁people	-3680
▁সিনেমা	-3681
▁সংগ্রহের	-3682
ick	-3683
ite	-3684
ues	-3685
র্ট	-3686
্লেট	-3687
▁এলি	-3688
▁কেন	-3689
▁পুক	-3690
▁মরি	-3691
▁####	-3692
▁পাকা	-3693
▁বাল্ব	-3694
▁বিভাগ	-3695
dentify	-3696
ওয়ার্ক	-3697
▁অ্যামি	-3698
▁প্যান্ট	-3699
▁মহিলাদের	-3700
",	-3701
▁but	-3702
▁side	-3703
▁করিম	-3704
▁নয়টি	-3705
▁পানির	-3706
ossible	-3707
ার্টমেন্ট	-3708
▁তালিকাভুক্ত	-3709
পরি	-3710
▁শো	-3711
atur	-3712
▁জর্	-3713
▁ধরুন	-3714
▁লিখে	-3715
বিদ্যা	-3716
▁মিটারে	-3717
▁because	-3718
▁বিষয়ের	-3719
▁কমলালেবু	-3720
rite	-3721
utes	-3722
ত্যা	-3723
ায়ন	-3724
▁দাঁ	-3725
্যারি	-3726
▁From	-3727
▁খাবে	-3728
▁hours	-3729
▁মাফিন	-3730
▁অপেক্ষা	-3731
▁গাড়িতে	-3732
তর	-3733
orm	-3734
tra	-3735
িকো	-3736
ীকৃত	-3737
▁সান	-3738
▁সিল	-3739
range	-3740
▁taka	-3741
▁পূর্বে	-3742
▁,	-3743
)^{	-3744
থির	-3745
▁ro	-3746
▁কু	-3747
▁লী	-3748
▁wor	-3749
▁কৃষ	-3750
▁অনুপ	-3751
▁ন্যা	-3752
▁যতটা	-3753
▁বাগান	-3754
▁পরিদর্শন	-3755
▁বৃত্তাকার	-3756
}{\	-3757
▁উদ	-3758
▁লব	-3759
▁জাদ	-3760
▁ফোন	-3761
্যারে	-3762
▁stud	-3763
▁অনুর	-3764
▁আনার	-3765
▁শঙ্ক	-3766
্যাক্স	-3767
▁কমিটি	-3768
▁সোনার	-3769
▁কর্মীদের	-3770
▁কম্পিউটার	-3771
▁(-	-3772
▁Com	-3773
▁app	-3774
▁ভরা	-3775
ল্যাপ	-3776
▁জর্ড	-3777
▁বানর	-3778
ড়িয়া	-3779
▁জেসিক	-3780
▁প্লেট	-3781
▁মার্চ	-3782
▁সর্বদা	-3783
▁বিনিময়	-3784
▁chocolate	-3785
▁সংখ্যাটির	-3786
োরা	-3787
▁ধু	-3788
▁ধো	-3789
ever	-3790
▁**$	-3791
▁Out	-3792
▁জার্	-3793
▁ত্রু	-3794
▁সমতল	-3795
▁স্বে	-3796
▁চাচাত	-3797
reasing	-3798
▁নির্ভর	-3799
▁সমকোণী	-3800
▁However	-3801
▁সংজ্ঞায়িত	-3802
ek	-3803
ণে	-3804
ৃহ	-3805
\\]	-3806
ire	-3807
জেন	-3808
্রো	-3809
▁SP	-3810
ivis	-3811
র্না	-3812
▁চিনি	-3813
▁দেখি	-3814
▁পণ্য	-3815
▁point	-3816
▁টাইলের	-3817
▁মাত্রা	-3818
▁শ্রেণী	-3819
▁অভ্যন্ত	-3820
▁আয়তনের	-3821
▁গোলাকার	-3822
▁সপ্তাহান্তে	-3823
ges	-3824
▁kg	-3825
math	-3826
সময়	-3827
▁ABC	-3828
▁রঙে	-3829
▁লেগে	-3830
▁since	-3831
▁দুধের	-3832
▁শাকসব	-3833
▁Verification	-3834
থ্যা	-3835
পন্ন	-3836
▁pair	-3837
▁they	-3838
▁নেবে	-3839
▁ড্রাই	-3840
▁সকলের	-3841
▁চালায়	-3842
▁বাদামী	-3843
▁নির্মাণ	-3844
▁প্রস্তু	-3845
▁Reasoning	-3846
▁তাপমাত্রা	-3847
▁প্রক্রিয়া	-3848
▁খণ্ড	-3849
চ্ছাসে	-3850
মিটারে	-3851
▁ছেড়ে	-3852
▁বিজয়	-3853
▁ধারাটি	-3854
▁distrib	-3855
▁বহুভুজের	-3856
▁জিনিসপত্র	-3857
▁রূপান্তরিত	-3858
ষে	-3859
বছর	-3860
শেল	-3861
▁bl	-3862
ound	-3863
বন্ধ	-3864
▁met	-3865
▁ফেল	-3866
▁ব্যাচ	-3867
▁শতকের	-3868
বিন্দুর	-3869
▁বসিয়ে	-3870
▁ভাইবোন	-3871
▁টেবিলের	-3872
▁স্যামের	-3873
▁প্রতিবার	-3874
ial	-3875
ome	-3876
port	-3877
ুকের	-3878
▁পাল	-3879
▁next	-3880
▁ভাগে	-3881
▁ট্রিপ	-3882
▁পেপার	-3883
▁মাকড়	-3884
▁কতক্ষণ	-3885
▁নিম্নরূপ	-3886
▁ক্যান্ডির	-3887
▁পয়েন্টের	-3888
%,	-3889
{-	-3890
ove	-3891
জিত	-3892
▁হো	-3893
াসের	-3894
▁চিজ	-3895
▁আসার	-3896
▁ছবির	-3897
▁কুকিজ	-3898
▁পাত্রে	-3899
Identify	-3900
▁ফ্যাক্টর	-3901
▁বিন্দুতে	-3902
▁স্বেচ্ছাসে	-3903
থের	-3904
শির	-3905
▁আসা	-3906
▁এতে	-3907
্লম্ব	-3908
▁team	-3909
▁পরিব	-3910
▁সেটে	-3911
্যানের	-3912
▁তুলনা	-3913
▁পৌঁছা	-3914
▁ভাগের	-3915
▁states	-3916
▁ক্যালক	-3917
▁greater	-3918
▁পছন্দের	-3919
▁বিভাগের	-3920
হিত	-3921
্টে	-3922
▁Ne	-3923
▁\{	-3924
▁হট	-3925
ases	-3926
গণিত	-3927
্ডার	-3928
▁mph	-3929
▁who	-3930
▁জরি	-3931
array	-3932
▁জীবন	-3933
▁ফিতা	-3934
▁বর্ণ	-3935
▁রেসি	-3936
▁ডলারে	-3937
▁প্রিজ	-3938
শিষ্ট্য	-3939
▁উদাহরণ	-3940
▁পরস্পর	-3941
▁ক্যালকু	-3942
▁দৌড়াতে	-3943
▁Simplify	-3944
▁সন্তানের	-3945
▁প্রত্যেকটি	-3946
▁ফ্যাক্টোরি	-3947
▁হোমওয়ার্ক	-3948
ry	-3949
সক	-3950
ous	-3951
pha	-3952
অর্	-3953
সেজ	-3954
▁no	-3955
▁শট	-3956
ator	-3957
iles	-3958
জায়	-3959
িকার	-3960
▁কুম	-3961
▁চাক	-3962
▁রোগ	-3963
alpha	-3964
বৃদ্ধ	-3965
▁ঘটনা	-3966
▁দলটি	-3967
▁বিশ্র	-3968
▁সমানু	-3969
▁স্তরে	-3970
▁জিতেছে	-3971
▁বিক্রির	-3972
▁বিন্যাশ	-3973
র্নামেন্ট	-3974
.$$	-3975
গাম	-3976
ধির	-3977
▁টন	-3978
▁fru	-3979
▁কুই	-3980
▁দ্র	-3981
লিটার	-3982
▁conf	-3983
▁ডায়	-3984
▁Output	-3985
▁ত্রুটি	-3986
▁পড়েছে	-3987
▁ব্লকের	-3988
▁কোম্পানি	-3989
▁হ্যামবার্	-3990
▁টুর্নামেন্ট	-3991
িম	-3992
}$$	-3993
পাশ	-3994
ফির	-3995
tain	-3996
▁row	-3997
▁জনি	-3998
▁ডাই	-3999
Total	-4000
ction	-4001
▁ইমেল	-4002
▁Final	-4003
▁write	-4004
▁এমিলি	-4005
▁ব্যবস	-4006
▁মাঝের	-4007
▁import	-4008
▁বোঝায়	-4009
▁সম্প্র	-4010
▁exactly	-4011
▁পেয়েছিলেন	-4012
সহ	-4013
জেট	-4014
াকৃ	-4015
▁Wh	-4016
▁সহগ	-4017
ithme	-4018
▁বার্	-4019
▁মৌসু	-4020
▁অন্তর	-4021
▁ডাক্ত	-4022
▁রাবার	-4023
টেরিয়া	-4024
▁satisf	-4025
▁কর্ণের	-4026
▁রেকর্ড	-4027
ithmetic	-4028
▁minutes	-4029
▁নমুনায়	-4030
▁বিক্রয়মূল্য	-4031
)\]	-4032
gcd	-4033
্লেখ	-4034
▁কনফি	-4035
▁ব্লু	-4036
ক্ষণের	-4037
▁সারাহ	-4038
▁leaves	-4039
▁গাণিতিক	-4040
▁দেখেছেন	-4041
▁ওভারল্যাপ	-4042
▁প্যাকেটের	-4043
▁স্বেচ্ছাসেবক	-4044
▁জিম	-4045
▁মণি	-4046
uting	-4047
ক্ষের	-4048
ন্ডার	-4049
▁play	-4050
▁আসলে	-4051
▁গ্রি	-4052
ক্ষিতে	-4053
▁power	-4054
▁এগুলো	-4055
▁উৎপন্ন	-4056
▁কমিয়ে	-4057
▁ক্যাফে	-4058
▁সমুদ্র	-4059
▁সূত্রে	-4060
▁average	-4061
▁অ্যালিস	-4062
▁বিন্দুর	-4063
▁কর্মচারী	-4064
▁প্যানকেক	-4065
▁অ্যালেক্স	-4066
▁অ্যাপার্টমেন্ট	-4067
নিস	-4068
▁বর	-4069
ম্বর	-4070
▁উদ্	-4071
▁রহি	-4072
▁অধ্য	-4073
▁পৌঁছ	-4074
▁বাতি	-4075
▁বোঝা	-4076
▁লিলি	-4077
▁শহরে	-4078
▁ঘোড়া	-4079
▁আকৃতির	-4080
▁বিকেলে	-4081
▁রসায়ন	-4082
▁পরিপ্রে	-4083
▁students	-4084
▁কনফিগারে	-4085
▁পরিবর্তে	-4086
বন	-4087
ten	-4088
আপে	-4089
▁am	-4090
ubtr	-4091
▁cor	-4092
▁জেন	-4093
▁বসা	-4094
tions	-4095
বাহিত	-4096
▁rect	-4097
▁পরিচ	-4098
▁আলমার	-4099
▁গণনার	-4100
▁পর্যট	-4101
▁হারের	-4102
লেক্সের	-4103
▁ঘণ্টার	-4104
▁ছাত্ররা	-4105
▁ভিত্তির	-4106
▁মোমবাতি	-4107
▁সূত্রটি	-4108
▁চিড়িয়া	-4109
▁বৈশিষ্ট্য	-4110
▁পরিপ্রেক্ষিতে	-4111
yc	-4112
one	-4113
ংকে	-4114
য়র	-4115
িকি	-4116
লিভার	-4117
শ্রয়	-4118
unning	-4119
কাউন্ট	-4120
্যাশিত	-4121
▁ওয়ান	-4122
▁ছুড়ে	-4123
▁বোতাম	-4124
▁শহরের	-4125
▁সপ্তম	-4126
▁উল্লেখ	-4127
▁পার্কিং	-4128
▁পৌঁছাতে	-4129
▁ভাইবোনের	-4130
▁অনুপস্থিত	-4131
অন	-4132
ফট	-4133
ied	-4134
ulo	-4135
▁you	-4136
▁সহজ	-4137
বৃত্ত	-4138
▁ডাউন	-4139
▁ওয়ার	-4140
▁শিল্প	-4141
▁meters	-4142
▁অভিজ্ঞ	-4143
▁একদিনে	-4144
▁ছাত্রী	-4145
▁পদার্থ	-4146
▁arithmetic	-4147
ুরি	-4148
▁gr	-4149
▁ক্ল	-4150
▁টার	-4151
াত্মক	-4152
▁\\[\	-4153
▁বিবৃ	-4154
▁খুঁজুন	-4155
▁উল্লম্ব	-4156
▁চেয়ারের	-4157
▁ক্যালকুলেট	-4158
▁ফ্যাক্টোরিয়াল	-4159
কিন	-4160
শটি	-4161
▁Sh	-4162
▁op	-4163
alle	-4164
ions	-4165
▁inv	-4166
▁আরো	-4167
▁দড়ি	-4168
▁আপনার	-4169
▁ঘূর্ণন	-4170
▁বেলুনের	-4171
▁স্কোরের	-4172
▁পরিসীমার	-4173
▁ছাত্রছাত্র	-4174
▁factorization	-4175
$-	-4176
BC	-4177
াব	-4178
abc	-4179
ike	-4180
atch	-4181
দুটি	-4182
ব্রা	-4183
adius	-4184
স্থাপ	-4185
▁সবাই	-4186
▁হাতে	-4187
▁মাইকের	-4188
▁সেখানে	-4189
▁ট্যাঙ্ক	-4190
▁পিরামিডের	-4191
এই	-4192
জিন	-4193
ধীন	-4194
▁পী	-4195
মাতে	-4196
মুখী	-4197
▁দিল	-4198
▁পশু	-4199
▁appl	-4200
▁গ্যা	-4201
▁জেনি	-4202
▁যেমন	-4203
অর্থাৎ	-4204
যন্ত্র	-4205
▁ছায়া	-4206
▁স্যুট	-4207
▁একমাত্র	-4208
▁স্থানান্তর	-4209
▁পর্যবেক্ষণের	-4210
▁${	-4211
ব্যব	-4212
▁পাব	-4213
eries	-4214
▁left	-4215
▁pick	-4216
▁ক্লো	-4217
▁জাহা	-4218
▁টায়ার	-4219
▁ভুট্টা	-4220
alculating	-4221
▁নিয়েছিলেন	-4222
ইল	-4223
cup	-4224
লোড	-4225
▁যু	-4226
▁আউট	-4227
▁them	-4228
▁মিলা	-4229
▁steps	-4230
▁থাকেন	-4231
▁সারার	-4232
▁মাংসের	-4233
▁বাগানের	-4234
▁বিতরণের	-4235
▁ক্রেয়নের	-4236
\}	-4237
ীষ্	-4238
airs	-4239
heck	-4240
পঞ্চ	-4241
রায়	-4242
▁কাক	-4243
▁কেউ	-4244
▁চতু	-4245
▁রাজ	-4246
▁high	-4247
▁বেড়	-4248
▁স্টক	-4249
সাইকেল	-4250
▁ক্যাল	-4251
▁ধরেছে	-4252
▁নিচের	-4253
▁বাদ্য	-4254
▁বিশ্ব	-4255
▁যাত্রী	-4256
▁divisors	-4257
▁নিয়েছিল	-4258
▁মারিয়ার	-4259
▁বাদ্যযন্ত্র	-4260
▁শীর্ষবিন্দুর	-4261
atio	-4262
inct	-4263
uary	-4264
ব্রু	-4265
▁গৃহ	-4266
▁লগি	-4267
ন্যাস	-4268
imeter	-4269
িনিয়র	-4270
▁কয়েক	-4271
▁ছক্কা	-4272
▁পরিমা	-4273
▁খেলেছে	-4274
▁মিথ্যা	-4275
▁লগিষ্ঠ	-4276
▁সঙ্গীত	-4277
▁রাউন্ডে	-4278
▁প্রকারের	-4279
▁চতুর্ভুজের	-4280
কম	-4281
কর	-4282
ূর	-4283
ide	-4284
irm	-4285
বাস	-4286
▁ডঃ	-4287
ন্টে	-4288
র্ডে	-4289
্দের	-4290
▁খাদ	-4291
▁পাজ	-4292
▁পেন	-4293
▁মেষ	-4294
▁রেখ	-4295
▁লিপ	-4296
▁Sund	-4297
▁over	-4298
▁টিমের	-4299
▁স্কিট	-4300
unction	-4301
▁ক্র্যা	-4302
▁গভীরতা	-4303
▁দুইবার	-4304
▁স্ত্রী	-4305
▁স্পর্শ	-4306
▁শ্রেণির	-4307
▁সমস্যায়	-4308
▁কেন্দ্রীয়	-4309
▁সংমিশ্রণের	-4310
।)	-4311
দল	-4312
sin	-4313
সেট	-4314
▁সী	-4315
ices	-4316
নিলা	-4317
পাশি	-4318
ুমান	-4319
▁ছুটি	-4320
number	-4321
ণাত্মক	-4322
প্রায়	-4323
▁ছয়জন	-4324
▁ট্রিপে	-4325
ব্রুয়ার	-4326
▁confirm	-4327
▁অধ্যায়	-4328
▁যাত্রার	-4329
▁শাকসবজি	-4330
▁স্থায়ী	-4331
▁ধারণক্ষম	-4332
▁satisfies	-4333
}=	-4334
oly	-4335
নাল	-4336
লকা	-4337
bles	-4338
ড়ের	-4339
দ্বি	-4340
নতুন	-4341
▁know	-4342
▁rece	-4343
▁বলটি	-4344
▁জুড়ে	-4345
▁ট্যাগ	-4346
▁পরমাণ	-4347
▁পোস্ট	-4348
Finding	-4349
▁ensure	-4350
▁formed	-4351
▁এসেছিল	-4352
▁ক্রমের	-4353
▁মধ্যমা	-4354
▁ম্যাচে	-4355
▁শব্দের	-4356
▁স্তরের	-4357
▁জ্যাকের	-4358
▁distinct	-4359
▁expressed	-4360
)/	-4361
।**	-4362
র্য	-4363
▁এম	-4364
arts	-4365
atic	-4366
rect	-4367
ঞ্জে	-4368
্টের	-4369
▁অংক	-4370
▁দৈব	-4371
বর্জন	-4372
▁Here	-4373
▁বর্ষ	-4374
বৃদ্ধি	-4375
য়ামের	-4376
▁দেখার	-4377
▁ক্লাবে	-4378
▁চিত্রে	-4379
▁ক্লাবের	-4380
▁দ্বিঘাত	-4381
▁ব্যান্ড	-4382
▁সিনিয়র	-4383
▁প্রোগ্রাম	-4384
▁হারিয়েছে	-4385
▁সমীকরণগুলি	-4386
ats	-4387
eng	-4388
lcm	-4389
নাস	-4390
বন্	-4391
ভিং	-4392
্বে	-4393
lish	-4394
মিকে	-4395
▁তেল	-4396
▁শাম	-4397
▁হেক	-4398
কালের	-4399
য়ারে	-4400
ুয়ার	-4401
▁চলতে	-4402
▁বসার	-4403
▁মূর্	-4404
▁লাঠি	-4405
খানায়	-4406
▁রাখেন	-4407
▁সময়স	-4408
▁different	-4409
▁ty	-4410
ব্যা	-4411
মূলক	-4412
▁কলে	-4413
▁জংক	-4414
▁হেন	-4415
বোর্ড	-4416
▁এপ্র	-4417
▁নারী	-4418
▁সকলে	-4419
▁Thurs	-4420
▁জ্বাল	-4421
▁ফেলার	-4422
▁ব্যাট	-4423
▁সংযোগ	-4424
▁বিবৃতি	-4425
▁উভয়পাশ	-4426
▁ক্যানের	-4427
▁ম্যাচের	-4428
▁রান্নাঘ	-4429
▁পরিমাণকে	-4430
▁ব্যবস্থাপ	-4431
("	-4432
xy	-4433
ঠির	-4434
ব্র	-4435
হীন	-4436
াইড	-4437
অথবা	-4438
প্রশ	-4439
▁মাশ	-4440
▁যাই	-4441
▁হটড	-4442
hline	-4443
▁plan	-4444
▁গ্লা	-4445
▁ডিভি	-4446
▁পিঠা	-4447
▁মালা	-4448
▁সিংহ	-4449
▁color	-4450
▁expon	-4451
▁পাবেন	-4452
▁জেমসের	-4453
▁নিয়োগ	-4454
▁arrange	-4455
▁দেখেছিল	-4456
▁ট্যাবলেট	-4457
▁পাশাপাশি	-4458
▁বিন্যস্ত	-4459
▁equations	-4460
▁জনসংখ্যার	-4461
এবং	-4462
থার	-4463
▁এগ	-4464
able	-4465
ilar	-4466
কর্ম	-4467
রূপে	-4468
▁Eng	-4469
▁\[(	-4470
▁des	-4471
শূন্য	-4472
ৃত্তে	-4473
▁ফুটে	-4474
imilar	-4475
প্রশ্ন	-4476
স্বরূপ	-4477
▁পতাকা	-4478
▁output	-4479
▁প্রভাব	-4480
▁সেগুলো	-4481
▁Running	-4482
▁উত্তরের	-4483
▁খরগোশের	-4484
▁আমাদেরকে	-4485
▁পুরষ্কার	-4486
▁অবস্থানের	-4487
▁প্রতিবেশী	-4488
▁combination	-4489
*(	-4490
)$.	-4491
ডেল	-4492
তলের	-4493
তাবল	-4494
▁শহর	-4495
▁like	-4496
▁spec	-4497
▁নীচে	-4498
▁বিলি	-4499
▁class	-4500
▁ঝুড়ি	-4501
▁ডলারের	-4502
▁মহিলার	-4503
▁English	-4504
▁পুনরায়	-4505
▁Solution	-4506
▁ট্যাঙ্কে	-4507
▁পেস্ট্রি	-4508
▁ভ্যানিলা	-4509
.,	-4510
মজ	-4511
eta	-4512
nes	-4513
লিশ	-4514
▁qu	-4515
▁নখ	-4516
▁বেত	-4517
ences	-4518
▁comp	-4519
▁frac	-4520
▁খোলা	-4521
▁ঘুরে	-4522
▁রবিন	-4523
▁wrapp	-4524
▁এলাকা	-4525
▁বেকার	-4526
ubtract	-4527
▁fruits	-4528
▁বিজয়ী	-4529
▁জেলিবিন	-4530
▁প্রস্তা	-4531
▁দৌড়ানোর	-4532
▁নোটবুকের	-4533
▁বিন্যাশের	-4534
▁ক্রয়মূল্য	-4535
▁পরিস্থিতিতে	-4536
তুর	-4537
ীনা	-4538
ম্যা	-4539
াতের	-4540
▁থাম	-4541
মিনিট	-4542
মিলিত	-4543
▁অনুক	-4544
▁জেরি	-4545
ভুক্তি	-4546
▁invol	-4547
▁কাটতে	-4548
▁ধারণা	-4549
▁পিছনে	-4550
▁বীজের	-4551
▁ব্রেস	-4552
▁রকমের	-4553
▁স্টিক	-4554
তিপূর্ণ	-4555
▁includ	-4556
▁modulo	-4557
▁ছাগলের	-4558
▁পাঠানো	-4559
▁marbles	-4560
▁Possible	-4561
▁কার্পেটের	-4562
▁হ্যামবার্গার	-4563
জু	-4564
দন	-4565
der	-4566
বৈধ	-4567
রীণ	-4568
সম্	-4569
কদের	-4570
কেটে	-4571
▁num	-4572
▁গুন	-4573
▁ডিজ	-4574
▁ফার	-4575
▁মিট	-4576
▁শুর	-4577
qquad	-4578
দানের	-4579
▁ধরতে	-4580
▁ধ্রু	-4581
▁পত্র	-4582
▁মুছে	-4583
▁আকর্ষ	-4584
▁বস্তু	-4585
▁বৃত্তে	-4586
\_\_\_\_	-4587
▁দৈবভাবে	-4588
▁পৃষ্ঠের	-4589
▁স্বাধীন	-4590
▁expression	-4591
▁understand	-4592
▁ত্রিভুজাকার	-4593
po	-4594
ird	-4595
ষ্ক	-4596
হান	-4597
▁Rs	-4598
▁bo	-4599
▁ইভ	-4600
erse	-4601
ying	-4602
ওয়ে	-4603
▁cyc	-4604
▁অনা	-4605
▁পিন	-4606
াকাছি	-4607
▁time	-4608
▁করের	-4609
▁চেরি	-4610
▁তোলে	-4611
▁দম্প	-4612
▁নেমে	-4613
▁স্পে	-4614
▁ratio	-4615
▁years	-4616
▁তারের	-4617
▁মানটি	-4618
▁মোজার	-4619
▁কেনাকা	-4620
▁মার্কের	-4621
▁অঙ্কগুলো	-4622
▁কাছাকাছি	-4623
▁নাশপাতির	-4624
▁পূরণকারী	-4625
▁সম্পর্কিত	-4626
▁স্ট্যান্ড	-4627
eri	-4628
ঁচু	-4629
হির	-4630
▁ফু	-4631
Case	-4632
বলের	-4633
▁red	-4634
▁উঠে	-4635
▁জড়	-4636
▁পীচ	-4637
▁week	-4638
▁টিভি	-4639
▁উত্তল	-4640
▁ভূমিক	-4641
প্তাহিক	-4642
▁চাচাতো	-4643
▁সরিয়ে	-4644
▁স্কিটল	-4645
▁ইঞ্চিতে	-4646
▁intersec	-4647
▁অবস্থানে	-4648
▁বর্গমিটার	-4649
▁সাপ্তাহিক	-4650
▁ব্যাসার্ধের	-4651
শত	-4652
কতে	-4653
দুই	-4654
পাঠ	-4655
▁//	-4656
▁দখ	-4657
Area	-4658
নারি	-4659
▁এনে	-4660
▁কবু	-4661
▁জন্	-4662
▁বেন	-4663
▁মেঝ	-4664
Count	-4665
্যানে	-4666
▁poly	-4667
▁sold	-4668
যেখানে	-4669
াকৃতিক	-4670
িকোয়ে	-4671
▁আকৃতি	-4672
▁উপপাদ	-4673
▁কোয়া	-4674
▁গ্রেম	-4675
▁নোটের	-4676
▁বসানো	-4677
▁হালকা	-4678
▁প্রকার	-4679
▁বারোটি	-4680
▁ব্রায়	-4681
▁রবার্ট	-4682
▁constra	-4683
▁বাদামের	-4684
▁বাচ্চাদের	-4685
▁ফেব্রুয়ার	-4686
চি	-4687
্সট	-4688
▁হন	-4689
পাতে	-4690
রাবর	-4691
▁take	-4692
▁আঁকা	-4693
▁বইটি	-4694
মাণবিক	-4695
▁ক্যার	-4696
▁তাসের	-4697
▁বরাবর	-4698
ibility	-4699
▁গ্রীষ্	-4700
▁চালানো	-4701
▁ছাড়াই	-4702
▁পরিবহন	-4703
▁স্পষ্ট	-4704
▁হাইড্র	-4705
▁coprime	-4706
▁সময়সূচ	-4707
▁জন্মদিনে	-4708
▁প্রশ্নটি	-4709
▁শিক্ষকের	-4710
▁জন্মগ্রহণ	-4711
▁প্রাকৃতিক	-4712
▁পুনর্বিন্যাস	-4713
ares	-4714
জ্ঞা	-4715
্নার	-4716
▁tri	-4717
ednes	-4718
ither	-4719
▁উঁচু	-4720
▁এদের	-4721
▁চলছে	-4722
▁দেবে	-4723
▁বেলা	-4724
▁মারা	-4725
iginal	-4726
্রান্ত	-4727
▁আয়ের	-4728
▁শুরুর	-4729
▁ধোয়ার	-4730
▁বিক্রে	-4731
▁highest	-4732
▁ক্রিস্ট	-4733
▁অ্যালবাম	-4734
▁পদগুলিকে	-4735
▁পারমাণবিক	-4736
▁পদক্ষেপগুলি	-4737
▁ব্যাকটেরিয়া	-4738
Sum	-4739
\)-	-4740
ari	-4741
form	-4742
ংকের	-4743
খানা	-4744
সাগু	-4745
ুনার	-4746
ুরের	-4747
▁dec	-4748
▁জমি	-4749
▁জিন	-4750
▁ডেভ	-4751
▁দখল	-4752
▁পিক	-4753
▁পুল	-4754
imize	-4755
▁অনেক	-4756
▁ছানা	-4757
▁প্লা	-4758
ত্যাদি	-4759
▁আসনের	-4760
▁জুতার	-4761
▁রুটির	-4762
▁রোলার	-4763
▁শঙ্কু	-4764
কারীদের	-4765
▁একটিতে	-4766
▁সভাপতি	-4767
▁অধ্যয়ন	-4768
▁ব্যাঙের	-4769
▁জ্যামিতিক	-4770
▁বৃষ্টিপাত	-4771
ric	-4772
িকিৎ	-4773
্ডিং	-4774
▁mid	-4775
▁তাঁ	-4776
▁লোড	-4777
itten	-4778
rough	-4779
জার্ট	-4780
▁requ	-4781
▁জানে	-4782
▁জারে	-4783
▁উল্টে	-4784
▁এসেছে	-4785
▁ক্লাব	-4786
▁খেলতে	-4787
▁জয়ের	-4788
▁height	-4789
▁starts	-4790
▁অনুরূপ	-4791
▁সামনের	-4792
▁হেক্টর	-4793
▁finding	-4794
▁follows	-4795
▁আমন্ত্র	-4796
▁ইত্যাদি	-4797
▁উপপাদ্য	-4798
▁যোগফলকে	-4799
▁ল্যাম্প	-4800
▁শর্তাবল	-4801
▁প্রস্তাব	-4802
▁ব্লুবেরি	-4803
▁কোম্পানির	-4804
▁প্রত্যাশিত	-4805
▁Substituting	-4806
▁শিক্ষার্থীদের	-4807
পো	-4808
োশ	-4809
টোর	-4810
ফলে	-4811
ল্ট	-4812
সঙ্গ	-4813
▁mak	-4814
▁পদে	-4815
▁ফাঁ	-4816
▁ভাঙ	-4817
▁সিট	-4818
▁ABCD	-4819
▁উন্ন	-4820
▁এটাও	-4821
▁দামে	-4822
▁কোর্স	-4823
▁তুলতে	-4824
▁বিকেল	-4825
▁সিন্ড	-4826
▁অভিন্ন	-4827
▁পরিমাপ	-4828
▁ফ্ল্যা	-4829
▁মাঝারি	-4830
▁মেলানো	-4831
▁মেলায়	-4832
▁যতক্ষণ	-4833
▁simplif	-4834
▁through	-4835
▁উপন্যাস	-4836
▁মাকড়সা	-4837
▁মিলিলিটার	-4838
ok	-4839
let	-4840
জিক	-4841
ফিশ	-4842
crib	-4843
ters	-4844
ড়তে	-4845
ত্তর	-4846
্রিজ	-4847
▁Val	-4848
▁zer	-4849
▁কখন	-4850
▁টিপ	-4851
▁ভাজ	-4852
▁হ্র	-4853
total	-4854
য়ারা	-4855
▁Mond	-4856
▁ফ্রা	-4857
▁লুসি	-4858
▁খাদ্য	-4859
▁জড়িত	-4860
▁পৌঁছে	-4861
▁শিবির	-4862
▁অভিভাব	-4863
▁চালাতে	-4864
▁তিনবার	-4865
▁বেতনের	-4866
▁যুক্তি	-4867
▁স্তম্ভ	-4868
▁ডাক্তার	-4869
▁মিলিয়ন	-4870
Determine	-4871
▁translate	-4872
yz	-4873
neq	-4874
টাই	-4875
ভূত	-4876
ধমান	-4877
▁কান	-4878
▁বলি	-4879
মালের	-4880
রুমের	-4881
াপনের	-4882
▁কলার	-4883
▁ডেভি	-4884
▁মিনি	-4885
▁Divis	-4886
▁order	-4887
▁গানের	-4888
▁series	-4889
▁ভ্রমণে	-4890
▁রাশিটি	-4891
▁স্তূপে	-4892
▁paralle	-4893
▁অনুপাতে	-4894
▁বন্ধুরা	-4895
▁খাওয়ানোর	-4896
▁বিদ্যালয়ে	-4897
হিন	-4898
েরা	-4899
▁br	-4900
▁ইট	-4901
▁টো	-4902
▁কপি	-4903
▁দশম	-4904
▁স্ল	-4905
quare	-4906
ট্রিক	-4907
পাতিক	-4908
▁টাইলস	-4909
▁তোলার	-4910
▁নিজেই	-4911
▁লিঙ্গ	-4912
▁সুপার	-4913
লিয়েছে	-4914
▁চার্লি	-4915
▁জোয়ান	-4916
▁টিউলিপ	-4917
▁পড়াশো	-4918
▁পিছনের	-4919
▁সেগুলি	-4920
▁ইয়ার্ড	-4921
▁বর্গমূল	-4922
▁বেড়েছে	-4923
▁রেখেছিল	-4924
▁সমষ্টির	-4925
▁অনুপাতের	-4926
▁মিশ্রণের	-4927
▁অভ্যন্তরীণ	-4928
pt	-4929
ঘন	-4930
ets	-4931
max	-4932
চেল	-4933
মিং	-4934
▁কাঁ	-4935
▁খান	-4936
▁গাপ	-4937
▁চাষ	-4938
▁বুন	-4939
▁ইউরো	-4940
▁কাটে	-4941
▁ফাইল	-4942
▁অনুমো	-4943
▁গতকাল	-4944
▁জেকের	-4945
▁ড্যান	-4946
▁ভালুক	-4947
▁লাইনে	-4948
▁সরঞ্জ	-4949
▁সহপাঠ	-4950
▁divide	-4951
▁মানগুলো	-4952
▁প্রিজমের	-4953
▁কমলালেবুর	-4954
▁বিক্রয়ের	-4955
▁কনফিগারেশন	-4956
▁ক্যালকুলেটর	-4957
em	-4958
gr	-4959
ABC	-4960
তীত	-4961
দিত	-4962
পাতা	-4963
বৃহৎ	-4964
ানুস	-4965
▁\)-	-4966
▁age	-4967
▁আধা	-4968
▁হিল	-4969
▁repe	-4970
▁গেলে	-4971
▁চারা	-4972
▁ফেলা	-4973
▁বানা	-4974
▁সন্ধ	-4975
▁অধ্যা	-4976
▁ক্রয়	-4977
▁পাঠ্য	-4978
▁বাসের	-4979
▁বোর্ড	-4980
▁সংস্থ	-4981
▁সন্তু	-4982
▁হাজার	-4983
ানুসারে	-4984
্যান্ডে	-4985
▁খেলনার	-4986
▁মৌসুমে	-4987
▁যন্ত্র	-4988
▁বিল্ডিং	-4989
িয়েছিলেন	-4990
▁বিকল্পের	-4991
▁reasoning	-4992
▁কুকুরছানা	-4993
▁অন্তর্ভুক্তি	-4994
চা	-4995
পদ	-4996
মত	-4997
▁ঠ	-4998
fic	-4999
শমা	-5000
omet	-5001
▁(\(	-5002
▁cel	-5003
▁নিল	-5004
▁নেট	-5005
▁হাস	-5006
তুল্য	-5007
▁ঘড়ি	-5008
▁হটডগ	-5009
স্তায়	-5010
▁টেনিস	-5011
▁পড়েন	-5012
▁মার্থ	-5013
▁এগিয়ে	-5014
পঞ্চমাংশ	-5015
▁seconds	-5016
▁উপহারের	-5017
▁পিরামিড	-5018
▁অনুষ্ঠানে	-5019
▁তুলেছিলেন	-5020
▁calculated	-5021
\}$	-5022
ord	-5023
ube	-5024
}_{	-5025
রাফ	-5026
েলে	-5027
▁Ex	-5028
িত্র	-5029
▁rel	-5030
▁টির	-5031
▁ত্র	-5032
eomet	-5033
কেকের	-5034
চিত্র	-5035
্রেরি	-5036
▁চীনা	-5037
▁ডেসি	-5038
▁দরজা	-5039
angles	-5040
▁কক্ষে	-5041
▁Wednes	-5042
▁______	-5043
▁আঙ্গুর	-5044
▁কীভাবে	-5045
▁গাজরের	-5046
▁পার্টি	-5047
▁ব্যতীত	-5048
▁squares	-5049
▁পঞ্চভুজ	-5050
▁সম্মিলিত	-5051
▁লাইব্রেরি	-5052
▁জীববিজ্ঞান	-5053
▁সঙ্গতিপূর্ণ	-5054
AC	-5055
rm	-5056
iqu	-5057
ual	-5058
কেস	-5059
নীল	-5060
লিং	-5061
▁AC	-5062
▁খন	-5063
imes	-5064
ines	-5065
mong	-5066
rees	-5067
▁amu	-5068
▁একর	-5069
▁বাঘ	-5070
▁ভাষ	-5071
dfrac	-5072
▁tile	-5073
▁নাতি	-5074
atural	-5075
▁জিলের	-5076
▁ভোটের	-5077
▁সোডার	-5078
▁অতিথির	-5079
▁একজনকে	-5080
▁মাইলের	-5081
▁প্লেটের	-5082
▁ত্রিভুজে	-5083
▁সন্তুষ্ট	-5084
▁প্রতিদিনের	-5085
op	-5086
গান	-5087
রাই	-5088
রিক	-5089
োনি	-5090
্টো	-5091
▁ft	-5092
▁ইন	-5093
▁মশ	-5094
):**	-5095
urre	-5096
াকির	-5097
▁আনা	-5098
▁চেস	-5099
▁পথে	-5100
▁যমজ	-5101
▁সাল	-5102
▁হোক	-5103
Final	-5104
সুস্থ	-5105
▁When	-5106
▁case	-5107
▁does	-5108
▁তাঁর	-5109
▁মাহি	-5110
mathrm	-5111
▁tiles	-5112
▁কমাতে	-5113
▁কাপের	-5114
▁শামুক	-5115
▁আকর্ষণ	-5116
▁পাচ্ছি	-5117
▁ফেলেছে	-5118
▁স্যালি	-5119
▁নিজেদের	-5120
▁সরলরেখা	-5121
▁wrappers	-5122
▁কোয়ার্ট	-5123
▁বিভাজ্যতা	-5124
▁ব্র্যান্ড	-5125
▁বাহুবিশিষ্ট	-5126
)]	-5127
dj	-5128
নী	-5129
পু	-5130
!\)	-5131
oun	-5132
pro	-5133
tem	-5134
বিশ	-5135
সমা	-5136
টারে	-5137
স্যা	-5138
▁রুপ	-5139
স্থান	-5140
▁Next	-5141
▁line	-5142
▁pass	-5143
▁জেনে	-5144
▁অ্যাক	-5145
▁এগুলি	-5146
▁চালান	-5147
▁ডার্ট	-5148
▁পায়ে	-5149
ব্যবহার	-5150
▁জন্মের	-5151
▁ধরেছিল	-5152
▁পুকুরে	-5153
▁বার্তা	-5154
▁natural	-5155
▁ক্রিকেট	-5156
▁ডেজার্ট	-5157
▁বেরিয়ে	-5158
▁সরলীকৃত	-5159
▁fraction	-5160
▁অ্যামিবা	-5161
▁উৎপাদকের	-5162
▁প্রার্থী	-5163
▁সোমবারের	-5164
▁distribute	-5165
▁অ্যান্ড্রু	-5166
}+	-5167
গন	-5168
^{\	-5169
uly	-5170
ভিত	-5171
▁দই	-5172
)**:	-5173
োলের	-5174
▁bir	-5175
▁আটা	-5176
▁ডিস	-5177
▁সংর	-5178
ড়ায়	-5179
▁জুলি	-5180
▁দুটো	-5181
ateral	-5182
ভিত্তি	-5183
▁আদমের	-5184
▁করছিল	-5185
▁গাছটি	-5186
▁ন্যাপ	-5187
স্টারের	-5188
▁within	-5189
▁অঙ্কিত	-5190
ilateral	-5191
সেকেন্ডে	-5192
▁কার্যকর	-5193
▁ধাপগুলি	-5194
▁সমতুল্য	-5195
▁স্ট্রিং	-5196
onclusion	-5197
▁কার্যকলা	-5198
▁multiples	-5199
▁সমানুপাতিক	-5200
▁Calculation	-5201
bs	-5202
ex	-5203
লী	-5204
কোন	-5205
▁SI	-5206
▁নক	-5207
সীমা	-5208
▁our	-5209
▁কোড	-5210
▁তুষ	-5211
▁ভরে	-5212
▁শার	-5213
quadr	-5214
র্ডের	-5215
হুয়া	-5216
ায়ার	-5217
▁blue	-5218
▁open	-5219
▁আটজন	-5220
▁গতির	-5221
▁বালি	-5222
▁মৌমা	-5223
Number	-5224
ুমানিক	-5225
▁quadr	-5226
▁জাকির	-5227
▁টিনের	-5228
▁বিলের	-5229
▁ভাইকে	-5230
▁মেসেজ	-5231
▁সংস্ক	-5232
▁সেতুর	-5233
▁appear	-5234
▁apples	-5235
▁অর্থের	-5236
▁দম্পতি	-5237
▁written	-5238
▁ট্রাকের	-5239
▁ব্রাউনি	-5240
▁সাশ্রয়	-5241
▁distance	-5242
▁প্রস্থের	-5243
▁শ্রেণিতে	-5244
▁প্রতিনিধি	-5245
▁ফ্রিকোয়ে	-5246
▁Simplifying	-5247
inc	-5248
▁আঙ	-5249
▁পল	-5250
▁শর	-5251
arge	-5252
ased	-5253
ique	-5254
ways	-5255
সম্প	-5256
▁lcm	-5257
▁খুব	-5258
▁ঘুর	-5259
▁আসনে	-5260
▁বেরি	-5261
▁যেসব	-5262
▁সার্	-5263
square	-5264
সিয়াম	-5265
▁Multi	-5266
▁\):**	-5267
▁কেসের	-5268
▁গড়ের	-5269
▁গেমের	-5270
▁চিকিৎ	-5271
▁চিনির	-5272
▁শক্তি	-5273
▁সংবাদ	-5274
▁অসুস্থ	-5275
▁ইতিহাস	-5276
▁টেক্সট	-5277
▁বয়স্ক	-5278
▁বাইরের	-5279
▁মূল্যে	-5280
▁ডেলিভার	-5281
▁পেয়েছি	-5282
▁ফিরিয়ে	-5283
▁প্যান্টের	-5284
▁সেন্টিমিটারে	-5285
▁স্ট্যান্ডার্ড	-5286
▁চিড়িয়াখানায়	-5287
ard	-5288
gon	-5289
})^	-5290
গ্ন	-5291
দ্র	-5292
ুটে	-5293
▁ওই	-5294
▁থা	-5295
▁শূ	-5296
ঙ্গে	-5297
▁$\{	-5298
▁Add	-5299
▁res	-5300
▁ভলি	-5301
▁cont	-5302
▁দ্রব	-5303
▁ভাতা	-5304
result	-5305
সম্ভাব	-5306
▁ধারের	-5307
▁ভেড়া	-5308
▁সামনে	-5309
▁সামান	-5310
▁সূর্য	-5311
▁either	-5312
▁primes	-5313
▁আলেক্স	-5314
▁দেখায়	-5315
▁পনিরের	-5316
▁ক্যাম্প	-5317
▁চিত্রের	-5318
▁মিশ্রিত	-5319
▁অনুমোদিত	-5320
▁জানুয়ার	-5321
▁শর্তাবলী	-5322
▁অনুষ্ঠানের	-5323
▁প্রত্যেকেই	-5324
সো	-5325
মাঝ	-5326
োরে	-5327
omes	-5328
pend	-5329
step	-5330
ন্ডো	-5331
মানা	-5332
ীর্ণ	-5333
▁এমি	-5334
▁রুম	-5335
▁লেন	-5336
কারীর	-5337
ান্ডা	-5338
▁back	-5339
▁আসতে	-5340
▁ফাংশ	-5341
▁মারু	-5342
▁মুখে	-5343
▁রিবন	-5344
▁সেতু	-5345
▁broth	-5346
▁উদ্ভি	-5347
▁গামবল	-5348
▁মোবাই	-5349
▁লেবুর	-5350
বর্ধমান	-5351
▁angles	-5352
▁proper	-5353
▁পরিচাল	-5354
▁পরিচিত	-5355
▁ভূমিকা	-5356
▁সবসময়	-5357
▁ইউনিটের	-5358
▁ইনিংসের	-5359
▁দৌড়েছে	-5360
▁প্রবন্ধ	-5361
▁বার্গার	-5362
▁বিজ্ঞাপন	-5363
▁গিয়েছিলেন	-5364
▁বিনিয়োগের	-5365
▁মঙ্গলবারের	-5366
:",	-5367
\\)	-5368
}\\	-5369
ছোট	-5370
াদশ	-5371
▁\_	-5372
▁ওট	-5373
▁গি	-5374
iers	-5375
orem	-5376
tive	-5377
সিডে	-5378
▁ডাল	-5379
▁বয়	-5380
▁হরি	-5381
▁ক্রস	-5382
▁চশমা	-5383
▁ভারী	-5384
▁যিনি	-5385
গুলোতে	-5386
▁pages	-5387
▁score	-5388
▁অঞ্চল	-5389
▁জুলাই	-5390
▁বারের	-5391
▁মুখোশ	-5392
▁স্যুপ	-5393
▁radius	-5394
▁টমেটোর	-5395
▁ডিভিডি	-5396
▁প্ল্যা	-5397
▁রেখাংশ	-5398
▁সংশোধন	-5399
▁তরমুজের	-5400
▁বিশ্রাম	-5401
▁মেয়েকে	-5402
▁involves	-5403
▁আনুমানিক	-5404
▁following	-5405
▁ট্যাঙ্কের	-5406
খি	-5407
▁]	-5408
ars	-5409
cos	-5410
ins	-5411
সিড	-5412
▁$=	-5413
▁fe	-5414
▁নর	-5415
roup	-5416
প্যা	-5417
ারাপ	-5418
িন্ড	-5419
▁আদম	-5420
▁আনে	-5421
▁কিউ	-5422
▁টুথ	-5423
▁পাস	-5424
কর্তা	-5425
পাশের	-5426
▁তলের	-5427
▁দক্ষ	-5428
▁বৃহৎ	-5429
▁মেঝে	-5430
▁হাড়	-5431
output	-5432
▁match	-5433
▁price	-5434
▁third	-5435
▁অষ্টম	-5436
▁গঠনের	-5437
▁চুলের	-5438
বৃত্তের	-5439
▁Sunday	-5440
▁এপ্রিল	-5441
▁গোলাপী	-5442
▁পর্যটক	-5443
▁গোষ্ঠীর	-5444
▁ডাউনলোড	-5445
▁position	-5446
▁শর্তগুলি	-5447
▁সর্ববৃহৎ	-5448
▁প্রান্তের	-5449
▁ভগ্নাংশটি	-5450
▁চক্রবৃদ্ধি	-5451
▁সমীকরণটিকে	-5452
▁((	-5453
▁mo	-5454
▁তি	-5455
মনের	-5456
াক্ত	-5457
▁নথি	-5458
▁বর্	-5459
▁বেশ	-5460
▁stic	-5461
▁কম্ব	-5462
ড়ানোর	-5463
সভাপতি	-5464
▁গণিতে	-5465
▁ভিতরে	-5466
▁গাপ্পি	-5467
▁দুজনের	-5468
▁মিশ্রণ	-5469
▁initial	-5470
▁পাইয়ের	-5471
▁বীজগণিত	-5472
▁ব্যাংকে	-5473
▁পদ্ধতিতে	-5474
▁পৃষ্ঠায়	-5475
▁পৌঁছানোর	-5476
▁স্টিকারের	-5477
▁calculation	-5478
▁constraints	-5479
▁ক্রমবর্ধমান	-5480
▁টুর্নামেন্টে	-5481
Th	-5482
ym	-5483
min	-5484
raw	-5485
নেট	-5486
মিল	-5487
িনে	-5488
alyz	-5489
ener	-5490
কিছু	-5491
রুমে	-5492
্রুর	-5493
▁gcd	-5494
▁occ	-5495
▁যেন	-5496
▁সফল	-5497
atest	-5498
count	-5499
ক্ষেপ	-5500
চ্ছাদ	-5501
ন্দ্র	-5502
সারিত	-5503
▁চিপস	-5504
▁ফ্লো	-5505
▁বিরো	-5506
▁সবজি	-5507
্যায়ন	-5508
▁অংশটি	-5509
▁খারাপ	-5510
▁রাজ্য	-5511
▁সুযোগ	-5512
িয়েছেন	-5513
▁গণনাটি	-5514
▁টেলিভি	-5515
▁পরমাণু	-5516
▁প্রমাণ	-5517
▁লেগেছে	-5518
▁সামগ্র	-5519
▁Solving	-5520
▁process	-5521
▁কাপড়ের	-5522
▁সংবাদপত্র	-5523
▁পার্থক্যের	-5524
▁বিদ্যালয়ের	-5525
?"	-5526
ডু	-5527
ৈখ	-5528
বাক	-5529
▁gu	-5530
▁চৌ	-5531
▁ডু	-5532
ABCD	-5533
কেজি	-5534
ার্স	-5535
ৈখিক	-5536
▁adj	-5537
▁কিছ	-5538
▁লুই	-5539
ভিনের	-5540
▁perm	-5541
▁shir	-5542
▁some	-5543
▁sums	-5544
▁গল্প	-5545
▁ডানা	-5546
▁দ্বী	-5547
▁প্রচ	-5548
▁মাঠে	-5549
▁সিডি	-5550
▁অপারে	-5551
▁আগ্রহ	-5552
▁একটির	-5553
▁ম্যাক	-5554
▁কার্লো	-5555
▁কোনটিই	-5556
▁দশমিকে	-5557
▁choices	-5558
▁regions	-5559
▁ওয়ার্ক	-5560
▁জেসিকার	-5561
▁দোকানের	-5562
▁পড়েছেন	-5563
▁হাজারের	-5564
শুধুমাত্র	-5565
▁অভিজ্ঞতা	-5566
▁গ্রেমলিন	-5567
▁দৃশ্যমান	-5568
▁perimeter	-5569
▁rectangle	-5570
▁মঙ্গলবারে	-5571
,$	-5572
ah	-5573
wh	-5574
গল	-5575
alf	-5576
গোল	-5577
ভাই	-5578
সর্	-5579
সীম	-5580
ূসর	-5581
▁কব	-5582
ties	-5583
্ডের	-5584
▁অধি	-5585
▁খনন	-5586
▁নভে	-5587
▁নার	-5588
▁পদক	-5589
▁সুই	-5590
ugust	-5591
কেটের	-5592
মানের	-5593
যোগফল	-5594
রুদ্ধ	-5595
▁Cons	-5596
▁hand	-5597
▁মাখন	-5598
▁সিরি	-5599
▁সেটি	-5600
▁Hence	-5601
▁above	-5602
▁গ্রেড	-5603
▁চাকার	-5604
▁পপকর্	-5605
▁বাটার	-5606
▁বাস্ত	-5607
▁মাথার	-5608
▁Common	-5609
▁ইনিংসে	-5610
▁কার্টন	-5611
▁খাবারে	-5612
▁তথ্যের	-5613
▁যেকোনও	-5614
▁require	-5615
▁উদ্যানে	-5616
▁উপযুক্ত	-5617
▁চকলেটের	-5618
▁ট্রেনটি	-5619
▁প্রতিসম	-5620
▁বিবাহিত	-5621
▁soldiers	-5622
▁প্রতিযোগিতা	-5623
▁ফ্রিকোয়েন্সি	-5624
DE	-5625
vi	-5626
)$।	-5627
মাই	-5628
সকল	-5629
াইন	-5630
▁Pr	-5631
▁eq	-5632
▁go	-5633
▁কঠ	-5634
পার্	-5635
স্যু	-5636
ারেল	-5637
▁ele	-5638
▁আবে	-5639
▁আলী	-5640
▁ইরে	-5641
▁মটর	-5642
কালীন	-5643
য়ালে	-5644
োকারে	-5645
▁গালি	-5646
▁বাইক	-5647
▁রসিক	-5648
▁Check	-5649
▁right	-5650
▁state	-5651
▁চালের	-5652
▁সমগ্র	-5653
শার্টের	-5654
িয়েছিল	-5655
▁জর্ডান	-5656
▁ব্যর্থ	-5657
▁সিস্টে	-5658
▁describ	-5659
▁জুলিয়া	-5660
▁পিটারের	-5661
▁আমন্ত্রণ	-5662
▁কর্মকর্তা	-5663
▁ক্র্যাকার	-5664
▁দৃশ্যকল্প	-5665
▁প্রশিক্ষণ	-5666
▁পরীক্ষার্থ	-5667
)*	-5668
ভিন	-5669
লকে	-5670
▁DE	-5671
▁জগ	-5672
▁টব	-5673
খ্যা	-5674
ত্রি	-5675
ীভূত	-5676
ৃত্য	-5677
▁আশা	-5678
ভারের	-5679
▁জাদু	-5680
▁বক্স	-5681
▁লিখা	-5682
ক্রিয়	-5683
ঞ্জস্য	-5684
▁After	-5685
▁উপকরণ	-5686
▁কবুতর	-5687
▁কার্ব	-5688
▁গায়ক	-5689
▁ছুটির	-5690
▁বজায়	-5691
▁বোনাস	-5692
▁লাভের	-5693
▁লোককে	-5694
পয়েন্ট	-5695
▁করিমের	-5696
▁গ্যারে	-5697
▁দায়িত	-5698
▁দেখেছে	-5699
▁জোড়ায়	-5700
▁দেওয়াল	-5701
▁সেন্টের	-5702
▁হাসপাতা	-5703
▁টেলিভিশন	-5704
▁ব্রেসলেট	-5705
▁কর্মচারীর	-5706
▁পুনর্ব্যবহার	-5707
টপ	-5708
কুক	-5709
মনে	-5710
)\),	-5711
ঁড়ে	-5712
বর্ষ	-5713
স্তি	-5714
িনাট	-5715
ীড়া	-5716
▁pre	-5717
▁আবি	-5718
▁আর্	-5719
▁করল	-5720
▁জুস	-5721
▁ডেই	-5722
▁পুশ	-5723
▁বাথ	-5724
▁রেফ	-5725
▁রোজ	-5726
▁সংগ	-5727
তিনটি	-5728
ম্যান	-5729
ানিতে	-5730
▁July	-5731
▁আনতে	-5732
▁কলাম	-5733
▁গুলি	-5734
▁ড্রা	-5735
▁রাশে	-5736
ামূল্য	-5737
▁ক্রেট	-5738
▁ঘড়ির	-5739
▁ঘাতের	-5740
▁চোখের	-5741
▁তাকের	-5742
▁পারবো	-5743
▁বাক্য	-5744
▁মেরাম	-5745
▁শিকার	-5746
▁স্টপে	-5747
▁জার্সি	-5748
▁দিচ্ছি	-5749
▁নমুনার	-5750
▁বয়সকে	-5751
▁বোর্ডে	-5752
▁ব্র্যা	-5753
▁ভাজকের	-5754
দ্বিবাহু	-5755
বিশ্লেষণ	-5756
▁অ্যান্ট	-5757
▁এলাকায়	-5758
▁ক্রীড়া	-5759
▁চারজনের	-5760
▁দশমিকের	-5761
▁পেয়ারা	-5762
▁সংশোধিত	-5763
▁function	-5764
▁গ্রাহকের	-5765
▁ন্যান্সি	-5766
▁পড়াশোনা	-5767
▁শেয়ারের	-5768
▁বিদ্যালয়	-5769
▁সামঞ্জস্য	-5770
▁প্রতিবেশীর	-5771
াফ	-5772
)^(	-5773
hip	-5774
ume	-5775
গতি	-5776
বিষ	-5777
াংশ	-5778
ীনে	-5779
্কি	-5780
▁এড	-5781
▁ঝা	-5782
iend	-5783
read	-5784
ন্সে	-5785
▁ঘটে	-5786
▁নিন	-5787
▁হতো	-5788
▁হেঁ	-5789
efine	-5790
ities	-5791
স্তুর	-5792
▁Frid	-5793
▁জর্জ	-5794
▁ডেটা	-5795
▁পালন	-5796
▁পাহা	-5797
▁ফার্	-5798
▁ফ্রি	-5799
রিয়ান	-5800
▁among	-5801
▁lines	-5802
▁স্বাম	-5803
ামূল্যে	-5804
▁Factor	-5805
▁unique	-5806
▁আচ্ছাদ	-5807
▁একবারে	-5808
▁গোষ্ঠী	-5809
▁টাইলার	-5810
▁বানাতে	-5811
▁হারানো	-5812
▁কার্পেট	-5813
▁পরিবারে	-5814
▁পাঁচগুণ	-5815
▁ব্যাটসম	-5816
▁সরঞ্জাম	-5817
▁স্ট্রাই	-5818
▁উপাদানের	-5819
▁জন্মদিনের	-5820
▁বিজ্ঞানের	-5821
▁differences	-5822
▁উদাহরণস্বরূপ	-5823
▁প্রত্যেকটিতে	-5824
আর	-5825
টন	-5826
মতি	-5827
▁ক্	-5828
বর্ণ	-5829
▁she	-5830
▁ইভে	-5831
▁ঘোর	-5832
▁দেব	-5833
▁নবম	-5834
▁হেড	-5835
ingle	-5836
গারের	-5837
▁cent	-5838
▁আরেক	-5839
▁পেরে	-5840
▁boxes	-5841
▁twice	-5842
▁গ্রাফ	-5843
▁জেনের	-5844
▁ড্রাম	-5845
▁পপসিক	-5846
▁পিনাট	-5847
▁পেট্র	-5848
পার্শ্ব	-5849
▁geomet	-5850
▁larger	-5851
▁sticks	-5852
▁মাশরুম	-5853
▁মূর্তি	-5854
▁smaller	-5855
▁জ্যাকেট	-5856
▁পেইন্টি	-5857
▁সমন্বিত	-5858
▁Thursday	-5859
▁ক্ষতিগ্র	-5860
▁প্রস্তুত	-5861
▁ব্যায়াম	-5862
▁ব্রোকারে	-5863
▁সম্ভাবনার	-5864
▁পুনর্বিন্যস্ত	-5865
ৃতি	-5866
cent	-5867
গায়	-5868
জানা	-5869
ধিতে	-5870
প্টে	-5871
▁log	-5872
▁জোর	-5873
▁সিও	-5874
▁হুই	-5875
ার্টে	-5876
▁ধূসর	-5877
▁পোকা	-5878
▁মাটি	-5879
▁মিনা	-5880
anuary	-5881
tively	-5882
ডিয়াম	-5883
স্তোরা	-5884
▁cycle	-5885
▁ফেরার	-5886
▁বয়সে	-5887
▁রানের	-5888
▁সোয়ে	-5889
▁receiv	-5890
▁আয়োজন	-5891
▁গ্রামে	-5892
▁জিজ্ঞা	-5893
▁পপকর্ন	-5894
▁ম্যানে	-5895
▁লাগানো	-5896
▁সময়কে	-5897
অতিরিক্ত	-5898
▁compute	-5899
▁ধারাটির	-5900
▁সংরক্ষণ	-5901
▁specific	-5902
▁represent	-5903
▁অ্যাকাউন্ট	-5904
▁বিনামূল্যে	-5905
▁সমদ্বিবাহু	-5906
ওনা	-5907
সোম	-5908
▁জী	-5909
দত্ত	-5910
▁পাউ	-5911
▁ভিক	-5912
vious	-5913
টারের	-5914
বিষ্য	-5915
িয়েল	-5916
▁type	-5917
▁কৃষক	-5918
▁পিতা	-5919
▁বাজে	-5920
▁মুনা	-5921
▁শেখা	-5922
কোয়ার	-5923
▁অধীনে	-5924
▁কামাল	-5925
▁গিটার	-5926
▁গুণের	-5927
▁রাশির	-5928
▁রৈখিক	-5929
স্তোরাঁ	-5930
▁implies	-5931
▁গাড়িটি	-5932
▁ট্যাক্স	-5933
▁ট্র্যাক	-5934
▁ফ্রাঙ্ক	-5935
▁অন্যদিকে	-5936
▁খাওয়ানো	-5937
▁জিজ্ঞাসা	-5938
▁নথিভুক্ত	-5939
▁positions	-5940
▁পঞ্চভুজের	-5941
▁রেস্তোরাঁ	-5942
▁প্রতিস্থাপ	-5943
▁intersection	-5944
SP	-5945
br	-5946
সল	-5947
িও	-5948
িদ	-5949
ram	-5950
জাত	-5951
টিও	-5952
▁Na	-5953
▁দো	-5954
year	-5955
উভয়	-5956
নিকে	-5957
মিতে	-5958
াকতে	-5959
ারেন	-5960
▁ind	-5961
▁ইসা	-5962
▁বহি	-5963
▁শলগ	-5964
enari	-5965
olume	-5966
▁জামি	-5967
▁দত্ত	-5968
▁ববের	-5969
▁সামি	-5970
বিজোড়	-5971
শিয়ান	-5972
▁birth	-5973
▁একদিন	-5974
▁তুষার	-5975
▁ফ্রাই	-5976
▁মটরশু	-5977
▁সাতজন	-5978
▁সেলাই	-5979
▁ম্যাগা	-5980
▁যেগুলি	-5981
▁শিক্ষা	-5982
▁Problem	-5983
▁জংকুকের	-5984
▁বক্তব্য	-5985
ubstitute	-5986
▁starting	-5987
▁ইতিহাসের	-5988
▁জায়গায়	-5989
▁বিক্রেতা	-5990
▁স্তম্ভের	-5991
▁ব্যবসায়ী	-5992
▁ব্যবস্থার	-5993
▁মূল্যায়ন	-5994
▁কোম্পানিতে	-5995
▁বিকল্পগুলি	-5996
▁সম্ভাব্যতা	-5997
▁পোকামাকড়ের	-5998
ষী	-5999
als	-6000
mid	-6001
টুক	-6002
বাল	-6003
নির্	-6004
ুড়ি	-6005
▁=<<	-6006
▁new	-6007
▁sym	-6008
▁কোট	-6009
▁লটে	-6010
divis	-6011
তাদের	-6012
বাক্স	-6013
▁Then	-6014
▁draw	-6015
▁বাসা	-6016
▁মরিচ	-6017
▁রাখি	-6018
▁লিজা	-6019
▁শটের	-6020
িংয়ের	-6021
▁Count	-6022
▁_____	-6023
▁whose	-6024
▁ক্রিস	-6025
▁গুটির	-6026
▁চাকরি	-6027
▁বেড়ে	-6028
▁শর্তে	-6029
colates	-6030
প্রদত্ত	-6031
▁friend	-6032
▁দণ্ডের	-6033
▁ধারায়	-6034
▁নিজস্ব	-6035
▁পর্বের	-6036
▁বসানোর	-6037
▁মার্টি	-6038
▁কুকুরটি	-6039
▁টুকরোতে	-6040
▁দৌড়বিদ	-6041
▁simplify	-6042
▁আচ্ছাদিত	-6043
▁ওজনযুক্ত	-6044
▁গোষ্ঠীতে	-6045
▁জোয়ানের	-6046
▁ড্রয়ারে	-6047
▁তিনগুণের	-6048
▁পঞ্চমাংশ	-6049
▁পার্টিতে	-6050
▁triangles	-6051
▁ডেসিমিটার	-6052
▁পৃষ্ঠতলের	-6053
▁প্রত্যেককে	-6054
▁ক্যালসিয়াম	-6055
▁ক্রমানুসারে	-6056
▁অতিরিক্তভাবে	-6057
AD	-6058
oti	-6059
সাম	-6060
▁+=	-6061
▁নন	-6062
জিতে	-6063
ধানে	-6064
রাশি	-6065
▁\))	-6066
▁এলা	-6067
▁জেফ	-6068
বাহিক	-6069
▁exam	-6070
▁list	-6071
▁tang	-6072
▁পদটি	-6073
▁পুরা	-6074
▁প্রয	-6075
▁বারো	-6076
▁মুদি	-6077
▁মোটর	-6078
▁রহিম	-6079
▁সাইন	-6080
▁cases	-6081
▁অক্টো	-6082
▁অক্সি	-6083
▁চিকেন	-6084
▁জোহান	-6085
▁ফেলতে	-6086
▁বিলির	-6087
▁রেখেছে	-6088
▁সংজ্ঞা	-6089
▁হারায়	-6090
▁হ্যারি	-6091
ondition	-6092
▁জিনিসের	-6093
▁পোস্টার	-6094
▁প্রশ্নে	-6095
▁বাইনারি	-6096
▁বিপরীতে	-6097
▁ডেলিভারি	-6098
▁প্রান্তে	-6099
▁যোগদানের	-6100
▁statement	-6101
▁ধারাবাহিক	-6102
▁Substitute	-6103
▁translates	-6104
▁অ্যান্ড্রুর	-6105
▁পূর্ণসংখ্যাটি	-6106
"।	-6107
ie	-6108
চল	-6109
বই	-6110
শী	-6111
▁An	-6112
▁Po	-6113
▁আগ	-6114
fici	-6115
বিভা	-6116
▁কলি	-6117
▁ডেক	-6118
▁ফরা	-6119
▁ফিট	-6120
▁সাঁ	-6121
মেয়ে	-6122
লিনের	-6123
▁Area	-6124
▁Dist	-6125
▁Find	-6126
▁base	-6127
▁clos	-6128
▁most	-6129
▁poss	-6130
▁অগ্ন	-6131
▁আলুর	-6132
▁ড্যা	-6133
▁ব্রা	-6134
▁রাজি	-6135
▁শলগম	-6136
▁স্বর	-6137
সাধারণ	-6138
▁found	-6139
▁words	-6140
▁ওয়াই	-6141
▁ধাপের	-6142
▁ফাংশন	-6143
▁শুকনো	-6144
▁হাতের	-6145
ilities	-6146
লিভিয়া	-6147
▁August	-6148
▁Define	-6149
▁উইন্ডো	-6150
▁উদ্ভিদ	-6151
▁দৌড়ের	-6152
▁ধ্রুবক	-6153
▁পপসিকল	-6154
▁বাজারে	-6155
▁মুনাফা	-6156
▁রেসিপি	-6157
▁divides	-6158
▁চিত্রটি	-6159
▁প্রতিফল	-6160
▁মার্কার	-6161
▁অনুপাতটি	-6162
▁দোকানদার	-6163
▁পাউন্ডের	-6164
▁প্রদর্শন	-6165
▁ব্যবসায়	-6166
▁দেওয়ালের	-6167
▁ম্যানেজার	-6168
▁\_\_\_\_\_	-6169
▁ধারণক্ষমতা	-6170
▁পরিবর্তনের	-6171
▁বিকল্পগুলির	-6172
ba	-6173
ee	-6174
ইউ	-6175
Sol	-6176
ককে	-6177
ডোর	-6178
্সে	-6179
▁St	-6180
▁গল	-6181
agon	-6182
ated	-6183
}\\]	-6184
পক্ষ	-6185
ভাষী	-6186
িয়র	-6187
▁see	-6188
▁way	-6189
▁কেট	-6190
▁গরি	-6191
▁বেথ	-6192
ছানার	-6193
্বলিত	-6194
▁look	-6195
▁গুলো	-6196
▁পারো	-6197
▁মডেল	-6198
▁রেবে	-6199
লিকায়	-6200
লিয়াম	-6201
▁based	-6202
▁group	-6203
▁দুর্গ	-6204
▁সরাতে	-6205
▁cannot	-6206
▁এমিলির	-6207
▁পুরাতন	-6208
▁বাস্তব	-6209
▁সেন্টে	-6210
▁January	-6211
▁তাদেরকে	-6212
▁তোয়ালে	-6213
▁সোমবারে	-6214
▁হারানোর	-6215
▁আঙ্গুরের	-6216
▁উত্তীর্ণ	-6217
▁পরস্পরের	-6218
▁চালিয়েছে	-6219
▁simplifies	-6220
▁সংখ্যাগুলিকে	-6221
▁স্যান্ডউইচের	-6222
▁শীর্ষবিন্দুতে	-6223
▁অংশগ্রহণকারীদের	-6224
bf	-6225
ডো	-6226
পন	-6227
ain	-6228
রার	-6229
▁$|	-6230
▁অম	-6231
▁রত	-6232
----	-6233
ceil	-6234
ided	-6235
নিকা	-6236
ফর্ম	-6237
যেমন	-6238
লিতে	-6239
▁**(	-6240
▁cre	-6241
▁চাপ	-6242
▁জাপ	-6243
▁ধীর	-6244
▁পুড	-6245
▁স্ম	-6246
cases	-6247
▁once	-6248
▁sele	-6249
▁আরোহ	-6250
▁ইটের	-6251
▁উড়ে	-6252
▁করলো	-6253
▁পারা	-6254
icular	-6255
▁adjac	-6256
▁assum	-6257
▁jerse	-6258
▁এয়ার	-6259
▁খেলবে	-6260
▁জাদুক	-6261
▁জাদুঘ	-6262
▁নৃত্য	-6263
▁পিন্ট	-6264
▁মারুফ	-6265
▁খেলাধু	-6266
▁ড্রাইভ	-6267
▁পদগুলি	-6268
▁পাতায়	-6269
▁ভবিষ্য	-6270
▁মিলায়	-6271
▁শেয়ার	-6272
equation	-6273
▁circles	-6274
▁players	-6275
▁প্রতিজন	-6276
▁বাল্বের	-6277
▁যাচ্ছেন	-6278
▁subtract	-6279
▁আলমারিতে	-6280
pendicular	-6281
▁geometric	-6282
▁intersect	-6283
▁কেনাকাটার	-6284
▁দৈর্ঘ্যকে	-6285
▁ব্যবহারের	-6286
Calculating	-6287
▁নির্ধারণের	-6288
▁প্রত্যেকটির	-6289
((	-6290
to	-6291
চক	-6292
\))	-6293
fty	-6294
গুন	-6295
ঠার	-6296
ুনে	-6297
▁ঘু	-6298
indr	-6299
mber	-6300
ঞ্জন	-6301
োজেন	-6302
▁জেক	-6303
▁তের	-6304
▁থলে	-6305
▁রকম	-6306
infty	-6307
উত্তর	-6308
গ্রাম	-6309
দিকের	-6310
▁কভার	-6311
▁কাঠি	-6312
▁জয়ী	-6313
▁জুটি	-6314
▁ফিতে	-6315
alindr	-6316
esults	-6317
points	-6318
স্টারে	-6319
▁teams	-6320
▁কেনেন	-6321
▁ঘাসের	-6322
▁দত্তক	-6323
▁প্রাচ	-6324
▁ফুটের	-6325
▁মাটির	-6326
▁সাপের	-6327
▁ছেলেকে	-6328
▁প্রকৃত	-6329
▁বানরের	-6330
▁ব্যাংক	-6331
▁মোবাইল	-6332
▁লাইনআপ	-6333
▁স্বয়ং	-6334
▁Process	-6335
▁polygon	-6336
▁চার্লির	-6337
▁জন্মদিন	-6338
▁দোকানটি	-6339
▁ফলাফলটি	-6340
▁সম্বলিত	-6341
formation	-6342
▁উপস্থাপন	-6343
▁দায়িত্ব	-6344
▁ধারণকারী	-6345
▁বাকিগুলি	-6346
▁অধ্যায়ের	-6347
▁শিবিরার্থ	-6348
▁নম্বরযুক্ত	-6349
▁পার্শ্ববর্তী	-6350
%)	-6351
নু	-6352
ile	-6353
res	-6354
the	-6355
গড়	-6356
দিক	-6357
▁বদ	-6358
▁রং	-6359
augh	-6360
from	-6361
জেশন	-6362
ড়াই	-6363
ত্তি	-6364
য়র্	-6365
সারণ	-6366
▁seg	-6367
▁জেড	-6368
▁ভের	-6369
anges	-6370
ccord	-6371
নিহিত	-6372
পুস্ত	-6373
রোক্ত	-6374
▁চতুষ	-6375
▁দেশে	-6376
▁নাইট	-6377
▁পথের	-6378
▁লন্ড	-6379
logram	-6380
▁কতগুণ	-6381
▁কন্যা	-6382
▁বুশেল	-6383
▁permut	-6384
▁respec	-6385
▁কক্ষের	-6386
▁তৈরিতে	-6387
▁বাকিরা	-6388
▁বানানো	-6389
▁শর্তের	-6390
▁সম্মেল	-6391
▁স্ল্যা	-6392
ccording	-6393
সম্ভাব্য	-6394
▁উপরোক্ত	-6395
▁ভুলভাবে	-6396
▁মিটারের	-6397
▁মেলানোর	-6398
▁রবিবারে	-6399
▁লিঙ্গের	-6400
▁ল্যাপের	-6401
▁সর্বমোট	-6402
▁সিস্টেম	-6403
▁স্ন্যাক	-6404
▁previous	-6405
▁অক্সিজেন	-6406
▁আলেক্সের	-6407
▁কেন্দ্রে	-6408
▁তালিকায়	-6409
▁ক্লাসরুমে	-6410
▁ব্যক্তিগত	-6411
▁আইসক্রিমের	-6412
▁ক্ষতিগ্রস্ত	-6413
▁প্রক্রিয়াটি	-6414
▁স্বয়ংক্রিয়	-6415
)\	-6416
গেট	-6417
বান	-6418
বাম	-6419
▁Ra	-6420
অ্যা	-6421
খায়	-6422
হস্য	-6423
্রোম	-6424
▁rot	-6425
▁কিশ	-6426
▁টেপ	-6427
▁পিট	-6428
▁শিখ	-6429
ounds	-6430
স্টের	-6431
াইডের	-6432
▁hour	-6433
▁work	-6434
▁আঘাত	-6435
▁এক্স	-6436
▁কক্ষ	-6437
▁চড়ে	-6438
▁পাজল	-6439
▁বীমা	-6440
▁রত্ন	-6441
▁লিসা	-6442
egrees	-6443
ওয়ালা	-6444
ম্যালো	-6445
▁উপসেট	-6446
▁কোনটি	-6447
▁জেরির	-6448
▁পক্ষে	-6449
▁পুত্র	-6450
▁ফরাসি	-6451
▁বাজার	-6452
▁বিমান	-6453
▁ম্যাট	-6454
▁যৌগের	-6455
▁রাচেল	-6456
▁লসাগু	-6457
▁সকলেই	-6458
▁সাহিত	-6459
mainder	-6460
▁single	-6461
▁আমেরিক	-6462
▁পনেরটি	-6463
▁বাজায়	-6464
▁ময়দার	-6465
▁মাইকেল	-6466
▁যতগুলি	-6467
▁রসিকতা	-6468
▁লাগাতে	-6469
▁appears	-6470
▁correct	-6471
▁scenari	-6472
▁similar	-6473
▁চিকিৎসা	-6474
▁ব্যবধির	-6475
▁ভুট্টার	-6476
ationship	-6477
▁উপসংহারে	-6478
▁ক্রিস্টো	-6479
▁ন্যাপকিন	-6480
▁হাইড্রোক	-6481
▁অষ্টভুজের	-6482
▁ম্যাগাজিন	-6483
▁ছায়াযুক্ত	-6484
▁পাঠ্যপুস্ত	-6485
▁perpendicular	-6486
bul	-6487
umn	-6488
ved	-6489
দূর	-6490
ফিল	-6491
ফোন	-6492
ীরে	-6493
▁tr	-6494
▁বহ	-6495
▁রন	-6496
)\).	-6497
কর্ত	-6498
মাকে	-6499
সারি	-6500
াক্ষ	-6501
▁প্ল	-6502
▁বাঁ	-6503
▁বাব	-6504
alary	-6505
alyze	-6506
erior	-6507
omial	-6508
ready	-6509
চ্ছিল	-6510
প্যাক	-6511
য়ামে	-6512
▁আশ্র	-6513
▁জেনা	-6514
▁টানা	-6515
▁ডাবা	-6516
▁নষ্ট	-6517
▁পলের	-6518
▁প্রজ	-6519
▁ভাঙা	-6520
▁রাইড	-6521
▁শর্ট	-6522
▁হাইক	-6523
চতুর্থ	-6524
সোমবার	-6525
▁অংকের	-6526
▁অফিসে	-6527
▁উল্টো	-6528
▁গ্রিড	-6529
▁ঘটনার	-6530
▁জিরাফ	-6531
▁টোকেন	-6532
▁দৌড়া	-6533
▁নৌকার	-6534
▁ফিতার	-6535
▁বসাতে	-6536
▁বাজেট	-6537
▁বোনকে	-6538
▁লাঠির	-6539
▁লেমনে	-6540
▁before	-6541
▁কৃষকের	-6542
▁জানালা	-6543
▁মেলানি	-6544
▁contain	-6545
▁results	-6546
▁গ্লাসের	-6547
▁ব্যাচের	-6548
▁ম্যাক্স	-6549
▁স্টার্ট	-6550
▁elements	-6551
▁টুকরোটির	-6552
▁মাধ্যমিক	-6553
▁আলাদাভাবে	-6554
▁দিনগুলিতে	-6555
▁সেকেন্ডের	-6556
▁মধ্যবিন্দু	-6557
▁স্থানান্তরিত	-6558
$;	-6559
দৈ	-6560
ফর	-6561
হল	-6562
আরও	-6563
একক	-6564
রাপ	-6565
হাই	-6566
▁আত	-6567
▁নদ	-6568
ards	-6569
ting	-6570
লিখন	-6571
ামাঝ	-6572
িতের	-6573
▁পজি	-6574
▁পটি	-6575
জিনের	-6576
ঞ্চের	-6577
বাহের	-6578
▁এটির	-6579
▁গেছি	-6580
▁তোতা	-6581
▁দলকে	-6582
▁বসাই	-6583
▁বাতা	-6584
▁বিশা	-6585
▁লকার	-6586
▁হরিণ	-6587
change	-6588
্যারির	-6589
▁দেখবো	-6590
▁সান্দ	-6591
itional	-6592
ওয়ার্ড	-6593
চ্ছিন্ন	-6594
ষ্কারের	-6595
▁always	-6596
▁colors	-6597
▁ঘুমায়	-6598
▁চুক্তি	-6599
▁সবকিছু	-6600
▁classes	-6601
▁degrees	-6602
▁উৎপাদিত	-6603
▁জার্মান	-6604
▁ট্র্যাপ	-6605
▁পাউন্ডে	-6606
▁মাঝামাঝ	-6607
▁সহমৌলিক	-6608
ifference	-6609
▁maximize	-6610
▁original	-6611
▁এসেছিলেন	-6612
▁পেইন্টিং	-6613
▁প্রভাবিত	-6614
▁শিক্ষককে	-6615
▁exponents	-6616
▁গ্রাহকদের	-6617
▁ত্রিভুজটি	-6618
▁নির্বাচনে	-6619
▁পুনর্লিখন	-6620
▁পরিস্থিতির	-6621
▁respectively	-6622
▁ছাত্রছাত্রীর	-6623
!)	-6624
ছো	-6625
আউট	-6626
ডিট	-6627
ভেন	-6628
যদি	-6629
ুটা	-6630
▁di	-6631
▁উত	-6632
▁চর	-6633
▁ভব	-6634
▁যো	-6635
inci	-6636
ming	-6637
য়নক	-6638
▁ask	-6639
▁গবে	-6640
▁ফিল	-6641
▁সেল	-6642
য়াকে	-6643
▁oper	-6644
▁zero	-6645
▁অপরি	-6646
▁অফিস	-6647
▁এটিও	-6648
▁পরিণ	-6649
▁ভুলে	-6650
▁রাফি	-6651
▁শূকর	-6652
▁স্লট	-6653
bullet	-6654
plying	-6655
urrent	-6656
ান্ডার	-6657
▁cells	-6658
▁takes	-6659
▁আবেদন	-6660
▁উইকেট	-6661
▁বাতির	-6662
▁ভিক্ট	-6663
▁মাইলে	-6664
▁মাঠের	-6665
▁মার্শ	-6666
▁লেনদে	-6667
▁স্টাফ	-6668
ব্যক্তি	-6669
সবচেয়ে	-6670
সিডেন্ট	-6671
▁region	-6672
▁অনুমতি	-6673
▁টিস্যু	-6674
▁দেয়াল	-6675
▁বিদ্যু	-6676
▁রাজস্ব	-6677
▁লাইনের	-6678
▁স্প্যা	-6679
Counting	-6680
▁include	-6681
▁কুকিজের	-6682
▁টাওয়ার	-6683
▁পত্রিকা	-6684
ibilities	-6685
▁অনুষ্ঠিত	-6686
▁জ্বালানি	-6687
▁দূরত্বকে	-6688
▁পরিচালনা	-6689
▁পানীয়ের	-6690
▁প্রসারিত	-6691
▁রাস্তায়	-6692
▁সমন্বয়ে	-6693
▁সম্পত্তি	-6694
▁সোডিয়াম	-6695
▁সোয়েটার	-6696
▁describes	-6697
▁ডিসকাউন্ট	-6698
▁বিচ্ছিন্ন	-6699
▁রেখেছিলেন	-6700
▁ল্যাম্পের	-6701
▁সমস্যাটির	-6702
▁increasing	-6703
▁অ্যালেক্সের	-6704
▁পদার্থবিদ্যা	-6705
▁parallelogram	-6706
Cl	-6707
গর	-6708
স্	-6709
ুধ	-6710
$).	-6711
ape	-6712
ডির	-6713
পাই	-6714
সূচ	-6715
▁MP	-6716
▁মূ	-6717
▁লগ	-6718
beta	-6719
idth	-6720
ifth	-6721
মেলো	-6722
য়াস	-6723
▁bin	-6724
▁rec	-6725
▁কাল	-6726
▁পিস	-6727
ented	-6728
বিড়া	-6729
শিল্প	-6730
শ্চিম	-6731
▁cube	-6732
▁গুণক	-6733
▁টাইম	-6734
▁নামে	-6735
▁ফেলি	-6736
ভিয়ার	-6737
▁Satur	-6738
▁floor	-6739
▁আড়ুর	-6740
▁কাচের	-6741
▁জুনের	-6742
▁পনেরো	-6743
▁শয়নক	-6744
▁শেষের	-6745
▁সাজাই	-6746
▁সৈকতে	-6747
বিদ্যাল	-6748
▁কুমড়া	-6749
▁ক্রেতা	-6750
▁গরিষ্ঠ	-6751
▁ছুটিতে	-6752
▁পণ্যের	-6753
▁যেগুলো	-6754
▁without	-6755
▁অনুক্রম	-6756
▁আলবার্ট	-6757
▁নামিয়ে	-6758
▁লিটারের	-6759
▁শনিবারে	-6760
▁স্টিভের	-6761
বিজ্ঞানের	-6762
▁required	-6763
▁কোরিয়ান	-6764
▁মাঝামাঝি	-6765
▁সময়কালে	-6766
▁সারিবদ্ধ	-6767
▁প্যালিন্ড	-6768
▁প্রতিক্রিয়া	-6769
of	-6770
sh	-6771
দৃ	-6772
মর	-6773
ash	-6774
ols	-6775
গোর	-6776
ারু	-6777
....	-6778
omin	-6779
osen	-6780
pond	-6781
}\),	-6782
অঙ্ক	-6783
ন্তে	-6784
▁Day	-6785
▁str	-6786
▁অলি	-6787
▁কাচ	-6788
▁কুল	-6789
▁মনো	-6790
▁শিফ	-6791
▁সংয	-6792
▁সভা	-6793
▁Tues	-6794
▁prov	-6795
▁what	-6796
▁অজ্ঞ	-6797
▁ইচ্ছ	-6798
▁খুলে	-6799
▁জমির	-6800
▁তামি	-6801
▁পকেট	-6802
▁ব্রি	-6803
▁রোপন	-6804
▁সামা	-6805
▁স্মি	-6806
gether	-6807
য়ালের	-6808
▁being	-6809
▁কালাম	-6810
▁ঘনত্ব	-6811
▁জিসান	-6812
▁পঞ্চা	-6813
▁বসন্ত	-6814
▁মিয়া	-6815
▁মুখটি	-6816
▁যোগ্য	-6817
▁লিলির	-6818
centage	-6819
inciple	-6820
respond	-6821
▁assume	-6822
▁chosen	-6823
▁পাঠায়	-6824
▁পিতামা	-6825
▁পেইন্ট	-6826
▁বইটিতে	-6827
▁লাফালা	-6828
▁সম্পাদ	-6829
▁lengths	-6830
▁পূর্বের	-6831
▁মিশ্রণে	-6832
▁স্কুপের	-6833
▁dividing	-6834
▁multiply	-6835
▁পদক্ষেপে	-6836
▁বাকিগুলো	-6837
▁মাইকেলের	-6838
▁নিম্নরূপে	-6839
▁ব্রোকারেজ	-6840
▁ভগ্নাংশের	-6841
▁সমন্বয়ের	-6842
▁প্যাটার্নটি	-6843
▁স্ট্যাম্পের	-6844
aul	-6845
loc	-6846
জিট	-6847
ধরে	-6848
নিজ	-6849
পদী	-6850
পুট	-6851
মলা	-6852
লিম	-6853
ষুধ	-6854
িজি	-6855
োটে	-6856
▁টস	-6857
▁হু	-6858
alls	-6859
গামী	-6860
তাকে	-6861
সেলে	-6862
▁now	-6863
▁জলা	-6864
▁হকি	-6865
▁হিপ	-6866
pairs	-6867
কাহিন	-6868
কোণের	-6869
সেটের	-6870
▁five	-6871
▁half	-6872
▁ওষুধ	-6873
▁ড্রি	-6874
▁তলার	-6875
▁বহিঃ	-6876
▁মিলন	-6877
▁মেনে	-6878
▁মেলি	-6879
▁যেটি	-6880
▁সেলে	-6881
effici	-6882
▁অঙ্কন	-6883
▁ট্যাক	-6884
▁দুজনে	-6885
▁পুলিশ	-6886
▁বইটির	-6887
▁ভাগ্য	-6888
গাণিতিক	-6889
▁comple	-6890
▁কাঁটার	-6891
▁জেসনের	-6892
▁ডাকটিক	-6893
▁বিছানা	-6894
▁বেড়ার	-6895
▁মৌমাছি	-6896
▁যতগুলো	-6897
▁সীমানা	-6898
▁হান্না	-6899
▁হেনরির	-6900
▁অ্যাকশন	-6901
▁কচ্ছপের	-6902
▁জুনিয়র	-6903
▁দিনগুলি	-6904
▁লেগেছিল	-6905
▁together	-6906
▁অ্যাঞ্জে	-6907
▁উইলিয়াম	-6908
▁ধরেছিলেন	-6909
▁সমীকরণকে	-6910
▁Wednesdays	-6911
▁possibilities	-6912
▁প্যালিন্ড্রোম	-6913
:}	-6914
ঁজ	-6915
োড	-6916
্ঞ	-6917
omb	-6918
til	-6919
এটি	-6920
ষণা	-6921
▁ধন	-6922
ined	-6923
ling	-6924
peed	-6925
ভয়ে	-6926
েরিস	-6927
্রির	-6928
▁উৎস	-6929
▁জলে	-6930
▁জ্ঞ	-6931
▁নিঃ	-6932
▁মৃত	-6933
▁লেক	-6934
\):**	-6935
idual	-6936
small	-6937
undre	-6938
ভেনের	-6939
স্থলে	-6940
▁mean	-6941
▁অবৈধ	-6942
▁উদ্ধ	-6943
▁কাটি	-6944
▁চয়ন	-6945
▁চুরি	-6946
▁ছিলো	-6947
▁জনাব	-6948
▁জরিপ	-6949
▁জারি	-6950
▁দশজন	-6951
▁নিলে	-6952
▁ফ্যা	-6953
▁বামন	-6954
▁সেরা	-6955
কাহিনী	-6956
ছাত্রী	-6957
রুদ্ধে	-6958
্যাকের	-6959
▁black	-6960
▁reach	-6961
▁অজানা	-6962
▁গ্যাস	-6963
▁ছিদ্র	-6964
▁ডেস্ক	-6965
▁নামের	-6966
▁পরিণত	-6967
▁রহস্য	-6968
▁হেঁটে	-6969
দৈর্ঘ্য	-6970
িয়েলের	-6971
▁minute	-6972
▁ক্যালে	-6973
▁জাপানি	-6974
▁দ্বাদশ	-6975
▁পয়সার	-6976
▁প্রতীক	-6977
▁মিলানো	-6978
▁রহিমের	-6979
▁কমিটিতে	-6980
▁কয়েনের	-6981
▁ড্যানের	-6982
▁নভেম্বর	-6983
▁বাকিদের	-6984
্যান্ডেলি	-6985
▁অবস্থায়	-6986
▁উল্লেখিত	-6987
▁দৌড়েছিল	-6988
▁বিরুদ্ধে	-6989
কোয়ারিয়া	-6990
▁স্যান্ডির	-6991
▁correspond	-6992
▁properties	-6993
▁বিশ্ববিদ্যাল	-6994
▁অ্যাকোয়ারিয়া	-6995
ps	-6996
}_	-6997
oid	-6998
ৃতা	-6999
▁pi	-7000
▁কৌ	-7001
▁লন	-7002
ঘর্ষ	-7003
দণ্ড	-7004
পাখি	-7005
বেশে	-7006
রেখা	-7007
লিপি	-7008
ল্যা	-7009
সমিন	-7010
ান্স	-7011
▁Cho	-7012
▁জসি	-7013
▁বনে	-7014
▁বুক	-7015
▁ভার	-7016
▁রাঙ	-7017
বন্ধু	-7018
হানের	-7019
▁অধিক	-7020
▁কর্ত	-7021
▁কলেজ	-7022
▁দানা	-7023
▁ধর্ম	-7024
▁বিনে	-7025
▁বেনি	-7026
▁ব্রু	-7027
▁রম্ব	-7028
▁সেবা	-7029
▁হাঁট	-7030
প্রাইম	-7031
মিয়াল	-7032
্যাপ্ত	-7033
▁needs	-7034
▁কতদিন	-7035
▁ট্রাউ	-7036
▁তেলের	-7037
▁পোর্ট	-7038
▁মিনার	-7039
▁স্টার	-7040
প্রাপ্ত	-7041
▁contin	-7042
▁ইরেজার	-7043
▁এড়াতে	-7044
▁খণ্ডের	-7045
▁টার্কি	-7046
▁ব্যস্ত	-7047
▁মার্থা	-7048
▁already	-7049
▁letters	-7050
▁অভিভাবক	-7051
▁কারখানা	-7052
▁তুলেছেন	-7053
▁দৌড়ানো	-7054
▁বক্তৃতা	-7055
▁লাগানোর	-7056
▁additional	-7057
▁ড্যান্ডেলি	-7058
▁ব্রায়ানের	-7059
▁represented	-7060
▁কর্মচারীদের	-7061
▁মার্শম্যালো	-7062
▁relationship	-7063
▁সম্পূর্ণভাবে	-7064
',	-7065
,\	-7066
জং	-7067
ণা	-7068
েপ	-7069
▁!	-7070
ils	-7071
জিং	-7072
তোম	-7073
ফিক	-7074
সেল	-7075
▁Al	-7076
▁Pl	-7077
▁id	-7078
abcd	-7079
}.\]	-7080
ক্ষক	-7081
জাবে	-7082
পুরি	-7083
বাসে	-7084
বাহন	-7085
য়েন	-7086
িন্দ	-7087
▁Equ	-7088
▁sem	-7089
▁নেক	-7090
▁লবণ	-7091
round	-7092
ystem	-7093
য়স্থ	-7094
িজয়ে	-7095
▁\(\{	-7096
▁\]\\	-7097
▁coun	-7098
▁give	-7099
▁make	-7100
▁কবির	-7101
▁কাপে	-7102
▁জশের	-7103
▁পাইন	-7104
▁লেখে	-7105
▁লেগো	-7106
▁শস্য	-7107
▁হ্রদ	-7108
eneral	-7109
▁খামের	-7110
▁ঘনকটি	-7111
▁জাহাজ	-7112
▁তরবার	-7113
▁পুরনো	-7114
▁বান্ড	-7115
▁বিশটি	-7116
▁বোতলে	-7117
▁মাহির	-7118
▁রানার	-7119
▁রিয়া	-7120
▁রেসিপ	-7121
▁সঙ্গে	-7122
▁হাতির	-7123
▁হার্ড	-7124
numbers	-7125
▁giving	-7126
▁marble	-7127
▁কার্ডে	-7128
▁গর্তের	-7129
▁ট্রেতে	-7130
▁দৃষ্টি	-7131
▁বাজানো	-7132
▁ভাষায়	-7133
▁সহকারী	-7134
▁সাঁতার	-7135
নোমিয়াল	-7136
▁becomes	-7137
▁palindr	-7138
▁planted	-7139
▁পরিকল্প	-7140
▁ফ্ল্যাট	-7141
▁ব্রেন্ড	-7142
▁যোগফলটি	-7143
▁লাইনআপে	-7144
▁সামান্ত	-7145
ক্ষেত্রফল	-7146
▁কোণগুলির	-7147
▁খেয়েছেন	-7148
▁জ্যামিতি	-7149
▁পুরোপুরি	-7150
▁ব্যাখ্যা	-7151
▁সাইকেলের	-7152
▁আশ্রয়স্থ	-7153
▁বিশ্রামের	-7154
▁সমস্যাটিতে	-7155
▁সম্পূর্ণরূপে	-7156
SI	-7157
bc	-7158
ale	-7159
ডেট	-7160
তলা	-7161
ভিক	-7162
সকে	-7163
▁$-	-7164
▁-\	-7165
▁Fe	-7166
▁ru	-7167
▁sl	-7168
▁ছো	-7169
▁ডক	-7170
ক্লি	-7171
বাচক	-7172
য়েল	-7173
সঠিক	-7174
ান্ট	-7175
োপটা	-7176
্রেড	-7177
▁ins	-7178
▁কাউ	-7179
▁গ্ল	-7180
▁তরল	-7181
▁দেশ	-7182
▁মহা	-7183
▁মিশ	-7184
▁রাত	-7185
hours	-7186
করণের	-7187
কেননা	-7188
ড়ানো	-7189
বস্তু	-7190
মঙ্গল	-7191
রাসের	-7192
সিয়া	-7193
্যারা	-7194
▁tens	-7195
▁ইঞ্জ	-7196
▁কঠিন	-7197
▁ছাপা	-7198
▁টিনা	-7199
▁নাটা	-7200
▁রাকি	-7201
▁লাবি	-7202
▁সসেজ	-7203
▁স্কি	-7204
িনায়ক	-7205
▁ওয়াট	-7206
▁করেনি	-7207
▁ডিজিট	-7208
▁ডেইজি	-7209
▁থিয়ে	-7210
▁দেখেন	-7211
▁নিবন্	-7212
▁পরিষে	-7213
▁পর্যা	-7214
▁ফেরিস	-7215
▁বাধ্য	-7216
▁সম্মত	-7217
undreds	-7218
▁needed	-7219
▁দ্বীপে	-7220
▁প্রিয়	-7221
▁বস্তুর	-7222
▁সম্ভবত	-7223
▁Mondays	-7224
▁jerseys	-7225
▁উপস্থাপ	-7226
▁গ্রীষ্ম	-7227
▁শতাংশের	-7228
▁সম্প্রদ	-7229
▁স্যালির	-7230
▁brothers	-7231
▁অ্যালার্	-7232
▁আয়তাকার	-7233
▁প্রতিষ্ঠ	-7234
▁প্রবেশের	-7235
▁যাত্রায়	-7236
▁সন্নিহিত	-7237
▁According	-7238
▁আকর্ষণীয়	-7239
▁সন্তানদের	-7240
▁বিজ্ঞাপনের	-7241
▁সংখ্যাগুলোকে	-7242
CP	-7243
Ex	-7244
লস	-7245
উইং	-7246
জনা	-7247
লিট	-7248
হোক	-7249
▁xy	-7250
▁ডগ	-7251
▁নগ	-7252
▁মণ	-7253
▁শৈ	-7254
irls	-7255
থায়	-7256
▁fit	-7257
▁আদি	-7258
▁আসি	-7259
▁গরম	-7260
▁টুই	-7261
▁পরম	-7262
▁মেক	-7263
▁যথা	-7264
▁রিং	-7265
▁লুব	-7266
▁হাম	-7267
▁হের	-7268
Divis	-7269
গারিদ	-7270
নিষ্ঠ	-7271
ব্রাশ	-7272
মার্ক	-7273
▁boys	-7274
▁iter	-7275
▁room	-7276
▁ইউনি	-7277
▁ইম্প	-7278
▁কেউই	-7279
▁খামে	-7280
▁গুনে	-7281
▁জগিং	-7282
▁বহুপ	-7283
▁রিলে	-7284
▁রূপে	-7285
▁শ্রী	-7286
স্ত্রি	-7287
্লিষ্ট	-7288
▁অপাকা	-7289
▁চিউইং	-7290
▁ডিগ্র	-7291
▁পকেটে	-7292
▁ফাঁকা	-7293
▁ফিগার	-7294
▁বরফের	-7295
▁বিশাল	-7296
▁রুবেল	-7297
▁Values	-7298
▁altern	-7299
▁pounds	-7300
▁অঞ্চলে	-7301
▁কলামের	-7302
▁কিছুটা	-7303
▁ক্ষতির	-7304
▁দিচ্ছে	-7305
▁প্রজাপ	-7306
▁যাইহোক	-7307
▁সবগুলি	-7308
▁সহপাঠী	-7309
▁সেপ্টে	-7310
▁স্টোরে	-7311
▁matches	-7312
▁উল্টানো	-7313
▁পড়েছিল	-7314
▁পাত্রের	-7315
▁বিবেচিত	-7316
▁মার্কিন	-7317
▁ম্যাটের	-7318
▁সার্ভিং	-7319
▁confirms	-7320
▁scenario	-7321
▁কর্মকর্ত	-7322
▁খাওয়াতে	-7323
▁জর্ডানের	-7324
▁বুধবারের	-7325
▁সময়সূচী	-7326
▁উভয়পাশকে	-7327
▁সন্ধ্যায়	-7328
▁substitute	-7329
▁স্বাধীনভাবে	-7330
)?	-7331
\$	-7332
ix	-7333
ণী	-7334
aph	-7335
dle	-7336
for	-7337
gru	-7338
কাপ	-7339
মিত	-7340
▁->	-7341
▁Ap	-7342
▁cr	-7343
▁অফ	-7344
▁গন	-7345
igma	-7346
item	-7347
ইনের	-7348
ট্রি	-7349
থাগো	-7350
মার্	-7351
সবুজ	-7352
▁জিত	-7353
▁টোক	-7354
▁ডেল	-7355
▁নাই	-7356
▁মিউ	-7357
▁সংশ	-7358
আউন্স	-7359
জোড়া	-7360
ফিনের	-7361
য়ায়	-7362
স্কার	-7363
হেড্র	-7364
▁subs	-7365
▁অগ্র	-7366
▁অভিয	-7367
▁ইলেক	-7368
▁কোণে	-7369
▁টিউব	-7370
▁ডিসে	-7371
▁ধুতে	-7372
▁পরাম	-7373
▁পাইক	-7374
▁পেলে	-7375
▁মুভি	-7376
▁লঞ্চ	-7377
▁শক্ত	-7378
▁শেখে	-7379
bruary	-7380
▁Digit	-7381
▁daugh	-7382
▁আপডেট	-7383
▁কলামে	-7384
▁জামান	-7385
▁টুপির	-7386
▁ধুয়ে	-7387
▁নুড়ি	-7388
▁রেখার	-7389
▁player	-7390
▁অফিসার	-7391
▁আউন্সে	-7392
▁আলিসার	-7393
▁একপাশে	-7394
▁চরিত্র	-7395
▁ঠান্ডা	-7396
▁মেরামত	-7397
▁শঙ্কুর	-7398
▁শিশুকে	-7399
প্রয়োজন	-7400
▁Similar	-7401
▁passeng	-7402
▁অসমতাটি	-7403
▁র্যান্ড	-7404
▁সিন্ডির	-7405
▁হান্নার	-7406
▁ভাষাভাষী	-7407
▁অঙ্কগুলোর	-7408
▁প্যাকেজের	-7409
▁স্ল্যাবের	-7410
▁considering	-7411
▁বাইনোমিয়াল	-7412
▁প্রয়োজনীয়তা	-7413
()	-7414
In	-7415
ুঁ	-7416
ৃদ	-7417
োধ	-7418
্ফ	-7419
)**	-7420
ipp	-7421
odd	-7422
old	-7423
ঁচি	-7424
জীব	-7425
বুধ	-7426
ভির	-7427
▁ln	-7428
bser	-7429
ক্যা	-7430
ক্ষি	-7431
টারি	-7432
সাদা	-7433
িয়ন	-7434
ীব্র	-7435
▁করত	-7436
▁নগদ	-7437
▁ফসল	-7438
▁মিং	-7439
▁সিক	-7440
▁হিট	-7441
izing	-7442
multi	-7443
ত্ত্ব	-7444
বেরির	-7445
সঙ্গত	-7446
▁pens	-7447
▁test	-7448
▁unit	-7449
▁আবির	-7450
▁কিলো	-7451
▁ক্লে	-7452
▁চাচা	-7453
▁জাহি	-7454
▁জেসন	-7455
▁ডানে	-7456
▁পোকে	-7457
▁ভরতে	-7458
▁ভরাট	-7459
▁রুমি	-7460
▁সিওক	-7461
inders	-7462
ঙ্গুইন	-7463
তিবাচক	-7464
পাউন্ড	-7465
বর্জনা	-7466
সমস্যা	-7467
িয়ায়	-7468
▁Start	-7469
▁while	-7470
▁উইজেট	-7471
▁উভয়ে	-7472
▁কাটেন	-7473
▁কারনে	-7474
▁ঘনককে	-7475
▁জানার	-7476
▁ডিস্ক	-7477
▁দুটোই	-7478
▁বালির	-7479
▁ভলিবল	-7480
▁মধ্যম	-7481
▁রেডিও	-7482
▁সীমার	-7483
▁Combin	-7484
▁Friday	-7485
▁Monday	-7486
▁system	-7487
▁অজ্ঞাত	-7488
▁একজনের	-7489
▁কার্লা	-7490
▁ছাড়াও	-7491
▁টেসেলে	-7492
▁বিভাজন	-7493
▁সকালের	-7494
▁ওয়াটার	-7495
▁গ্যারেজ	-7496
▁গ্রহণের	-7497
▁ট্রিপের	-7498
▁মিলানোর	-7499
▁যানবাহন	-7500
▁শ্রেণীক	-7501
ক্ষেত্রের	-7502
▁Distance	-7503
▁Saturday	-7504
▁ওয়ার্কশ	-7505
▁খেলাধুলা	-7506
▁প্রতিফলন	-7507
▁ভাজকগুলি	-7508
▁স্ট্রাইপ	-7509
▁quadratic	-7510
▁প্রস্তুতি	-7511
▁প্রার্থীর	-7512
▁সংশ্লিষ্ট	-7513
▁ফ্যাক্টরাই	-7514
▁arrangement	-7515
▁পাঠিয়েছিলেন	-7516
'_	-7517
BA	-7518
বস	-7519
ৌর	-7520
্ণ	-7521
ces	-7522
ঘের	-7523
জেক	-7524
ফাই	-7525
বোন	-7526
রিন	-7527
সিং	-7528
হের	-7529
িটা	-7530
্টন	-7531
▁BI	-7532
▁av	-7533
▁বন	-7534
▁মজ	-7535
ency	-7536
gain	-7537
নাকে	-7538
ীরের	-7539
▁আরি	-7540
▁গুদ	-7541
▁নেব	-7542
other	-7543
value	-7544
গাড়ি	-7545
বিদের	-7546
ব্যাগ	-7547
ভিন্ন	-7548
ম্বার	-7549
শীর্ষ	-7550
▁comb	-7551
▁আর্ট	-7552
▁আসবে	-7553
▁এমার	-7554
▁জ্বল	-7555
▁ধীরে	-7556
▁বন্ট	-7557
▁বাধা	-7558
▁লাইট	-7559
▁লায়	-7560
▁হারা	-7561
otient	-7562
স্থিতি	-7563
ীক্ষ্ণ	-7564
▁cover	-7565
▁inter	-7566
▁large	-7567
▁share	-7568
▁until	-7569
▁ওজনকে	-7570
▁কিনেন	-7571
▁খামার	-7572
▁খেলছে	-7573
▁গ্রেগ	-7574
▁চিঠির	-7575
▁ডেভের	-7576
▁দুর্ঘ	-7577
▁পড়বে	-7578
▁ফিওনা	-7579
▁বেনের	-7580
▁লেখার	-7581
itially	-7582
পরিসীমা	-7583
▁congru	-7584
▁powers	-7585
▁অতিভুজ	-7586
▁কমিটির	-7587
▁কার্বন	-7588
▁জর্জের	-7589
▁বর্ষের	-7590
▁মুখস্থ	-7591
▁সংস্থা	-7592
▁স্টপের	-7593
▁স্থানা	-7594
িন্ডারের	-7595
▁Theorem	-7596
▁Tuesday	-7597
▁আবর্জনা	-7598
▁ডানদিকে	-7599
▁ডায়ানা	-7600
▁ডেভিডের	-7601
▁প্রশস্ত	-7602
▁লন্ড্রি	-7603
▁সদস্যরা	-7604
▁সর্বশেষ	-7605
▁সামাজিক	-7606
▁adjacent	-7607
▁exponent	-7608
▁অনুষ্ঠান	-7609
▁পেঙ্গুইন	-7610
▁সম্মেলনে	-7611
▁প্রকল্পের	-7612
▁বাহুগুলির	-7613
Divisibility	-7614
▁ছাত্রছাত্রী	-7615
▁সীমাবদ্ধতার	-7616
▁permutations	-7617
Pr	-7618
ey	-7619
wo	-7620
yp	-7621
পৃ	-7622
সই	-7623
হত	-7624
Pro	-7625
ade	-7626
কিউ	-7627
টিল	-7628
ফর্	-7629
লাস	-7630
ূরক	-7631
ূলক	-7632
্নে	-7633
▁মত	-7634
)!}$	-7635
)}\]	-7636
ante	-7637
eces	-7638
টপিং	-7639
ডুলো	-7640
পূর্	-7641
বাসন	-7642
স্কে	-7643
াকের	-7644
োজ্য	-7645
▁cup	-7646
▁কনস	-7647
▁গর্	-7648
▁চুষ	-7649
▁জাত	-7650
▁নদী	-7651
▁ববি	-7652
▁লেজ	-7653
গানের	-7654
দশমিক	-7655
ব্যাক	-7656
লেনের	-7657
▁cand	-7658
▁feet	-7659
▁want	-7660
▁অস্ব	-7661
▁ইয়ো	-7662
▁গনোম	-7663
▁গাইড	-7664
▁জিবি	-7665
▁দুর্	-7666
▁পাইপ	-7667
▁ভাজা	-7668
▁মাঝে	-7669
▁মিমি	-7670
▁সেটা	-7671
arante	-7672
orrect	-7673
▁light	-7674
▁overl	-7675
▁কারার	-7676
▁জন্যও	-7677
▁দাদুর	-7678
▁দিকটি	-7679
▁নিক্ষ	-7680
▁সামির	-7681
▁সেদিন	-7682
বিভাজ্য	-7683
্রিজারে	-7684
▁Adding	-7685
▁অনুকূল	-7686
▁আগ্রহী	-7687
▁কিস্তি	-7688
▁ঘোরানো	-7689
▁ছুঁড়ে	-7690
▁জাতীয়	-7691
▁জেসিকা	-7692
▁তরবারি	-7693
▁নির্বি	-7694
▁ব্যাচে	-7695
▁ভেতরের	-7696
▁সিন্ডি	-7697
মঙ্গলবার	-7698
▁current	-7699
▁receive	-7700
▁অধিবর্ষ	-7701
▁কার্লোস	-7702
▁ছাত্রীর	-7703
▁তীক্ষ্ণ	-7704
▁বৃষ্টির	-7705
▁মাঝখানে	-7706
▁শূন্যের	-7707
থাগোরাসের	-7708
▁February	-7709
▁interior	-7710
▁বাড়িয়ে	-7711
▁স্তরীকৃত	-7712
▁ত্রিভুজকে	-7713
▁দাঁড়িয়ে	-7714
▁পছন্দকারী	-7715
▁বিক্রিয়া	-7716
▁রান্নাঘরে	-7717
▁সরলীকরণের	-7718
▁information	-7719
▁গাণিতিকভাবে	-7720
▁ধারণক্ষমতার	-7721
▁সংখ্যাযুক্ত	-7722
▁\_\_\_\_\_\_	-7723
'$	-7724
);	-7725
\[	-7726
অব	-7727
এম	-7728
ওর	-7729
চু	-7730
টু	-7731
:\\	-7732
For	-7733
uce	-7734
ব্দ	-7735
ল্ড	-7736
শুক	-7737
ালে	-7738
ুইং	-7739
cend	-7740
কারে	-7741
প্রত	-7742
প্রি	-7743
বিতে	-7744
স্কা	-7745
ান্দ	-7746
োরাই	-7747
্রেট	-7748
▁কিম	-7749
▁জিল	-7750
▁দরে	-7751
▁নাট	-7752
▁পিৎ	-7753
▁ভান	-7754
▁শাস	-7755
▁হৃদ	-7756
Check	-7757
ডারের	-7758
নাক্ত	-7759
▁cost	-7760
▁ends	-7761
▁part	-7762
▁ques	-7763
▁অবসর	-7764
▁চুইং	-7765
▁পদকে	-7766
▁বাটি	-7767
সমাধান	-7768
▁could	-7769
▁girls	-7770
▁অঙ্কই	-7771
▁আরোহণ	-7772
▁করলেন	-7773
▁কাঠাম	-7774
▁কিশমি	-7775
▁কেজির	-7776
▁চড়তে	-7777
▁জংকুক	-7778
▁টিনার	-7779
▁তামিম	-7780
▁ত্রিশ	-7781
▁নিরাপ	-7782
▁নোয়া	-7783
▁পড়ছে	-7784
▁মিন্ট	-7785
▁মেগান	-7786
▁রূপার	-7787
▁লিজার	-7788
▁শিমলা	-7789
product	-7790
▁select	-7791
▁taking	-7792
▁উভয়কে	-7793
▁গোলাপি	-7794
▁চালাবে	-7795
▁ডাইমের	-7796
▁তিনটির	-7797
▁প্যাটি	-7798
▁রাখবেন	-7799
▁লগারিদ	-7800
প্রতিদিন	-7801
্যারিয়ে	-7802
▁______।	-7803
▁example	-7804
▁looking	-7805
▁অর্জনের	-7806
▁আউন্সের	-7807
▁কার্টুন	-7808
▁চ্যাম্প	-7809
▁প্রদর্শ	-7810
▁মটরশুটি	-7811
▁লিখেছিল	-7812
▁সন্ধ্যা	-7813
▁হিসাবের	-7814
▁greatest	-7815
▁কাপকেকের	-7816
▁ঘূর্ণনের	-7817
▁ব্যবধিতে	-7818
▁ব্যান্ডে	-7819
▁অ্যালবামে	-7820
▁ক্যাফেটের	-7821
▁বিনিময়ের	-7822
▁স্টিভেনের	-7823
প্রয়োজনীয়	-7824
▁Conclusion	-7825
▁সপ্তাহান্ত	-7826
▁অর্ধবৃত্তের	-7827
▁অ্যাকাউন্টে	-7828
▁সিলিন্ডারের	-7829
▁পরীক্ষার্থীর	-7830
▁ড্যান্ডেলিয়ন	-7831
]{	-7832
gs	-7833
ঠন	-7834
cba	-7835
elf	-7836
অনু	-7837
টিভ	-7838
দুপ	-7839
পুন	-7840
্নি	-7841
▁এন	-7842
▁তত	-7843
$:**	-7844
elta	-7845
শনার	-7846
হনের	-7847
▁$\\	-7848
▁map	-7849
▁অন্	-7850
▁কৌশ	-7851
▁জিহ	-7852
▁টনি	-7853
▁টুল	-7854
▁পলি	-7855
▁বদল	-7856
▁বুট	-7857
▁বেড	-7858
▁মডে	-7859
ducts	-7860
inite	-7861
osing	-7862
theta	-7863
which	-7864
কার্ড	-7865
দৃশ্য	-7866
মূল্য	-7867
্র্যা	-7868
▁inde	-7869
▁আঙুর	-7870
▁একের	-7871
▁কেলি	-7872
▁বেটি	-7873
▁সাপে	-7874
▁সালা	-7875
▁সেশন	-7876
▁সোফি	-7877
isters	-7878
বর্তিত	-7879
য়েলের	-7880
িকভাবে	-7881
▁indiv	-7882
▁shirt	-7883
▁taken	-7884
▁width	-7885
▁আসন্ন	-7886
▁কেলির	-7887
▁ক্লার	-7888
▁চলমান	-7889
▁ট্রাপ	-7890
▁ডলফিন	-7891
▁তারকা	-7892
▁দরজার	-7893
▁পাশকে	-7894
▁প্রিন	-7895
▁ভূগোল	-7896
▁মিটবল	-7897
▁হ্যাট	-7898
তোমধ্যে	-7899
▁pieces	-7900
▁plates	-7901
▁অনুরোধ	-7902
▁আউটপুট	-7903
▁কাটায়	-7904
▁গণনায়	-7905
▁ঘড়িটি	-7906
▁চিপসের	-7907
▁ঝুড়ির	-7908
▁পতাকার	-7909
▁পারেনি	-7910
▁যোগফলে	-7911
▁স্টকের	-7912
ominator	-7913
লিভিয়ার	-7914
▁অঞ্চলের	-7915
▁অপারেশন	-7916
▁কুকুরকে	-7917
▁কোয়ালা	-7918
▁ক্রেডিট	-7919
▁জাকিরের	-7920
▁দুইজনের	-7921
▁পরামর্শ	-7922
▁পর্যায়	-7923
▁পেরেছিল	-7924
▁বালতিতে	-7925
▁ব্যঞ্জন	-7926
▁ভেরিয়ে	-7927
▁মানদণ্ড	-7928
▁লিখেছেন	-7929
▁সমাবেশে	-7930
▁সাজিয়ে	-7931
▁coeffici	-7932
▁guarante	-7933
▁প্লাস্টি	-7934
▁ভিক্টোরি	-7935
▁রাউন্ডের	-7936
▁সমাধানটি	-7937
▁সাপেক্ষে	-7938
▁স্তরীভূত	-7939
Conclusion	-7940
▁অঙ্কযুক্ত	-7941
▁পাঠিয়েছে	-7942
▁ব্রেন্ডার	-7943
▁represents	-7944
▁অবশিষ্টাংশ	-7945
পার্শ্বযুক্ত	-7946
▁equilateral	-7947
▁ফেব্রুয়ারি	-7948
▁ফ্যাক্টোরাই	-7949
▁ব্যবহারকারী	-7950
▁প্রতিস্থাপিত	-7951
-\	-7952
=$	-7953
PP	-7954
`,	-7955
এস	-7956
হর	-7957
ৎস	-7958
ঁচে	-7959
ডান	-7960
ডেক	-7961
র্ক	-7962
শিং	-7963
োজক	-7964
▁[(	-7965
▁ob	-7966
▁sp	-7967
▁সস	-7968
ants	-7969
lock	-7970
ores	-7971
করের	-7972
কিমি	-7973
ফটিং	-7974
হলুদ	-7975
্রেস	-7976
্লেক	-7977
▁ice	-7978
▁sim	-7979
▁typ	-7980
▁আন্	-7981
▁ইমে	-7982
▁এলো	-7983
▁জাল	-7984
▁ঝিন	-7985
▁ডুব	-7986
▁পেত	-7987
▁ভাব	-7988
▁রিক	-7989
▁লেখ	-7990
▁শান	-7991
ately	-7992
point	-7993
চারের	-7994
ছিলাম	-7995
দিয়া	-7996
পারের	-7997
মাসের	-7998
স্যার	-7999
াবর্ষ	-8000
▁আলোর	-8001
▁এগার	-8002
▁টুলী	-8003
▁ধরণে	-8004
▁নকশা	-8005
▁বাঁচ	-8006
▁মণির	-8007
▁মতোই	-8008
▁রোগী	-8009
▁লাগা	-8010
▁সুমন	-8011
▁স্রো	-8012
▁হাতি	-8013
▁Pairs	-8014
▁cream	-8015
▁teach	-8016
▁অ্যাথ	-8017
▁আগস্ট	-8018
▁কিনার	-8019
▁চুষকি	-8020
▁ছবিতে	-8021
▁জিমিন	-8022
▁জেতার	-8023
▁ফ্রেম	-8024
▁ফ্লাই	-8025
▁সস্তা	-8026
▁স্পেস	-8027
angular	-8028
কেন্দ্র	-8029
বর্তমান	-8030
▁ranges	-8031
▁ইভানের	-8032
▁পরিধির	-8033
▁পোকেমন	-8034
▁ফার্মে	-8035
▁ভাড়ার	-8036
▁মৃত্যু	-8037
▁লাফাতে	-8038
▁হাঁটার	-8039
Simplify	-8040
▁meaning	-8041
▁অন্যদের	-8042
▁অষ্টভুজ	-8043
▁অ্যানের	-8044
▁উৎপাদকে	-8045
▁খেলেছিল	-8046
▁চিহুয়া	-8047
▁টাইলসের	-8048
▁পাখিদের	-8049
▁মূর্তির	-8050
▁ললিপপের	-8051
▁লুকিয়ে	-8052
▁স্কার্ট	-8053
▁Function	-8054
▁অধিনায়ক	-8055
▁অ্যান্টি	-8056
▁আবিষ্কার	-8057
▁উচ্চতায়	-8058
▁কুকুরটির	-8059
▁টুথব্রাশ	-8060
▁নিয়েছেন	-8061
▁পর্যাপ্ত	-8062
▁বিন্যাসে	-8063
▁Similarly	-8064
▁জানুয়ারী	-8065
▁ভিন্নভাবে	-8066
▁স্টার্টার	-8067
▁decreasing	-8068
▁অপরিবর্তিত	-8069
▁ক্রীড়াবিদ	-8070
▁নির্বিশেষে	-8071
▁মোটরসাইকেল	-8072
▁রেফ্রিজারে	-8073
▁খেলোয়াড়কে	-8074
▁প্রেসিডেন্ট	-8075
▁ব্যাটসম্যান	-8076
▁হোমওয়ার্কের	-8077
▁শীর্ষবিন্দুকে	-8078
▁প্যালিনড্রোমিক	-8079
BE	-8080
rd	-8081
)$:	-8082
eks	-8083
hot	-8084
দশক	-8085
ভিল	-8086
ষেধ	-8087
হুল	-8088
্জি	-8089
্বি	-8090
্যব	-8091
▁BE	-8092
▁bu	-8093
▁মন	-8094
\)).	-8095
homb	-8096
name	-8097
oper	-8098
আপেল	-8099
উচ্চ	-8100
গণনা	-8101
ঙ্গি	-8102
ত্রু	-8103
দলের	-8104
র্বি	-8105
হিদা	-8106
োরের	-8107
▁his	-8108
▁nth	-8109
▁try	-8110
▁চলা	-8111
▁টয়	-8112
▁ডের	-8113
▁নাও	-8114
▁নির	-8115
▁পেঁ	-8116
▁রেল	-8117
aults	-8118
উয়ের	-8119
থানের	-8120
ন্সির	-8121
্সাইড	-8122
▁Case	-8123
▁plac	-8124
▁show	-8125
▁আচার	-8126
▁কায়	-8127
▁গমের	-8128
▁জটিল	-8129
▁দানব	-8130
▁দাবি	-8131
▁ধরার	-8132
▁ধোয়	-8133
▁পাবো	-8134
▁পালক	-8135
▁বইতে	-8136
▁বলছে	-8137
▁মাছি	-8138
▁যোগী	-8139
ematic	-8140
hombus	-8141
য়ারার	-8142
য়েনের	-8143
▁ensur	-8144
▁obser	-8145
▁whole	-8146
▁ইসাবে	-8147
▁কোষের	-8148
▁চড়ার	-8149
▁জামিল	-8150
▁জেরিন	-8151
▁ডেভিড	-8152
▁দেশের	-8153
▁ধ্রুব	-8154
▁পেরেক	-8155
▁মডুলো	-8156
▁মুক্ত	-8157
▁রাখবে	-8158
▁লাফের	-8159
▁হিল্ট	-8160
পরবর্তী	-8161
▁vertic	-8162
▁অক্টোব	-8163
▁অধ্যাপ	-8164
▁আশ্রয়	-8165
▁উন্নীত	-8166
▁উভয়েই	-8167
▁কাউন্ট	-8168
▁দুজনেই	-8169
▁পশ্চিম	-8170
▁বহুপদী	-8171
▁ভাইদের	-8172
▁রাঙানো	-8173
▁সিলভার	-8174
atorname	-8175
পার্থক্য	-8176
▁analyze	-8177
▁another	-8178
▁Multiple	-8179
▁midpoint	-8180
▁ইতোমধ্যে	-8181
▁উৎপাদনের	-8182
▁মাকড়সার	-8183
▁শনিবারের	-8184
▁Thursdays	-8185
▁অনুশীলনের	-8186
▁পরিসংখ্যা	-8187
▁হাসপাতালে	-8188
▁পার্শ্বীয়	-8189
operatorname	-8190
▁প্লাস্টিকের	-8191
▁distribution	-8192
▁ক্যাফেটেরিয়ায়	-8193
av	-8194
da	-8195
aka	-8196
edr	-8197
mar	-8198
ush	-8199
জেল	-8200
র্ন	-8201
লিও	-8202
শনি	-8203
▁bc	-8204
hour	-8205
icks	-8206
imal	-8207
vert	-8208
চিনি	-8209
ধনের	-8210
বকের	-8211
বিকা	-8212
ভারে	-8213
ভ্যা	-8214
্লাউ	-8215
▁Div	-8216
▁Tam	-8217
▁bis	-8218
▁ধাত	-8219
▁লেট	-8220
▁শশা	-8221
Prime	-8222
edron	-8223
valid	-8224
জুনের	-8225
ঞ্জার	-8226
দারের	-8227
পৃষ্ঠ	-8228
্যমান	-8229
▁gets	-8230
▁rows	-8231
▁কারা	-8232
▁কেসে	-8233
▁গর্ড	-8234
▁গেলো	-8235
▁জলাশ	-8236
▁জাফর	-8237
▁জোসে	-8238
▁তমাল	-8239
▁তানি	-8240
▁থ্রো	-8241
▁মূলা	-8242
textbf	-8243
দূরত্ব	-8244
▁zeros	-8245
▁অগ্নি	-8246
▁করতেন	-8247
▁ক্লোন	-8248
▁খেলাই	-8249
▁গসাগু	-8250
▁গ্রিন	-8251
▁ছোটতম	-8252
▁ডিলিট	-8253
▁নাবিক	-8254
▁পাম্প	-8255
▁পিৎজা	-8256
▁পুকুর	-8257
▁বৃক্ষ	-8258
▁ভ্যাক	-8259
▁ম্যাথ	-8260
▁শর্টস	-8261
▁স্টিভ	-8262
ইটবোর্ড	-8263
▁Points	-8264
▁itself	-8265
▁plants	-8266
▁ইচ্ছুক	-8267
▁তোমাকে	-8268
▁দুর্ঘট	-8269
▁নিজেকে	-8270
▁ফ্লোরে	-8271
▁বিরতির	-8272
▁ব্যবসা	-8273
▁মরিয়ম	-8274
▁লেমনেড	-8275
▁সনাক্ত	-8276
▁অক্ষরটি	-8277
▁গ্যাসের	-8278
▁চেয়ারে	-8279
▁জ্যাকসন	-8280
▁পোর্টফো	-8281
▁বাচ্চার	-8282
▁বিষয়টি	-8283
▁বুধবারে	-8284
▁মৌসুমের	-8285
▁সদস্যকে	-8286
▁সাহিত্য	-8287
▁স্ট্রিপ	-8288
▁হিসাবটি	-8289
▁complete	-8290
▁উভয়পক্ষ	-8291
▁প্রযোজ্য	-8292
▁বলেছিলেন	-8293
▁বিনিময়ে	-8294
▁ভগ্নাংশে	-8295
▁রেসিপিতে	-8296
▁সম্প্রতি	-8297
▁স্যান্ডি	-8298
▁সরলরেখায়	-8299
▁সূর্যমুখী	-8300
পূর্ণসংখ্যা	-8301
▁individual	-8302
▁উৎপাদকগুলি	-8303
▁আশ্রয়স্থলে	-8304
BD	-8305
NO	-8306
Re	-8307
ln	-8308
tg	-8309
রঙ	-8310
ply	-8311
ull	-8312
গাছ	-8313
জনন	-8314
জুন	-8315
টিশ	-8316
বাব	-8317
▁fl	-8318
▁নো	-8319
▁ভৌ	-8320
alys	-8321
case	-8322
}\)।	-8323
ত্তম	-8324
ন্তু	-8325
পাতি	-8326
ফলিত	-8327
মধ্য	-8328
ারম্	-8329
▁\[=	-8330
▁was	-8331
▁দেই	-8332
▁সংক	-8333
▁সুজ	-8334
▁সের	-8335
▁হোস	-8336
large	-8337
ouble	-8338
rowth	-8339
ফারের	-8340
বিশেষ	-8341
শুদ্ধ	-8342
▁goal	-8343
▁আবৃত	-8344
▁আর্থ	-8345
▁জসিম	-8346
▁ডেবি	-8347
▁তাজা	-8348
▁দেবো	-8349
▁পারব	-8350
▁বলার	-8351
▁বেবি	-8352
▁রুমে	-8353
▁রোজি	-8354
▁শ্যা	-8355
▁স্কে	-8356
alysis	-8357
equent	-8358
ন্তব্য	-8359
বিড়াল	-8360
্রাসের	-8361
▁fifth	-8362
▁incre	-8363
▁weeks	-8364
▁আঁকতে	-8365
▁ওটমিল	-8366
▁ক্রিম	-8367
▁গুচ্ছ	-8368
▁চলচ্চ	-8369
▁ছাড়ে	-8370
▁জেনির	-8371
▁তামার	-8372
▁তুলসী	-8373
▁বন্টন	-8374
▁বাতিল	-8375
▁সেটটি	-8376
clusive	-8377
ল্যান্ড	-8378
ারম্ভিক	-8379
▁equals	-8380
▁আলমারি	-8381
▁কুকিতে	-8382
▁চাবিকা	-8383
▁পরাজিত	-8384
▁রবিনের	-8385
▁সহকর্ম	-8386
▁স্বামী	-8387
▁sisters	-8388
▁অন্যটির	-8389
▁এড়িয়ে	-8390
▁ক্রোয়া	-8391
▁গ্যালনে	-8392
▁জোন্সের	-8393
▁তালিকার	-8394
▁নিঃশেষে	-8395
▁নিকেলের	-8396
▁পরিপূরক	-8397
▁পরিষেবা	-8398
▁প্ল্যান	-8399
▁বান্ডিল	-8400
▁বিশুদ্ধ	-8401
▁ম্যাঙ্গ	-8402
▁ল্যাপটপ	-8403
▁সংস্করণ	-8404
▁সিনেমার	-8405
divisible	-8406
▁Equation	-8407
▁parallel	-8408
▁quotient	-8409
▁simplest	-8410
▁ইংরেজিতে	-8411
▁গুণিতকটি	-8412
▁জাভিয়ার	-8413
▁তালিয়ার	-8414
▁দেখাচ্ছে	-8415
▁পৃথকভাবে	-8416
▁বিদ্যমান	-8417
▁স্যুটকেস	-8418
▁initially	-8419
▁একাধিকবার	-8420
▁শিক্ষকদের	-8421
▁ক্লায়েন্ট	-8422
▁চালিয়েছেন	-8423
▁শিক্ষাবর্ষ	-8424
▁ক্ষেত্রগুলি	-8425
▁ত্রুটিপূর্ণ	-8426
▁সম্পর্কগুলি	-8427
ংস	-8428
ভো	-8429
াট	-8430
েন	-8431
The	-8432
iod	-8433
ong	-8434
phi	-8435
pos	-8436
sol	-8437
uts	-8438
wor	-8439
খুঁ	-8440
চরা	-8441
সরল	-8442
িনী	-8443
োনে	-8444
▁ca	-8445
▁এত	-8446
ceed	-8447
ored	-8448
ডনির	-8449
িষ্ঠ	-8450
ীরার	-8451
্বার	-8452
ৎকার	-8453
▁All	-8454
▁অবি	-8455
▁ইরা	-8456
▁গাভ	-8457
▁থিও	-8458
▁রুট	-8459
▁সবই	-8460
Delta	-8461
equal	-8462
ircle	-8463
তুলের	-8464
দশকের	-8465
ন্টার	-8466
সানের	-8467
সিডের	-8468
স্ত্র	-8469
ুমিনি	-8470
▁grid	-8471
▁ইভান	-8472
▁গুদি	-8473
▁ঘনের	-8474
▁চ্যা	-8475
▁জমান	-8476
▁জসীম	-8477
▁জেমি	-8478
▁ধাতু	-8479
▁পটির	-8480
▁প্রহ	-8481
▁বসবে	-8482
▁বেকন	-8483
▁সাকি	-8484
▁সিজন	-8485
▁সুতা	-8486
▁স্নো	-8487
encils	-8488
inally	-8489
উদাহরণ	-8490
টাইজার	-8491
শালায়	-8492
িন্ডার	-8493
▁again	-8494
▁round	-8495
▁আজকের	-8496
▁এনেছে	-8497
▁কন্টে	-8498
▁কিনবে	-8499
▁কোণটি	-8500
▁ক্যাপ	-8501
▁গোলকি	-8502
▁জিমের	-8503
▁ডানার	-8504
▁ডিভাই	-8505
▁ফারেন	-8506
▁বেলাল	-8507
▁ব্লাউ	-8508
ভিত্তিক	-8509
▁period	-8510
▁অনুবাদ	-8511
▁অন্যটি	-8512
▁গবেষণা	-8513
▁চতুষ্প	-8514
▁দইয়ের	-8515
▁দুইগুণ	-8516
▁পিকনিক	-8517
▁প্লেটে	-8518
▁বিয়ার	-8519
▁মাউন্ট	-8520
▁যায়নি	-8521
প্রশ্নের	-8522
▁general	-8523
▁অ্যাসিড	-8524
▁উভয়েরই	-8525
▁করছিলেন	-8526
▁কোণগুলি	-8527
▁গুণফলটি	-8528
▁দৃশ্যের	-8529
▁নিক্ষেপ	-8530
▁নিযুক্ত	-8531
▁পছন্দসই	-8532
▁পার্টির	-8533
▁বিষয়েই	-8534
▁বোতামের	-8535
▁হিপোপটা	-8536
▁exchange	-8537
▁hundreds	-8538
▁আক্রান্ত	-8539
▁চেয়েছিল	-8540
▁টপিংয়ের	-8541
▁ফারেনহাই	-8542
▁বিশেষজ্ঞ	-8543
▁রায়ানের	-8544
▁Condition	-8545
▁জীববিদ্যা	-8546
▁পড়েছিলেন	-8547
▁মার্কাসের	-8548
▁শুক্রবারে	-8549
▁সুপারমার্	-8550
▁অতিক্রান্ত	-8551
▁অ্যালুমিনি	-8552
▁প্রতিযোগিতার	-8553
▁quadrilateral	-8554
(-	-8555
)+	-8556
mu	-8557
Com	-8558
ags	-8559
izz	-8560
দির	-8561
সুম	-8562
▁আশ	-8563
▁লঘ	-8564
ches	-8565
tend	-8566
till	-8567
আপের	-8568
ধিনি	-8569
পরের	-8570
িকোণ	-8571
ুলার	-8572
্রিন	-8573
▁Con	-8574
▁পেছ	-8575
▁রনি	-8576
▁রাস	-8577
▁লরা	-8578
▁শুন	-8579
▁সচি	-8580
▁সাং	-8581
ength	-8582
আউটের	-8583
কুকুর	-8584
গ্যাল	-8585
ডিয়া	-8586
দ্বিখ	-8587
ম্বরে	-8588
াকারে	-8589
ামূলক	-8590
▁turn	-8591
▁আগুন	-8592
▁আটার	-8593
▁আলেক	-8594
▁ইউনা	-8595
▁কিউব	-8596
▁ঘেরা	-8597
▁ডাবল	-8598
▁পশুর	-8599
▁পুলে	-8600
▁ফিনি	-8601
▁বারে	-8602
▁ব্রো	-8603
▁মজার	-8604
▁মেনু	-8605
▁যদিও	-8606
▁লিমা	-8607
▁লীগে	-8608
▁শিহা	-8609
▁শ্রম	-8610
▁সুজি	-8611
hedron	-8612
বুধবার	-8613
▁parts	-8614
▁অপরকে	-8615
▁অব্যা	-8616
▁উলম্ব	-8617
▁কাঙ্গ	-8618
▁খুচরা	-8619
▁গোল্ড	-8620
▁টেকনি	-8621
▁টেপের	-8622
▁তীব্র	-8623
▁নীলের	-8624
▁বন্ধন	-8625
▁বিনের	-8626
▁বেঞ্চ	-8627
▁শিফটে	-8628
▁শোবার	-8629
▁হাঙ্গ	-8630
▁হেনরি	-8631
▁হোয়া	-8632
ধিনিষেধ	-8633
পদক্ষেপ	-8634
▁অর্জিত	-8635
▁ওয়াইন	-8636
▁জীবনের	-8637
▁নারকেল	-8638
▁বইগুলো	-8639
▁বারবার	-8640
▁রায়ান	-8641
▁রাশিকে	-8642
▁রাশিতে	-8643
▁Divisor	-8644
▁Sundays	-8645
▁ক্রয়ের	-8646
▁গন্তব্য	-8647
▁চুইংগাম	-8648
▁জাদুঘরে	-8649
▁জানালার	-8650
▁জেরিনের	-8651
▁ডোনাটের	-8652
▁দ্বিপদী	-8653
▁পাঠানোর	-8654
▁ফ্রেডের	-8655
▁বাড়িটি	-8656
▁বেকারের	-8657
▁মার্থার	-8658
▁রাবারের	-8659
▁রেখেছেন	-8660
▁সংখ্যাও	-8661
▁সৈন্যের	-8662
▁হ্রাসের	-8663
▁identify	-8664
▁rotation	-8665
▁অলিভিয়া	-8666
▁ছাড়িয়ে	-8667
▁জিনিসটির	-8668
▁পিজ্জায়	-8669
▁প্রকল্পে	-8670
▁প্রকাশিত	-8671
▁প্রথমটির	-8672
▁সমানুপাত	-8673
▁Wednesday	-8674
▁প্রতিফলিত	-8675
▁সম্পর্কটি	-8676
▁Chocolates	-8677
▁percentage	-8678
▁পোর্টফোলিও	-8679
▁শুক্রবারের	-8680
▁বাক্সগুলিতে	-8681
▁সম্প্রদায়ের	-8682
MN	-8683
পক	-8684
$),	-8685
*}\	-8686
---	-8687
ams	-8688
met	-8689
pty	-8690
আয়	-8691
এখন	-8692
গাল	-8693
থান	-8694
পেজ	-8695
লীন	-8696
হ্য	-8697
▁CA	-8698
▁ml	-8699
▁টক	-8700
ctop	-8701
east	-8702
eria	-8703
even	-8704
ings	-8705
valu	-8706
অন্ত	-8707
অন্য	-8708
গলের	-8709
জ্যা	-8710
ন্দর	-8711
শুনা	-8712
স্তী	-8713
োন্য	-8714
্লিপ	-8715
▁ear	-8716
▁আশে	-8717
▁উদয	-8718
▁কিক	-8719
▁টমি	-8720
▁ডোজ	-8721
▁নিউ	-8722
▁পচা	-8723
▁পেল	-8724
▁মাক	-8725
▁মেঘ	-8726
▁লিজ	-8727
alent	-8728
মাদের	-8729
স্টিক	-8730
হস্তী	-8731
▁Shah	-8732
▁cans	-8733
▁eats	-8734
▁game	-8735
▁উঠতে	-8736
▁কৌশল	-8737
▁ক্রো	-8738
▁খোসা	-8739
▁চিতা	-8740
▁জেসি	-8741
▁তাতে	-8742
▁বলেন	-8743
▁মোড়	-8744
▁লিখি	-8745
▁শাখা	-8746
▁শুধু	-8747
▁শেল্	-8748
▁সিটি	-8749
▁সুদে	-8750
▁সূচক	-8751
ctopus	-8752
প্রথমে	-8753
স্পষ্ট	-8754
াকালীন	-8755
▁Prime	-8756
▁These	-8757
▁অমলেট	-8758
▁অ্যান	-8759
▁আনারস	-8760
▁গৃহীত	-8761
▁চর্বি	-8762
▁জমানো	-8763
▁জলপাই	-8764
▁জাঙ্ক	-8765
▁জারের	-8766
▁ডক্টর	-8767
▁তারার	-8768
▁ধোয়া	-8769
▁প্লাগ	-8770
▁বাঘের	-8771
▁বেঁচে	-8772
▁বেলার	-8773
▁স্থাপ	-8774
▁হীরার	-8775
maining	-8776
ক্ষিপ্ত	-8777
▁around	-8778
▁salary	-8779
▁slices	-8780
▁অপসারণ	-8781
▁এলাকার	-8782
▁কল্পনা	-8783
▁জাস্টি	-8784
▁প্রচার	-8785
▁প্রচুর	-8786
▁বর্ণমা	-8787
▁বাকিটা	-8788
▁সংযোজন	-8789
▁হাইকিং	-8790
ক্ষেত্রে	-8791
চূড়ান্ত	-8792
▁friends	-8793
▁theorem	-8794
▁কুমড়ার	-8795
▁পুতুলের	-8796
▁প্ল্যাট	-8797
▁ফেলেছিল	-8798
▁বিদ্যুৎ	-8799
▁বোর্ডের	-8800
▁ভিত্তিক	-8801
▁শ্যাম্প	-8802
▁সাইক্লি	-8803
▁স্রোতের	-8804
▁হ্যারির	-8805
▁minimize	-8806
▁receives	-8807
▁অর্ডারের	-8808
▁বিয়োগফল	-8809
▁ব্রায়ান	-8810
▁লাফালাফি	-8811
▁guarantee	-8812
▁উপস্থাপনা	-8813
▁কাটিয়েছে	-8814
▁ডাক্তারের	-8815
▁প্রদর্শিত	-8816
▁বিধিনিষেধ	-8817
▁মিলিগ্রাম	-8818
▁operations	-8819
▁remainders	-8820
▁কার্যকলাপে	-8821
▁তাপমাত্রার	-8822
▁প্রারম্ভিক	-8823
▁রান্নাঘরের	-8824
▁rectangular	-8825
▁ক্ষেত্রফলকে	-8826
▁চ্যাম্পিয়ন	-8827
▁ত্রিভুজগুলি	-8828
▁ব্যবস্থাপনা	-8829
▁divisibility	-8830
▁ত্রিভুজগুলির	-8831
.$	-8832
=\	-8833
aa	-8834
gh	-8835
ss	-8836
উল	-8837
খর	-8838
ঠে	-8839
তী	-8840
fid	-8841
বড়	-8842
লেস	-8843
ীরা	-8844
োটা	-8845
্ডা	-8846
▁eg	-8847
▁আং	-8848
!}{(	-8849
ough	-8850
rang	-8851
were	-8852
}^{\	-8853
কারি	-8854
জ্জা	-8855
তারা	-8856
ধিতা	-8857
পালা	-8858
মাইল	-8859
মূলদ	-8860
রিয়	-8861
সমান	-8862
সর্ব	-8863
▁der	-8864
▁ওরি	-8865
▁কুপ	-8866
▁জুই	-8867
▁ডিউ	-8868
▁দের	-8869
▁বিব	-8870
▁ভবন	-8871
▁যৌথ	-8872
▁শিং	-8873
▁শেফ	-8874
ক্ষাপ	-8875
টুকরো	-8876
রিকের	-8877
লারের	-8878
▁Rash	-8879
▁cell	-8880
▁enti	-8881
▁item	-8882
▁mass	-8883
▁pizz	-8884
▁were	-8885
▁অন্ধ	-8886
▁অফার	-8887
▁অসম্	-8888
▁কম্প	-8889
▁খুশি	-8890
▁চালক	-8891
▁তখনই	-8892
▁ভাঁজ	-8893
▁মফিন	-8894
▁হাতা	-8895
▁হোটে	-8896
erator	-8897
ংকারের	-8898
▁Valid	-8899
▁const	-8900
▁equiv	-8901
▁অনাহি	-8902
▁উন্নত	-8903
▁ওয়াং	-8904
▁কন্ডি	-8905
▁কর্তৃ	-8906
▁গেলেন	-8907
▁জিততে	-8908
▁ঝিনুক	-8909
▁টুলীপ	-8910
▁দাগের	-8911
▁পালিশ	-8912
▁প্রজা	-8913
▁মৌসুম	-8914
▁লিসার	-8915
▁সভায়	-8916
▁স্থূল	-8917
▁হাসান	-8918
reatest	-8919
তবিদ্যা	-8920
ত্রিভুজ	-8921
মাত্রিক	-8922
িনিয়ার	-8923
্সাইডের	-8924
▁center	-8925
▁column	-8926
▁cycles	-8927
▁entire	-8928
▁indeed	-8929
▁shirts	-8930
▁অশূন্য	-8931
▁আঙ্গুল	-8932
▁আলোচনা	-8933
▁কন্যার	-8934
▁ক্যারি	-8935
▁চাহিদা	-8936
▁চিজকেক	-8937
▁জাদুকর	-8938
▁ট্রেনে	-8939
▁ড্রাগন	-8940
▁পাজলের	-8941
▁পুনর্গ	-8942
▁পুরানো	-8943
▁পেত্যা	-8944
▁প্রথমত	-8945
▁বিভাজক	-8946
▁মডেলের	-8947
▁স্প্রি	-8948
▁observe	-8949
▁অব্যাহত	-8950
▁ক্রিসের	-8951
▁জাহাজের	-8952
▁জিমিনের	-8953
▁ত্রিকোণ	-8954
▁নিবন্ধন	-8955
▁পিকনিকে	-8956
▁পেট্রোল	-8957
▁বাজানোর	-8958
▁ব্যাপার	-8959
▁মিশিয়ে	-8960
▁মেলানির	-8961
▁যাত্রীর	-8962
onditions	-8963
নির্দিষ্ট	-8964
▁provided	-8965
▁প্রজাপতি	-8966
▁লেনদেনের	-8967
▁ষড়ভুজটি	-8968
▁স্থাপনের	-8969
▁principle	-8970
▁প্রতিযোগী	-8971
▁ব্যক্তিটি	-8972
▁সংক্ষিপ্ত	-8973
▁সঙ্গীতজ্ঞ	-8974
▁multiplied	-8975
▁উপায়গুলির	-8976
▁বিন্দুগুলি	-8977
▁ব্যাংকারের	-8978
▁Calculating	-8979
▁যুক্তিসঙ্গত	-8980
▁শিক্ষার্থীরা	-8981
▁corresponding	-8982
▁অংশগ্রহণকারীর	-8983
উড	-8984
টল	-8985
যথ	-8986
ail	-8987
riy	-8988
।\\	-8989
কাউ	-8990
টেন	-8991
পাল	-8992
মাছ	-8993
যার	-8994
রিং	-8995
সুদ	-8996
▁!=	-8997
▁অর	-8998
তরের	-8999
ত্তা	-9000
রুটি	-9001
লাইট	-9002
শিশু	-9003
াকাশ	-9004
্বেও	-9005
▁$$(	-9006
▁New	-9007
▁acc	-9008
▁ext	-9009
▁hyp	-9010
▁আংশ	-9011
▁বরফ	-9012
▁রিফ	-9013
▁শরব	-9014
\)**:	-9015
ওয়াট	-9016
চারটি	-9017
বাদাম	-9018
রক্ষক	-9019
স্কুপ	-9020
হ্রাস	-9021
্ডারগ	-9022
▁$$\\	-9023
▁Both	-9024
▁Shan	-9025
▁pres	-9026
▁ইয়ং	-9027
▁কখনও	-9028
▁কোষা	-9029
▁গাভী	-9030
▁চন্দ	-9031
▁ছক্ক	-9032
▁ডার্	-9033
▁দাদা	-9034
▁নদীর	-9035
▁ফোনে	-9036
▁বাড়	-9037
▁ভক্ত	-9038
▁মেগা	-9039
▁সকার	-9040
▁সত্ত	-9041
উচ্চতা	-9042
গ্যালন	-9043
ধ্যক্ষ	-9044
বোর্ডে	-9045
▁appro	-9046
▁asked	-9047
▁graph	-9048
▁seats	-9049
▁ইউনজি	-9050
▁এঞ্জে	-9051
▁ওভারে	-9052
▁কাঠির	-9053
▁কুমির	-9054
▁গার্ড	-9055
▁ছাদের	-9056
▁জাম্প	-9057
▁জুসের	-9058
▁জেসির	-9059
▁দড়ির	-9060
▁ধানের	-9061
▁বেসিল	-9062
▁যোগীর	-9063
▁লেখেন	-9064
▁লোপেজ	-9065
▁সান্ড	-9066
▁সাবান	-9067
▁স্মিথ	-9068
▁হাঁটা	-9069
দ্বয়ের	-9070
▁Length	-9071
▁fourth	-9072
▁অক্ষের	-9073
▁একদিকে	-9074
▁কনিষ্ঠ	-9075
▁ট্যাংক	-9076
▁ট্রাউট	-9077
▁ট্রাকে	-9078
▁দুপুরে	-9079
▁নম্বরে	-9080
▁পাইপের	-9081
▁বাটিতে	-9082
▁ভেড়ার	-9083
▁মহাকাশ	-9084
▁যানবাহ	-9085
▁শীর্ষে	-9086
▁সাবস্ক	-9087
দ্বিখণ্ড	-9088
বৃহস্পতি	-9089
▁decimal	-9090
▁উপকরণের	-9091
▁ওয়াশিং	-9092
▁গ্রামের	-9093
▁ছড়িয়ে	-9094
▁জেনিফার	-9095
▁দ্রুততম	-9096
▁বাতাসের	-9097
▁ব্র্যাড	-9098
▁মহিলাকে	-9099
▁সবগুলোই	-9100
▁হ্যান্ড	-9101
▁Subtract	-9102
▁অন্যোন্য	-9103
▁কেনাকাটা	-9104
▁ক্যাফেইন	-9105
▁ট্যাক্সি	-9106
▁ট্রেনটির	-9107
▁ব্যয়কৃত	-9108
▁সত্ত্বেও	-9109
▁factorial	-9110
▁কন্ডিশনার	-9111
▁ছাত্রীদের	-9112
▁জেলিবিনের	-9113
▁প্রতিসমতা	-9114
▁প্রাণীদের	-9115
▁প্রেক্ষাপ	-9116
▁ভৌতবিদ্যা	-9117
▁মিথ্যাবাদ	-9118
▁simplified	-9119
▁চেয়েছিলেন	-9120
▁ত্রিভুজটির	-9121
▁পরিকল্পনার	-9122
▁সেমিস্টারে	-9123
▁coefficient	-9124
▁denominator	-9125
▁উল্লম্বভাবে	-9126
▁টেকনিশিয়ান	-9127
▁বৃহস্পতিবারে	-9128
▁Factorization	-9129
▁বৃহস্পতিবারের	-9130
CO	-9131
যু	-9132
শম	-9133
োন	-9134
োভ	-9135
▁)	-9136
gor	-9137
নিশ	-9138
পথে	-9139
পিক	-9140
মেন	-9141
শেক	-9142
িরে	-9143
্দি	-9144
▁পঙ	-9145
▁রজ	-9146
uice	-9147
ward	-9148
কভার	-9149
তিহা	-9150
পাকা	-9151
লাকে	-9152
▁Per	-9153
▁bul	-9154
▁buy	-9155
▁আজি	-9156
▁আদন	-9157
▁চড়	-9158
▁টোপ	-9159
▁ডিন	-9160
▁থলি	-9161
▁ফলন	-9162
▁হিন	-9163
ified	-9164
ushar	-9165
ঙ্গিত	-9166
সেন্স	-9167
▁cups	-9168
▁dire	-9169
▁eggs	-9170
▁full	-9171
▁sons	-9172
▁ইউটি	-9173
▁ইয়া	-9174
▁একদল	-9175
▁এডের	-9176
▁এলার	-9177
▁ঝাড়	-9178
▁টুইট	-9179
▁তারি	-9180
▁বন্দ	-9181
▁মেইল	-9182
▁মোটে	-9183
▁শাবক	-9184
apping	-9185
radius	-9186
বিকল্প	-9187
ম্বরের	-9188
সমাবেশ	-9189
সমিনের	-9190
▁Tamal	-9191
▁rooms	-9192
▁those	-9193
▁অমূলদ	-9194
▁কারলা	-9195
▁চালনা	-9196
▁জেরাল	-9197
▁টাকাই	-9198
▁তোড়া	-9199
▁দশগুণ	-9200
▁নাতির	-9201
▁প্রাই	-9202
▁ফ্রেড	-9203
▁বিরোধ	-9204
▁ভবনের	-9205
▁ভেন্য	-9206
▁মিল্ক	-9207
▁মেলার	-9208
▁যথাযথ	-9209
▁সাইমন	-9210
▁স্কেল	-9211
▁হার্ট	-9212
▁হ্রদে	-9213
cending	-9214
গ্রহণের	-9215
▁Verify	-9216
▁volume	-9217
▁ইঙ্গিত	-9218
▁কর্তৃক	-9219
▁কাঠামো	-9220
▁গাছটির	-9221
▁চক্রের	-9222
▁জেব্রা	-9223
▁তত্ত্ব	-9224
▁নিচ্ছে	-9225
▁প্রিজম	-9226
▁বেলায়	-9227
▁লঘিষ্ঠ	-9228
▁লিয়াম	-9229
▁শতাংশে	-9230
▁brother	-9231
▁regular	-9232
▁rhombus	-9233
▁কেভিনের	-9234
▁ক্যামের	-9235
▁ছক্কায়	-9236
▁জামালের	-9237
▁পাহাড়ে	-9238
▁পুত্রের	-9239
▁ব্যারেল	-9240
▁মাফিনের	-9241
▁মেগানের	-9242
▁মেয়েরা	-9243
▁রয়েছেন	-9244
▁checking	-9245
▁অ্যালিসন	-9246
▁কিন্ডারগ	-9247
▁ক্যান্টি	-9248
▁চকোলেটের	-9249
▁টেসেলেশন	-9250
▁নেতিবাচক	-9251
▁পড়াশুনা	-9252
▁পরিশোধের	-9253
▁প্রাণীকে	-9254
▁বাথরুমের	-9255
▁বিরোধিতা	-9256
▁সময়সূচি	-9257
▁সাহায্যে	-9258
▁কিলোওয়াট	-9259
▁চলচ্চিত্র	-9260
▁জ্বালানির	-9261
▁equivalent	-9262
▁palindrome	-9263
▁পার্থক্যটি	-9264
▁স্ট্রবেরির	-9265
▁নিশ্চিতভাবে	-9266
▁চিহুয়াহুয়া	-9267
▁সংখ্যাগুলিতে	-9268
')	-9269
.}	-9270
mo	-9271
og	-9272
ty	-9273
কু	-9274
সদ	-9275
,$$	-9276
ild	-9277
pre	-9278
str	-9279
একই	-9280
কমি	-9281
ছির	-9282
ন্থ	-9283
ফলা	-9284
ভৎস	-9285
রিদ	-9286
ুনি	-9287
ুরো	-9288
ূপা	-9289
্সা	-9290
▁\*	-9291
▁ac	-9292
▁vs	-9293
▁মল	-9294
ওভার	-9295
কালো	-9296
কৃতি	-9297
ছেলে	-9298
টাইম	-9299
য়াজ	-9300
লিফো	-9301
ানিক	-9302
োমান	-9303
▁eat	-9304
▁len	-9305
▁অমি	-9306
▁আশি	-9307
▁ইয়	-9308
▁এপি	-9309
▁জাং	-9310
▁বিছ	-9311
▁সৌর	-9312
clude	-9313
comes	-9314
টেবিল	-9315
দুপরি	-9316
নিয়া	-9317
ন্দ্ব	-9318
য়ানে	-9319
যাত্র	-9320
রিসের	-9321
ষ্ট্র	-9322
স্বাদ	-9323
ানোলা	-9324
্যবশত	-9325
্যাকে	-9326
▁\\\\	-9327
▁leap	-9328
▁অভাব	-9329
▁আলান	-9330
▁এবার	-9331
▁কফির	-9332
▁কারু	-9333
▁কুপন	-9334
▁জিমন	-9335
▁টডের	-9336
▁টাইফ	-9337
▁টেরি	-9338
▁পারত	-9339
▁বণ্ট	-9340
▁মশলা	-9341
▁রাজা	-9342
▁রিপো	-9343
▁রূপা	-9344
▁শাসক	-9345
▁হরের	-9346
tition	-9347
ক্ষেপে	-9348
নাল্টি	-9349
শনিবার	-9350
▁known	-9351
▁moves	-9352
▁আঁকার	-9353
▁আনিকা	-9354
▁উঠোনে	-9355
▁জাতের	-9356
▁প্যাট	-9357
▁বীভৎস	-9358
▁বুনতে	-9359
▁ভ্যান	-9360
▁রুপোর	-9361
▁লাঞ্চ	-9362
▁লিন্ড	-9363
▁লুবনা	-9364
▁লেটুস	-9365
▁সালাদ	-9366
▁সূচিত	-9367
ছাত্রীর	-9368
স্কারের	-9369
▁determ	-9370
▁middle	-9371
▁আবৃত্ত	-9372
▁আয়তঘন	-9373
▁এঞ্জেল	-9374
▁কাটানো	-9375
▁ক্লাউন	-9376
▁গুদামে	-9377
▁ঘোড়ার	-9378
▁তদুপরি	-9379
▁নিবন্ধ	-9380
▁নেকলেস	-9381
▁পিরিয়	-9382
▁প্রজনন	-9383
▁বাহুকে	-9384
▁বাহুতে	-9385
▁রেবেকা	-9386
▁সংঘর্ষ	-9387
ভাগ্যবশত	-9388
লিয়ামের	-9389
▁Finally	-9390
▁Pattern	-9391
▁overlap	-9392
▁উৎক্ষেপ	-9393
▁একদিনের	-9394
▁ওয়েণ্ড	-9395
▁কয়েকজন	-9396
▁কর্মসূচ	-9397
▁ক্যাটার	-9398
▁ক্ষমতার	-9399
▁গতকালের	-9400
▁দৃষ্টিভ	-9401
▁পরমাণুর	-9402
▁পারফর্ম	-9403
▁মৌমাছির	-9404
▁লক্ষ্যে	-9405
▁সারাহের	-9406
▁সিওকজিন	-9407
▁স্টিকের	-9408
িজিয়ামের	-9409
▁উপস্থিতি	-9410
▁কাঙ্গারু	-9411
▁গ্রানোলা	-9412
▁দাগযুক্ত	-9413
▁বিন্দুকে	-9414
▁মিলাওয়া	-9415
▁রবিবারের	-9416
▁রান্নাঘর	-9417
▁শিক্ষকতা	-9418
▁daughters	-9419
▁ছেদবিন্দু	-9420
▁ছেলেমেয়ে	-9421
▁জ্যাকেটের	-9422
▁মিলাওয়ার	-9423
▁অ্যান্টোনি	-9424
▁বিড়ালছানা	-9425
▁ব্যবস্থায়	-9426
▁distributed	-9427
▁কম্পিউটারের	-9428
▁প্রার্থীদের	-9429
▁চিড়িয়াখানা	-9430
▁সামান্তরিকের	-9431
▁পদার্থবিজ্ঞান	-9432
OH	-9433
he	-9434
ia	-9435
উস	-9436
খী	-9437
():	-9438
Con	-9439
\%$	-9440
ise	-9441
num	-9442
ren	-9443
}$)	-9444
গ্ম	-9445
তেই	-9446
বকে	-9447
ভুল	-9448
রুণ	-9449
হাম	-9450
হিম	-9451
াবে	-9452
েকো	-9453
▁Ca	-9454
▁Te	-9455
▁ed	-9456
▁চম	-9457
Form	-9458
ples	-9459
week	-9460
অক্ষ	-9461
ইঞ্চ	-9462
কেবল	-9463
ঙ্গা	-9464
দনের	-9465
প্রে	-9466
বছরে	-9467
রিতে	-9468
াদার	-9469
োডাক	-9470
্কের	-9471
▁($\	-9472
▁Ang	-9473
▁cub	-9474
▁চিং	-9475
▁ডাম	-9476
▁ডেট	-9477
▁থিম	-9478
▁নাক	-9479
▁পোষ	-9480
▁বলল	-9481
▁বাউ	-9482
▁রকি	-9483
▁শীত	-9484
▁সফট	-9485
cular	-9486
ector	-9487
lceil	-9488
rceil	-9489
riyar	-9490
urren	-9491
কিনের	-9492
গ্রুপ	-9493
চেলের	-9494
জ্যাক	-9495
নিবেশ	-9496
ন্ধান	-9497
লিমের	-9498
শুনার	-9499
▁Time	-9500
▁path	-9501
▁আঠার	-9502
▁আত্ম	-9503
▁কারি	-9504
▁কুইজ	-9505
▁কোডি	-9506
▁গোছা	-9507
▁গোপন	-9508
▁চালু	-9509
▁বনের	-9510
▁বেটা	-9511
▁মাকে	-9512
▁মিশা	-9513
▁লাভে	-9514
▁লেমন	-9515
▁সমমি	-9516
▁সুইচ	-9517
▁স্টপ	-9518
▁হবেন	-9519
ursive	-9520
urther	-9521
খাওয়া	-9522
চলরাশি	-9523
ভিয়ান	-9524
▁grade	-9525
▁juice	-9526
▁আলিনা	-9527
▁কলেজে	-9528
▁কানের	-9529
▁গেছেন	-9530
▁চক্রে	-9531
▁জাম্ব	-9532
▁ডিনার	-9533
▁থাম্ব	-9534
▁দক্ষি	-9535
▁দলটির	-9536
▁পাশার	-9537
▁পিতার	-9538
▁পেছনে	-9539
▁পেনিগ	-9540
▁পেনের	-9541
▁ফেলেন	-9542
▁বেথের	-9543
▁ভাজ্য	-9544
▁রাইডে	-9545
▁ল্যাব	-9546
▁সকলকে	-9547
▁স্কেট	-9548
ulation	-9549
▁adding	-9550
▁circum	-9551
▁groups	-9552
▁months	-9553
▁অসমতার	-9554
▁আপনাকে	-9555
▁ইন্টার	-9556
▁ইমেলের	-9557
▁ক্রমটি	-9558
▁ছায়ার	-9559
▁ধারকের	-9560
▁পঞ্চাশ	-9561
▁পাঠাতে	-9562
▁বসন্তে	-9563
▁বিষয়ই	-9564
▁ভ্যাকু	-9565
▁শতাব্দ	-9566
▁শিয়াল	-9567
▁শিল্পী	-9568
▁সমতলের	-9569
▁হারাতে	-9570
অন্যান্য	-9571
মেলোভাবে	-9572
▁Initial	-9573
▁segment	-9574
▁অস্পষ্ট	-9575
▁অ্যামির	-9576
▁কর্মীরা	-9577
▁গ্রিডের	-9578
▁ছাত্রটি	-9579
▁জিনিসটি	-9580
▁ট্র্যাশ	-9581
▁দ্রবণের	-9582
▁নাম্বার	-9583
▁ন্যায্য	-9584
▁প্রোডাক	-9585
▁বাসিন্দ	-9586
▁বিক্রিত	-9587
▁বিলিয়ন	-9588
▁লগারিদম	-9589
exclusion	-9590
▁division	-9591
▁products	-9592
▁segments	-9593
▁অধ্যায়ে	-9594
▁অ্যান্ডি	-9595
▁আমেরিকান	-9596
▁ইসাবেলার	-9597
▁চিঠিপত্র	-9598
▁ড্রাইভার	-9599
▁দাঁড়াতে	-9600
▁পিজ্জাতে	-9601
▁পুরস্কার	-9602
▁প্যাকেজে	-9603
▁মোমবাতির	-9604
▁inclusion	-9605
▁অ্যান্টিফ	-9606
▁কারুশিল্প	-9607
▁কার্লোসের	-9608
▁নিরাপত্তা	-9609
▁ভ্যারিয়ে	-9610
▁হার্ডকভার	-9611
পুনরাবৃত্তি	-9612
শীর্ষবিন্দু	-9613
▁পুরষ্কারের	-9614
▁ব্যক্তিটির	-9615
▁ব্যাগপ্যাক	-9616
▁হাইড্রোজেন	-9617
▁এলোমেলোভাবে	-9618
▁জিনিসপত্রের	-9619
▁দ্বিতীয়বার	-9620
▁ব্যঞ্জনবর্ণ	-9621
▁শ্রেণীকক্ষে	-9622
▁জীববিজ্ঞানের	-9623
▁রেফ্রিজারেটর	-9624
▁ব্যাটসম্যানের	-9625
▁অ্যালুমিনিয়াম	-9626
.\	-9627
\-	-9628
`.	-9629
sl	-9630
।"	-9631
।}	-9632
আই	-9633
উম	-9634
কৃ	-9635
পণ	-9636
big	-9637
ero	-9638
new	-9639
vel	-9640
জনক	-9641
নকে	-9642
পাস	-9643
র্চ	-9644
শতক	-9645
ৈমা	-9646
▁Ar	-9647
▁BD	-9648
▁PV	-9649
▁en	-9650
▁ওক	-9651
▁পড	-9652
▁রৌ	-9653
ides	-9654
vers	-9655
vies	-9656
কায়	-9657
কোনও	-9658
টুকু	-9659
নীয়	-9660
ফটটি	-9661
বায়	-9662
য়েট	-9663
লাইন	-9664
লিটি	-9665
শর্ত	-9666
ালিত	-9667
্রাই	-9668
্ষিত	-9669
▁ADE	-9670
▁Odd	-9671
▁Try	-9672
▁\\)	-9673
▁lit	-9674
▁অবস	-9675
▁উইল	-9676
▁এমা	-9677
▁ওঠে	-9678
▁কীথ	-9679
▁গলে	-9680
▁টেল	-9681
▁ডাঃ	-9682
▁দিব	-9683
▁মলি	-9684
▁রেট	-9685
▁শীট	-9686
asure	-9687
ature	-9688
এখানে	-9689
ট্যাক	-9690
নিকার	-9691
বিহীন	-9692
মেনের	-9693
ল্ডার	-9694
ানায়	-9695
ীবদ্ধ	-9696
্রবার	-9697
▁Form	-9698
▁\)).	-9699
▁fact	-9700
▁আবরণ	-9701
▁আসেন	-9702
▁গার্	-9703
▁গ্রো	-9704
▁জেরে	-9705
▁টর্চ	-9706
▁দোলা	-9707
▁পশুচ	-9708
▁পুডল	-9709
▁ভূমি	-9710
▁যতটি	-9711
▁শরবত	-9712
▁শুশু	-9713
▁সচিব	-9714
▁সিরা	-9715
▁হলের	-9716
action	-9717
pected	-9718
second	-9719
ট্রনিক	-9720
ন্ডারে	-9721
▁Rafid	-9722
▁hands	-9723
▁অঙ্কে	-9724
▁আক্রম	-9725
▁আয়কে	-9726
▁কার্ল	-9727
▁খরচকে	-9728
▁গালিব	-9729
▁জাহিদ	-9730
▁থলেতে	-9731
▁বিবরণ	-9732
▁বোল্ট	-9733
▁মজুরি	-9734
▁মোড়ক	-9735
▁রাফির	-9736
▁লিমার	-9737
▁লেবেল	-9738
▁শুটিং	-9739
▁স্ত্র	-9740
▁হেলির	-9741
ঙ্ক্ষিত	-9742
মেন্টের	-9743
▁Volume	-9744
▁binary	-9745
▁double	-9746
▁movies	-9747
▁obtain	-9748
▁sheets	-9749
▁symmet	-9750
▁অফিসের	-9751
▁অলিভার	-9752
▁অস্বীক	-9753
▁কিনলেন	-9754
▁কোর্সে	-9755
▁চন্দ্র	-9756
▁চাবিকে	-9757
▁ডানদিক	-9758
▁দুজনকে	-9759
▁নেমেছে	-9760
▁পাবলিক	-9761
▁প্যানে	-9762
▁প্রজেক	-9763
▁বইগুলি	-9764
▁বস্তার	-9765
▁বৃত্তি	-9766
▁বেকারি	-9767
▁ভূমিতে	-9768
▁মিলনের	-9769
equality	-9770
সম্পূর্ণ	-9771
▁contrib	-9772
▁defined	-9773
▁leaving	-9774
▁pencils	-9775
▁ইভেন্টে	-9776
▁এগুলিকে	-9777
▁এলিজাবে	-9778
▁ক্লিনার	-9779
▁গ্রুপকে	-9780
▁ট্যাংকে	-9781
▁ভালুকের	-9782
▁মার্কাস	-9783
▁মিনিটকে	-9784
▁রাজ্যের	-9785
▁সেগুলোর	-9786
▁স্ট্যাক	-9787
▁স্তম্ভে	-9788
ট্রিক্সের	-9789
সর্বনিম্ন	-9790
▁Consider	-9791
▁approach	-9792
▁tangents	-9793
▁vertices	-9794
▁অভ্যন্তর	-9795
▁ক্লাসরুম	-9796
▁ডানদিকের	-9797
▁তুষারপাত	-9798
▁প্রজাতির	-9799
▁ব্যাটারি	-9800
▁শ্রমিকের	-9801
▁সৈন্যদের	-9802
কল্পকাহিনী	-9803
▁passenger	-9804
▁অভিজ্ঞতার	-9805
▁জোড়াগুলি	-9806
▁নির্ভরশীল	-9807
▁পার্কারের	-9808
▁পিতামাতার	-9809
▁প্রয়োগের	-9810
▁ইলেকট্রনিক	-9811
▁কুকুরছানার	-9812
▁ব্যবসায়িক	-9813
▁লাইব্রেরির	-9814
▁সংখ্যাটিতে	-9815
উদাহরণস্বরূপ	-9816
▁ইঞ্জিনিয়ার	-9817
▁ফেব্রুয়ারী	-9818
▁বৃষ্টিপাতের	-9819
▁চালিয়েছিলেন	-9820
▁দুর্ভাগ্যবশত	-9821
▁শিক্ষার্থীকে	-9822
▁সপ্তাহান্তের	-9823
▁ক্যালকুলেটরের	-9824
Ca	-9825
EF	-9826
aw	-9827
kh	-9828
km	-9829
ঁধ	-9830
কন	-9831
ণু	-9832
দো	-9833
ধর	-9834
হো	-9835
)$$	-9836
abi	-9837
ots	-9838
চলক	-9839
ভুই	-9840
ভোগ	-9841
ময়	-9842
রিস	-9843
সিন	-9844
ালু	-9845
্বং	-9846
▁De	-9847
▁PR	-9848
▁em	-9849
▁আভ	-9850
▁গভ	-9851
▁জম	-9852
▁নল	-9853
▁হত	-9854
$**:	-9855
amma	-9856
cube	-9857
etra	-9858
ংকটি	-9859
ংক্র	-9860
ঞ্জি	-9861
ভালো	-9862
শাকে	-9863
সাইন	-9864
োমের	-9865
্তার	-9866
্রার	-9867
▁dis	-9868
▁sit	-9869
▁sug	-9870
▁তান	-9871
▁ফটো	-9872
▁ফেস	-9873
▁মাল	-9874
▁মোজ	-9875
ifies	-9876
month	-9877
sided	-9878
ক্রমে	-9879
জ্জার	-9880
দেশ্য	-9881
পেক্ষ	-9882
মারের	-9883
মুক্ত	-9884
লিপের	-9885
িলারা	-9886
▁rule	-9887
▁অসীম	-9888
▁ইউএস	-9889
▁উত্থ	-9890
▁এন্ট	-9891
▁গল্ফ	-9892
▁টেডি	-9893
▁তরুণ	-9894
▁তিমি	-9895
▁দাদু	-9896
▁ধারক	-9897
▁বলকে	-9898
▁বাজি	-9899
▁মূলদ	-9900
▁যাকে	-9901
▁যুগল	-9902
▁যুনা	-9903
▁রবির	-9904
▁রুবি	-9905
▁হুইল	-9906
▁হোসে	-9907
argest	-9908
finite	-9909
চিত্রে	-9910
প্রস্থ	-9911
ভ্যাংশ	-9912
ায়নিক	-9913
্লোরিক	-9914
▁speed	-9915
▁আসবাব	-9916
▁উপভোগ	-9917
▁কংক্র	-9918
▁কম্বল	-9919
▁কাইলি	-9920
▁কেভিন	-9921
▁গ্লাভ	-9922
▁ঘনফুট	-9923
▁ঘুমের	-9924
▁চাচার	-9925
▁জামাল	-9926
▁প্যার	-9927
▁বণ্টন	-9928
▁বাজবে	-9929
▁ভাষার	-9930
▁মারার	-9931
▁মিলির	-9932
▁রক্ষণ	-9933
▁রাশেল	-9934
▁রিটার	-9935
▁শেখার	-9936
▁সেখান	-9937
▁সেটআপ	-9938
প্যাকেট	-9939
বোর্ডের	-9940
সমস্যার	-9941
▁counts	-9942
▁eating	-9943
▁exceed	-9944
▁অলিম্প	-9945
▁অসম্ভব	-9946
▁এনেছিল	-9947
▁এরিকের	-9948
▁কাটাতে	-9949
▁কিশমিশ	-9950
▁গ্রিডে	-9951
▁চাকরির	-9952
▁ডিজাইন	-9953
▁থালায়	-9954
▁পূরণের	-9955
▁ফায়ার	-9956
▁বিয়ান	-9957
▁ব্লাউজ	-9958
▁মাকসুদ	-9959
▁মিনয়ং	-9960
▁মুদ্রণ	-9961
▁ম্যাডি	-9962
▁লাগায়	-9963
▁লিটারে	-9964
▁শতাভুই	-9965
▁সিংহের	-9966
Solution	-9967
কাউন্টের	-9968
সর্বোচ্চ	-9969
সাইকেলের	-9970
▁octopus	-9971
▁ইয়ানের	-9972
▁উভয়কেই	-9973
▁কবুতরের	-9974
▁জোহানের	-9975
▁জ্যাকির	-9976
▁পিছিয়ে	-9977
▁প্যাটির	-9978
▁ফলাফলকে	-9979
▁ফ্রেমের	-9980
▁বহুভুজে	-9981
▁ব্যাসের	-9982
▁মূলধনের	-9983
▁মেলিসার	-9984
▁রেবেকার	-9985
▁লভ্যাংশ	-9986
▁ল্যাপটি	-9987
▁সমাধানে	-9988
▁সম্পাদন	-9989
▁Analysis	-9990
▁Starting	-9991
▁teachers	-9992
▁ওয়েণ্ডি	-9993
▁কুকুরদের	-9994
▁কেন্দ্রা	-9995
▁ক্রিস্টি	-9996
▁গ্রীষ্মে	-9997
▁জুলিয়ার	-9998
▁ডাকটিকিট	-9999
▁ডায়ানার	-10000
▁তোতাপাখি	-10001
▁দেয়ালের	-10002
▁পদগুলোকে	-10003
▁মানচিত্র	-10004
▁মানুষদের	-10005
▁রবার্টের	-10006
▁সূর্যমুখ	-10007
▁স্বরবর্ণ	-10008
chocolates	-10009
etrahedron	-10010
প্রত্যাশিত	-10011
▁Shahriyar	-10012
▁অনুসন্ধান	-10013
▁আসবাবপত্র	-10014
▁উপায়গুলি	-10015
▁ক্ষেত্রেই	-10016
▁ফারেনহাইট	-10017
▁ভবিষ্যতের	-10018
▁ভেরিয়েবল	-10019
▁ম্যাক্সের	-10020
▁যানবাহনের	-10021
▁সময়কালের	-10022
▁স্প্যানিশ	-10023
বৃহস্পতিবার	-10024
▁কর্মশালায়	-10025
▁ক্রোয়াসান	-10026
▁অ্যালার্জির	-10027
▁উপাদানগুলির	-10028
▁ক্রিস্টোফার	-10029
▁গ্রেমলিনদের	-10030
▁প্রেক্ষাপটে	-10031
▁ট্র্যাপিজয়ে	-10032
▁কিন্ডারগার্টে	-10033
▁হাইড্রোক্লোরিক	-10034
▁ফ্যাক্টোরাইজেশন	-10035
Ap	-10036
\&	-10037
hr	-10038
ডল	-10039
ষি	-10040
াউ	-10041
!$.	-10042
Max	-10043
jat	-10044
oks	-10045
}{-	-10046
কান	-10047
খির	-10048
চাপ	-10049
ঠিত	-10050
তলে	-10051
পির	-10052
রটি	-10053
সমূ	-10054
েতে	-10055
্ষণ	-10056
▁AM	-10057
▁By	-10058
▁CI	-10059
▁It	-10060
▁On	-10061
▁অল	-10062
▁আধ	-10063
▁ইস	-10064
▁ওল	-10065
▁তহ	-10066
▁রী	-10067
base	-10068
ived	-10069
oten	-10070
আয়ত	-10071
কমলা	-10072
ড্রা	-10073
বিনে	-10074
স্থল	-10075
িরগি	-10076
্তুজ	-10077
্বংস	-10078
▁\(|	-10079
▁few	-10080
▁run	-10081
▁sel	-10082
▁কলো	-10083
▁কূপ	-10084
▁জলজ	-10085
▁দ্য	-10086
▁নর্	-10087
▁পশম	-10088
▁পাও	-10089
▁মিচ	-10090
▁রিচ	-10091
▁শসা	-10092
▁শ্ব	-10093
sigma	-10094
start	-10095
এককের	-10096
গামীক	-10097
জেলের	-10098
বুলের	-10099
শতকের	-10100
▁ones	-10101
▁phot	-10102
▁seat	-10103
▁vari	-10104
▁এমবি	-10105
▁কাজু	-10106
▁কানে	-10107
▁টনির	-10108
▁নীনা	-10109
▁মারি	-10110
▁শপিং	-10111
factor	-10112
inimum	-10113
ভাগশেষ	-10114
শিরভাগ	-10115
ষ্টব্য	-10116
▁Rajat	-10117
▁makes	-10118
▁progr	-10119
▁অসঙ্গ	-10120
▁অ্যাড	-10121
▁আপলোড	-10122
▁উৎসবে	-10123
▁কমেছে	-10124
▁কারেন	-10125
▁গিরগি	-10126
▁চৌদ্দ	-10127
▁ছোট্ট	-10128
▁জিয়া	-10129
▁জ্বলে	-10130
▁ট্যান	-10131
▁ট্রাই	-10132
▁দ্রবণ	-10133
▁নাচের	-10134
▁নিলয়	-10135
▁পারার	-10136
▁পুলটি	-10137
▁বেয়ে	-10138
▁ব্রাশ	-10139
▁মারিও	-10140
▁লবণের	-10141
▁লুকাস	-10142
▁সেটিং	-10143
▁সেশনে	-10144
▁স্তবক	-10145
imizing	-10146
▁Tushar	-10147
▁amount	-10148
▁diagon	-10149
▁direct	-10150
▁অবস্থা	-10151
▁উত্তোল	-10152
▁কার্টে	-10153
▁গল্পের	-10154
▁চতুস্ত	-10155
▁চলেছিল	-10156
▁চ্যালে	-10157
▁ছেলেরা	-10158
▁জ্যাসন	-10159
▁দলটিতে	-10160
▁নির্মা	-10161
▁ভ্যানে	-10162
▁মনোযোগ	-10163
▁মাইনাস	-10164
▁মাটিতে	-10165
▁রাজ্যে	-10166
▁সুন্দর	-10167
▁সোনালি	-10168
▁স্টাফড	-10169
smallest	-10170
হ্রাসমান	-10171
▁অধ্যাপক	-10172
▁কার্তুজ	-10173
▁ঘনমিটার	-10174
▁ট্রোলের	-10175
▁পার্কের	-10176
▁বইগুলির	-10177
▁বাড়াতে	-10178
▁বিবাহের	-10179
▁মহিলারা	-10180
▁রান্নার	-10181
▁রিটার্ন	-10182
▁স্ত্রীর	-10183
▁স্প্রিং	-10184
▁স্যামির	-10185
▁________	-10186
▁constant	-10187
▁continue	-10188
▁infinite	-10189
▁obtained	-10190
▁outcomes	-10191
▁repeated	-10192
▁অন্যটিতে	-10193
▁তত্ত্বাব	-10194
▁পর্যায়ে	-10195
▁বেশিরভাগ	-10196
▁মুখমূল্য	-10197
▁ম্যাঙ্গো	-10198
▁র্যান্ডম	-10199
▁লাইসেন্স	-10200
▁শাকসবজির	-10201
▁Determine	-10202
▁এডওয়ার্ড	-10203
▁কেন্দ্রের	-10204
▁নির্দেশিত	-10205
▁ন্যান্সির	-10206
▁পদক্ষেপের	-10207
▁রাসায়নিক	-10208
▁সংস্করণের	-10209
▁সম্পর্কের	-10210
▁mathematic	-10211
▁অভিভাবকদের	-10212
▁প্রথমবারের	-10213
▁প্রদানকারী	-10214
▁প্রস্তাবনা	-10215
▁শিবিরার্থী	-10216
▁সেপ্টেম্বর	-10217
▁অ্যাঞ্জেলার	-10218
▁পরিবর্তনশীল	-10219
▁প্যাটার্নের	-10220
▁প্রশিক্ষণের	-10221
▁শিবিরার্থীর	-10222
▁arrangements	-10223
▁কর্মকর্তাদের	-10224
▁শিক্ষাবর্ষের	-10225
▁ক্যাফেটেরিয়া	-10226
▁টুর্নামেন্টের	-10227
▁পূর্ণসংখ্যাকে	-10228
\,	-10229
কত	-10230
গম	-10231
তই	-10232
থন	-10233
ষক	-10234
,\)	-10235
.**	-10236
Day	-10237
^{-	-10238
ali	-10239
amb	-10240
ani	-10241
par	-10242
কলা	-10243
ডিম	-10244
ধরি	-10245
ভেদ	-10246
শবা	-10247
াকল	-10248
েয়	-10249
্যে	-10250
▁Tr	-10251
▁এস	-10252
▁ডন	-10253
▁তক	-10254
)}{\	-10255
ands	-10256
lamb	-10257
গ্রা	-10258
চ্যু	-10259
পরীত	-10260
য়াক	-10261
হ্যা	-10262
াকৃত	-10263
▁BAC	-10264
▁ass	-10265
▁car	-10266
▁due	-10267
▁আকা	-10268
▁দাত	-10269
▁ধান	-10270
▁নান	-10271
▁বোর	-10272
▁রিজ	-10273
▁রৌপ	-10274
▁লঙ্	-10275
slant	-10276
units	-10277
ইঞ্চি	-10278
খানার	-10279
ঞ্জের	-10280
পুরুষ	-10281
পূর্ব	-10282
বার্ত	-10283
য়মের	-10284
রাফের	-10285
লেটিক	-10286
াইনের	-10287
ার্ধে	-10288
ীক্ষা	-10289
▁Beng	-10290
▁Team	-10291
▁diam	-10292
▁move	-10293
▁semi	-10294
▁size	-10295
▁stra	-10296
▁আঙ্গ	-10297
▁কামর	-10298
▁ঘটতে	-10299
▁টবির	-10300
▁পুরু	-10301
▁ফ্লা	-10302
▁বলয়	-10303
▁ভাইস	-10304
▁রয়ে	-10305
▁সাশা	-10306
append	-10307
atches	-10308
lambda	-10309
গতভাবে	-10310
দশমিকে	-10311
দানিতে	-10312
ভূমিতে	-10313
মন্টের	-10314
য়াসের	-10315
্যাসের	-10316
▁fruit	-10317
▁items	-10318
▁miles	-10319
▁আতশবা	-10320
▁আলিসা	-10321
▁কবিতা	-10322
▁করায়	-10323
▁কার্য	-10324
▁কিনছে	-10325
▁গড়কে	-10326
▁গতিকে	-10327
▁গভর্ন	-10328
▁চল্লি	-10329
▁জরিপে	-10330
▁ড্রেস	-10331
▁তক্তা	-10332
▁দাদীর	-10333
▁দানের	-10334
▁দেখুন	-10335
▁ধ্বংস	-10336
▁পড়লে	-10337
▁পাতলা	-10338
▁পেনির	-10339
▁ফিতের	-10340
▁ফিল্ড	-10341
▁বর্গে	-10342
▁বলেছে	-10343
▁বেকিং	-10344
▁ব্রিক	-10345
▁মালের	-10346
▁রুবির	-10347
▁রোগীর	-10348
▁লড়াই	-10349
▁লোকটি	-10350
▁শৈবাল	-10351
▁সবজির	-10352
▁সরানো	-10353
otenuse	-10354
riginal	-10355
য়র্কের	-10356
স্তারিত	-10357
▁Digits	-10358
▁Second	-10359
▁closed	-10360
▁having	-10361
▁placed	-10362
▁simple	-10363
▁অ্যাপে	-10364
▁আগামীক	-10365
▁আয়োজক	-10366
▁ওষুধের	-10367
▁কর্মদি	-10368
▁কেটেছে	-10369
▁ক্রিকে	-10370
▁ঘনকটির	-10371
▁ঘুমাতে	-10372
▁চমৎকার	-10373
▁চার্লস	-10374
▁ছিঁড়ে	-10375
▁জুয়ান	-10376
▁জেসমিন	-10377
▁তারিখে	-10378
▁দক্ষতা	-10379
▁দেরিতে	-10380
▁বর্ণনা	-10381
▁বলগুলো	-10382
▁বারোজন	-10383
▁বাসায়	-10384
▁মিয়ার	-10385
▁যাতায়	-10386
▁যোগফলও	-10387
▁সার্ভি	-10388
▁সিটিতে	-10389
▁স্প্রে	-10390
▁হাড়ের	-10391
দ্বন্দ্ব	-10392
▁Bengali	-10393
▁candies	-10394
▁increas	-10395
▁present	-10396
▁অভিযানে	-10397
▁অ্যালকো	-10398
▁উপসেটের	-10399
▁কম্বলের	-10400
▁তিনজনকে	-10401
▁দৌড়াবে	-10402
▁পদগুলির	-10403
▁পরিধিতে	-10404
▁পুকুরের	-10405
▁প্যাকের	-10406
▁প্রাচীন	-10407
▁বাক্সটি	-10408
▁মানুষকে	-10409
▁হৃদয়ের	-10410
▁Fraction	-10411
▁binomial	-10412
▁অবিবাহিত	-10413
▁ওলিভিয়া	-10414
▁দর্শকদের	-10415
▁পেনাল্টি	-10416
▁বুকমার্ক	-10417
▁ভিভিয়ান	-10418
▁মিনিবাসে	-10419
▁শয়নকক্ষ	-10420
▁শর্তগুলো	-10421
▁সংক্ষেপে	-10422
▁incorrect	-10423
▁repeating	-10424
▁ডেজার্টের	-10425
▁পেট্রোলের	-10426
▁ফ্রাঙ্কের	-10427
▁বাক্সগুলি	-10428
▁ব্যবস্থিত	-10429
▁সংগ্রহকৃত	-10430
▁সিলিন্ডার	-10431
▁Difference	-10432
▁কোষাধ্যক্ষ	-10433
▁ক্রমিকভাবে	-10434
▁গুণনীয়কের	-10435
▁চেকপয়েন্ট	-10436
▁পরিসংখ্যান	-10437
▁বিকল্পভাবে	-10438
▁ব্রেসলেটের	-10439
▁যোগদানকারী	-10440
▁সমদ্বিখণ্ড	-10441
▁সাইক্লিস্ট	-10442
▁হিপোপটামাস	-10443
▁tetrahedron	-10444
▁পরীক্ষার্থী	-10445
▁পাঠ্যপুস্তক	-10446
▁ভগ্নাংশগুলি	-10447
▁পুনরাবৃত্তির	-10448
▁বর্গক্ষেত্রে	-10449
▁পাঠ্যপুস্তকের	-10450
▁প্রতিদ্বন্দ্ব	-10451
▁ব্যবস্থাপূর্ণ	-10452
▁ফ্যাক্টরাইজেশন	-10453
▁হ্যামবার্গারের	-10454
+(	-10455
ih	-10456
se	-10457
ইং	-10458
ওন	-10459
ঙা	-10460
বী	-10461
)!)	-10462
**,	-10463
Set	-10464
ads	-10465
oni	-10466
sub	-10467
}$:	-10468
কোল	-10469
তেন	-10470
ব্ল	-10471
মেট	-10472
মোক	-10473
রবি	-10474
্যং	-10475
্যো	-10476
▁)।	-10477
▁>>	-10478
▁ga	-10479
▁sn	-10480
▁ইর	-10481
▁চট	-10482
▁ভু	-10483
Dist	-10484
\}\)	-10485
aded	-10486
apez	-10487
avor	-10488
nder	-10489
orst	-10490
ইনার	-10491
ডিবা	-10492
ত্বে	-10493
বক্স	-10494
বাবা	-10495
বুকে	-10496
সদৃশ	-10497
্তির	-10498
্বির	-10499
▁\,\	-10500
▁win	-10501
▁won	-10502
▁উপে	-10503
▁উলু	-10504
▁কাম	-10505
▁জিশ	-10506
▁ঝুল	-10507
▁দাও	-10508
▁নাচ	-10509
▁পাপ	-10510
▁রুশ	-10511
▁ষোল	-10512
First	-10513
ables	-10514
iding	-10515
ordin	-10516
অ্যাপ	-10517
কমিটি	-10518
ঙ্গের	-10519
ড়কের	-10520
তৃত্ব	-10521
পাখির	-10522
বাড়ি	-10523
মিনের	-10524
য়ানা	-10525
য়ানো	-10526
সুনের	-10527
াক্ষা	-10528
▁\]\[	-10529
▁bact	-10530
▁root	-10531
▁কঠোর	-10532
▁কাঁচ	-10533
▁ঘরটি	-10534
▁ঘিরে	-10535
▁জুতো	-10536
▁টার্	-10537
▁টেনে	-10538
▁তামা	-10539
▁থমাস	-10540
▁নখের	-10541
▁নিউই	-10542
▁মতিন	-10543
▁মহিষ	-10544
▁যত্ন	-10545
▁রাখল	-10546
▁রুপা	-10547
▁লুকা	-10548
▁লোলা	-10549
▁শোটি	-10550
▁সাফল	-10551
▁সুড়	-10552
▁সুবি	-10553
digits	-10554
ession	-10555
ডিয়ার	-10556
লিফোর্	-10557
লিয়ার	-10558
ার্টের	-10559
ার্ডের	-10560
▁\)**:	-10561
▁areas	-10562
▁books	-10563
▁bulbs	-10564
▁empty	-10565
▁অ্যাস	-10566
▁আভাকা	-10567
▁আলীসা	-10568
▁ইউনার	-10569
▁ইয়ান	-10570
▁একাডে	-10571
▁কিনলে	-10572
▁কেটির	-10573
▁কেটের	-10574
▁ক্যাট	-10575
▁খুঁটি	-10576
▁চাবির	-10577
▁জর্জি	-10578
▁জিহাদ	-10579
▁জেনার	-10580
▁ডেমোক	-10581
▁দামকে	-10582
▁পাড়ে	-10583
▁পোড়া	-10584
▁ফ্রান	-10585
▁বিচার	-10586
▁বেগুন	-10587
▁বেটির	-10588
▁মশরুম	-10589
▁মিটিং	-10590
▁রাস্প	-10591
▁শত্রু	-10592
▁শিহাব	-10593
▁সাশার	-10594
Initial	-10595
arrange	-10596
icircle	-10597
ঘণ্টায়	-10598
সংস্থান	-10599
সাইকেলে	-10600
▁approx	-10601
▁ending	-10602
▁growth	-10603
▁photos	-10604
▁অনিকের	-10605
▁আলীসার	-10606
▁ইস্টার	-10607
▁গভর্নর	-10608
▁জানায়	-10609
▁জাহাজে	-10610
▁ট্যাটু	-10611
▁ত্রৈমা	-10612
▁নাটাসা	-10613
▁নাশতার	-10614
▁নৌকায়	-10615
▁পায়নি	-10616
▁বর্ণিত	-10617
▁মেরিকে	-10618
▁রাইডের	-10619
▁শস্যের	-10620
▁হিন্দি	-10621
avorable	-10622
izations	-10623
টেরিয়ার	-10624
শুক্রবার	-10625
সমীকরণটি	-10626
▁Constra	-10627
▁Fridays	-10628
▁measure	-10629
▁অতিথিকে	-10630
▁আনারসের	-10631
▁ইস্ত্রি	-10632
▁কোনওটিই	-10633
▁ক্রিস্ত	-10634
▁গ্রুপিং	-10635
▁জিতেছিল	-10636
▁টাইয়ের	-10637
▁টুকরোটি	-10638
▁ট্রান্স	-10639
▁দেখানোর	-10640
▁নম্বরটি	-10641
▁নেতৃত্ব	-10642
▁পেঁয়াজ	-10643
▁বানানোর	-10644
▁ব্যবধান	-10645
▁মহাকাশয	-10646
▁যুক্তরা	-10647
▁শঙ্কুতে	-10648
▁সামগ্রী	-10649
▁স্প্রিন	-10650
▁স্বামীর	-10651
▁স্মার্ট	-10652
▁স্যুপের	-10653
remainder	-10654
▁directly	-10655
▁straight	-10656
▁আশেপাশের	-10657
▁এপ্রিলের	-10658
▁ওভারটাইম	-10659
▁কোয়াটার	-10660
▁গ্যালনের	-10661
▁চাবিকাঠি	-10662
▁ডিসেম্বর	-10663
▁পয়েন্টে	-10664
▁পরিচালিত	-10665
▁প্রথমবার	-10666
▁বাড়ানোর	-10667
▁বাহুগুলি	-10668
▁সান্দ্রা	-10669
▁সেগুলিকে	-10670
Difference	-10671
▁Divisible	-10672
▁factorize	-10673
▁numerator	-10674
▁অ্যাসিডের	-10675
▁ওয়েটারের	-10676
▁কার্যকলাপ	-10677
▁ভাইবোনদের	-10678
▁মানচিত্রে	-10679
▁রাস্পবেরি	-10680
▁লাগিয়েছে	-10681
▁সংমিশ্রণে	-10682
▁সমীকরণটির	-10683
▁সম্পত্তির	-10684
▁Conditions	-10685
▁hypotenuse	-10686
▁অনুপাতগুলি	-10687
▁ক্লেয়ারের	-10688
▁ডাকটিকিটের	-10689
▁দৃশ্যকল্পে	-10690
▁দৌড়েছিলেন	-10691
▁ব্যবসায়ীর	-10692
▁শ্রেণীবদ্ধ	-10693
▁expressions	-10694
▁কার্যকলাপের	-10695
▁চতুর্থাংশের	-10696
▁অনুভূমিকভাবে	-10697
▁সংমিশ্রণগুলি	-10698
▁অ্যান্টিফ্রিজ	-10699
▁প্রতিস্থাপনের	-10700
/(	-10701
AO	-10702
ff	-10703
xx	-10704
ঘর	-10705
মল	-10706
)!]	-10707
_{-	-10708
eon	-10709
hat	-10710
ner	-10711
non	-10712
কির	-10713
গিল	-10714
দলে	-10715
পেন	-10716
প্ন	-10717
প্প	-10718
▁He	-10719
▁ডর	-10720
▁সফ	-10721
*}\]	-10722
\\).	-10723
ical	-10724
ixed	-10725
omic	-10726
ping	-10727
ript	-10728
অতএব	-10729
উপরে	-10730
জাতে	-10731
জারে	-10732
তুতে	-10733
নালে	-10734
পাঁচ	-10735
বক্ত	-10736
বসাই	-10737
বিবে	-10738
ভানা	-10739
▁\(-	-10740
▁abc	-10741
▁had	-10742
▁whe	-10743
▁অনি	-10744
▁ওপর	-10745
▁টান	-10746
▁তাও	-10747
▁দাল	-10748
▁দিত	-10749
▁নেড	-10750
▁ফুস	-10751
▁বরং	-10752
▁বুল	-10753
▁মধু	-10754
▁রেস	-10755
▁রোব	-10756
▁শিক	-10757
▁সেগ	-10758
▁হিজ	-10759
▁হুপ	-10760
ersec	-10761
overl	-10762
উপরের	-10763
গেটিভ	-10764
গ্রিম	-10765
জেশনে	-10766
ণিজ্য	-10767
নায়ে	-10768
ব্রিক	-10769
য়ামি	-10770
সিয়ে	-10771
সেজের	-10772
াকৃতি	-10773
ুদ্রে	-10774
▁Dece	-10775
▁near	-10776
▁remo	-10777
▁অনিক	-10778
▁আকাশ	-10779
▁ইস্প	-10780
▁কর্প	-10781
▁কল্প	-10782
▁ক্রু	-10783
▁গিফট	-10784
▁গ্লু	-10785
▁চলুন	-10786
▁ছিদে	-10787
▁ডাম্	-10788
▁দাবা	-10789
▁নিকি	-10790
▁নিলো	-10791
▁নেতা	-10792
▁পরেও	-10793
▁পোষে	-10794
▁ফর্ম	-10795
▁বামে	-10796
▁ভবনে	-10797
▁র্যা	-10798
▁লরির	-10799
▁লুইস	-10800
▁সেনা	-10801
▁হলেও	-10802
▁হাবি	-10803
Combin	-10804
letter	-10805
nomial	-10806
প্রিয়	-10807
মিথ্যা	-10808
লোয়ার	-10809
শিয়ার	-10810
▁Range	-10811
▁meter	-10812
▁still	-10813
▁under	-10814
▁অন্তঃ	-10815
▁আগামী	-10816
▁জ্যাজ	-10817
▁জ্যাম	-10818
▁ঝাড়ু	-10819
▁টিকবে	-10820
▁টিয়া	-10821
▁ট্রিট	-10822
▁ট্রের	-10823
▁ডায়া	-10824
▁ডোডেক	-10825
▁নদীতে	-10826
▁পাঠের	-10827
▁প্লাম	-10828
▁ফিনিশ	-10829
▁বেনির	-10830
▁ব্রুস	-10831
▁ব্লকে	-10832
▁মনিকা	-10833
▁মাস্ক	-10834
▁লঙ্ঘন	-10835
▁লুসির	-10836
▁শিপিং	-10837
▁সিগাল	-10838
▁সীমান	-10839
▁স্টোর	-10840
ovember	-10841
কমপক্ষে	-10842
বক্তব্য	-10843
মিনিটের	-10844
স্কালের	-10845
্যারনের	-10846
▁Rashik	-10847
▁pizzas	-10848
▁script	-10849
▁subset	-10850
▁vaults	-10851
▁অগ্রিম	-10852
▁কমানোর	-10853
▁কিভাবে	-10854
▁ছয়গুণ	-10855
▁জরিপের	-10856
▁ট্রেসি	-10857
▁দাতব্য	-10858
▁দেখাবে	-10859
▁দ্রবণে	-10860
▁ধনসম্প	-10861
▁পান্ডা	-10862
▁বক্তৃত	-10863
▁মেঝেতে	-10864
▁শূকরের	-10865
▁শেল্ফে	-10866
▁স্বপ্ন	-10867
▁হাঁটতে	-10868
▁derived	-10869
▁further	-10870
▁আঙ্গুলে	-10871
▁উপেক্ষা	-10872
▁এগারোটি	-10873
▁কামালের	-10874
▁কারনেশন	-10875
▁কোস্টার	-10876
▁জরিমানা	-10877
▁জিঞ্জার	-10878
▁ডিগ্রির	-10879
▁দিয়েছি	-10880
▁দূরত্বে	-10881
▁পিয়ানো	-10882
▁প্যাট্র	-10883
▁বাণিজ্য	-10884
▁ব্রুসের	-10885
▁মাত্রার	-10886
▁মিলন্তে	-10887
▁ম্যাকার	-10888
▁সমুদ্রে	-10889
▁স্টেশনে	-10890
▁December	-10891
▁Original	-10892
▁approxim	-10893
▁diameter	-10894
▁property	-10895
▁অ্যাসাইন	-10896
▁ইউয়ানের	-10897
▁ইভেন্টের	-10898
▁উদ্দেশ্য	-10899
▁ওয়েবসাই	-10900
▁ক্রিয়াক	-10901
▁খাওয়ায়	-10902
▁গোলকিপার	-10903
▁চিত্রটির	-10904
▁জেসিকাকে	-10905
▁টিউলিপের	-10906
▁পঞ্চাশটি	-10907
▁প্রবাহের	-10908
▁বিয়োগের	-10909
▁ব্যাঙ্কে	-10910
▁ব্রেন্ডা	-10911
▁মেরামতের	-10912
▁সরলরেখার	-10913
▁সামগ্রিক	-10914
▁স্পষ্টতই	-10915
▁স্লাইসের	-10916
▁Remainder	-10917
▁birthdays	-10918
▁multiplic	-10919
▁recursive	-10920
▁ঘুমিয়েছে	-10921
▁জেনিফারের	-10922
▁থিয়েটারে	-10923
▁প্রশিক্ষক	-10924
▁বিক্রেতার	-10925
▁বিড়ালদের	-10926
▁ভগ্নাংশকে	-10927
▁ভাজকগুলির	-10928
▁মিলিমিটার	-10929
▁মিলিয়েছে	-10930
▁যাত্রীদের	-10931
▁শ্রমিকদের	-10932
▁অনুরূপভাবে	-10933
▁অ্যালবামের	-10934
▁ক্যান্টিনে	-10935
▁ক্যালিফোর্	-10936
▁গুণিতকগুলি	-10937
▁গ্রেমলিনের	-10938
▁ড্যানিয়েল	-10939
▁পোস্টকার্ড	-10940
▁প্রস্তুতির	-10941
▁বিভাজ্যতার	-10942
▁ভ্যাকুয়াম	-10943
▁ষড়ভুজাকার	-10944
▁সূর্যমুখীর	-10945
▁multiplying	-10946
▁subtracting	-10947
▁অধ্যয়নকারী	-10948
▁দৃষ্টিভঙ্গি	-10949
▁বিন্দুগুলির	-10950
▁Combinations	-10951
▁আয়তক্ষেত্রে	-10952
▁পর্যায়ক্রমে	-10953
▁পাইথাগোরাসের	-10954
▁ব্যবস্থাপকের	-10955
▁ব্যাকটেরিয়ার	-10956
▁factorizations	-10957
▁পূর্ণসংখ্যাগুলি	-10958
▁বিশ্ববিদ্যালয়ে	-10959
)-	-10960
An	-10961
PR	-10962
do	-10963
kg	-10964
py	-10965
আম	-10966
সৃ	-10967
**.	-10968
tin	-10969
uct	-10970
uit	-10971
}{(	-10972
}}}	-10973
আরো	-10974
কিড	-10975
কোচ	-10976
থিউ	-10977
দাই	-10978
পাথ	-10979
বিত	-10980
মহি	-10981
লিস	-10982
সুপ	-10983
িটো	-10984
▁AE	-10985
▁CO	-10986
▁Tk	-10987
▁sk	-10988
▁আহ	-10989
▁চু	-10990
▁জশ	-10991
!}\]	-10992
ffec	-10993
gons	-10994
ighb	-10995
lear	-10996
অবৈধ	-10997
গাছা	-10998
ফ্রে	-10999
মুরগ	-11000
যারা	-11001
লেটে	-11002
শ্যক	-11003
িদের	-11004
ুরির	-11005
▁Set	-11006
▁act	-11007
▁cer	-11008
▁cir	-11009
▁neg	-11010
▁rew	-11011
▁আঁক	-11012
▁আইন	-11013
▁কিং	-11014
▁চিফ	-11015
▁চের	-11016
▁জলক	-11017
▁ডার	-11018
▁দাউ	-11019
▁পরী	-11020
▁ফিও	-11021
▁ফ্ল	-11022
▁রশি	-11023
▁লরে	-11024
▁লিন	-11025
▁লিল	-11026
▁লেই	-11027
icity	-11028
oring	-11029
পালের	-11030
ফলাফল	-11031
লালের	-11032
ুটেশন	-11033
▁True	-11034
▁plus	-11035
▁sets	-11036
▁thus	-11037
▁অভিন	-11038
▁আলির	-11039
▁এমপি	-11040
▁ওরিও	-11041
▁কারো	-11042
▁কৃমি	-11043
▁খালা	-11044
▁জয়স	-11045
▁থার্	-11046
▁নেবো	-11047
▁ব্লে	-11048
▁মাপা	-11049
▁রুবল	-11050
▁লাফে	-11051
▁লিমন	-11052
▁সিটে	-11053
circle	-11054
column	-11055
ildren	-11056
mathbf	-11057
tended	-11058
কিয়ার	-11059
ফর্মের	-11060
▁____।	-11061
▁about	-11062
▁avoid	-11063
▁clock	-11064
▁plate	-11065
▁আগাছা	-11066
▁ওয়াল	-11067
▁কব্জি	-11068
▁কয়টা	-11069
▁কোচিং	-11070
▁কোটের	-11071
▁কোণার	-11072
▁ক্লিন	-11073
▁খোদাই	-11074
▁গ্রান	-11075
▁গ্রেট	-11076
▁জানান	-11077
▁জানেন	-11078
▁জেফের	-11079
▁জোসের	-11080
▁জ্ঞান	-11081
▁ট্রাম	-11082
▁থলিতে	-11083
▁থালার	-11084
▁পারতো	-11085
▁ফার্ন	-11086
▁বসালে	-11087
▁ভেস্ট	-11088
▁মিচেল	-11089
▁রুমির	-11090
▁রোজির	-11091
▁লিভিং	-11092
▁শারীর	-11093
▁শিখতে	-11094
▁শুষ্ক	-11095
▁সমতলে	-11096
▁স্টুল	-11097
▁হারান	-11098
▁হোটেল	-11099
Summing	-11100
অবশিষ্ট	-11101
ঘন্টায়	-11102
জান্ডার	-11103
বিবেচনা	-11104
▁consis	-11105
▁liters	-11106
▁reduce	-11107
▁simply	-11108
▁অঙ্ককে	-11109
▁অভিমুখ	-11110
▁অর্কিড	-11111
▁আবশ্যক	-11112
▁আরেকজন	-11113
▁উদ্ধার	-11114
▁করেননি	-11115
▁গুণফলে	-11116
▁গ্লাসে	-11117
▁চাইনিজ	-11118
▁চারবার	-11119
▁চিংড়ি	-11120
▁ট্যাকো	-11121
▁দক্ষিণ	-11122
▁দুটিতে	-11123
▁দৌড়ান	-11124
▁পঙক্তি	-11125
▁পাহাড়	-11126
▁বোনদের	-11127
▁ভরাটের	-11128
▁ম্যারা	-11129
▁রাশেলে	-11130
▁লায়লা	-11131
▁লুকানো	-11132
▁শরীরের	-11133
▁সুপারি	-11134
▁সোয়ান	-11135
▁হাঙ্গর	-11136
▁হ্যালো	-11137
possible	-11138
অনুভূমিক	-11139
▁context	-11140
▁nearest	-11141
▁picking	-11142
▁অগ্রগতি	-11143
▁অর্ধেকই	-11144
▁অ্যান্থ	-11145
▁অ্যাপার	-11146
▁আগ্রহের	-11147
▁আলমারির	-11148
▁উভয়টিই	-11149
▁কাচগুলো	-11150
▁ক্রেটের	-11151
▁গুণফলকে	-11152
▁জিরাফের	-11153
▁ডাম্বেল	-11154
▁ড্রিঙ্ক	-11155
▁দিচ্ছেন	-11156
▁নম্বরকে	-11157
▁পৌঁছেছে	-11158
▁বিছানার	-11159
▁বিশ্বাস	-11160
▁মিস্টার	-11161
▁মেশিনের	-11162
▁ম্যাথিউ	-11163
▁লাঞ্চের	-11164
▁সফলভাবে	-11165
▁সহপাঠীর	-11166
▁সাদিয়া	-11167
▁স্কোয়া	-11168
▁স্টোরেজ	-11169
▁স্তূপের	-11170
▁স্বাস্থ	-11171
▁হারুনের	-11172
ecreasing	-11173
▁birthday	-11174
▁circular	-11175
▁ensuring	-11176
▁negative	-11177
▁ইরেজারের	-11178
▁ক্যাম্পে	-11179
▁চারগুণের	-11180
▁তানিয়ার	-11181
▁দাঁড়ায়	-11182
▁নিরপেক্ষ	-11183
▁পিতামাতা	-11184
▁পুনরুদ্ধ	-11185
▁পেয়ারার	-11186
▁বক্তৃতার	-11187
▁বর্গফুটে	-11188
▁বিছানায়	-11189
▁বেকারিতে	-11190
▁ব্রাউজার	-11191
▁ব্রাউনের	-11192
▁শ্যাম্পু	-11193
পূর্ববর্তী	-11194
▁resulting	-11195
▁আমন্ত্রিত	-11196
▁ক্যাম্পার	-11197
▁ক্যালোরির	-11198
▁গ্রহণকারী	-11199
▁গ্রীষ্মের	-11200
▁চিত্রটিতে	-11201
▁ট্যাঙ্কটি	-11202
▁প্রবন্ধের	-11203
▁ফলাফলগুলি	-11204
▁ফলাফলমূলক	-11205
▁বহুভুজটির	-11206
▁বাইসাইকেল	-11207
▁স্ট্রিপের	-11208
▁constraint	-11209
▁semicircle	-11210
▁অ্যালবার্ট	-11211
▁ওয়ার্কশিট	-11212
▁কল্পকাহিনী	-11213
▁চিহ্নিতকরণ	-11214
▁টুকরোগুলির	-11215
▁থাম্বট্যাক	-11216
▁প্যানকেকের	-11217
▁বোতামযুক্ত	-11218
▁Probability	-11219
▁calculating	-11220
▁ত্রুটিযুক্ত	-11221
▁কনফিগারেশনের	-11222
▁কোয়ার্টারের	-11223
▁চতুর্ভুজাকার	-11224
▁প্রতিবেশীদের	-11225
▁প্রতিনিধিত্বে	-11226
▁কিন্ডারগার্টেন	-11227
!"	-11228
+\	-11229
BB	-11230
DD	-11231
DF	-11232
|$	-11233
লু	-11234
ীম	-11235
ake	-11236
ank	-11237
led	-11238
lim	-11239
pri	-11240
ugg	-11241
ংহি	-11242
গেন	-11243
জনী	-11244
পান	-11245
ভান	-11246
মকে	-11247
মোর	-11248
লাভ	-11249
ীসৃ	-11250
▁&&	-11251
▁AP	-11252
▁No	-11253
▁PM	-11254
▁Sc	-11255
▁TD	-11256
▁টড	-11257
akes	-11258
ayra	-11259
bols	-11260
ffic	-11261
igur	-11262
pand	-11263
urns	-11264
উসের	-11265
ক্রম	-11266
খুঁত	-11267
গনের	-11268
গুনি	-11269
ছাড়	-11270
জনকে	-11271
টাকা	-11272
টায়	-11273
ডিতে	-11274
য়োর	-11275
লিকে	-11276
ষেধা	-11277
ৃহীত	-11278
▁ACB	-11279
▁arc	-11280
▁jam	-11281
▁key	-11282
▁kid	-11283
▁lie	-11284
▁tre	-11285
▁আমে	-11286
▁একশ	-11287
▁গোছ	-11288
▁চলক	-11289
▁টুন	-11290
▁নিভ	-11291
▁রেড	-11292
▁লুপ	-11293
▁হাঙ	-11294
▁হেল	-11295
aring	-11296
ayons	-11297
enter	-11298
first	-11299
ippet	-11300
nings	-11301
words	-11302
গোষ্ঠ	-11303
টিয়ে	-11304
ত্রের	-11305
নীচের	-11306
ফিশের	-11307
শিক্ষ	-11308
স্থির	-11309
হিয়ং	-11310
িনীতে	-11311
▁Iter	-11312
▁What	-11313
▁With	-11314
▁cate	-11315
▁date	-11316
▁radi	-11317
▁rate	-11318
▁wins	-11319
▁আংটি	-11320
▁আসিফ	-11321
▁এককে	-11322
▁কন্ট	-11323
▁কিনল	-11324
▁গন্ধ	-11325
▁ছুটে	-11326
▁জোনা	-11327
▁ট্রল	-11328
▁থাকত	-11329
▁দাদী	-11330
▁ধরেন	-11331
▁পঁচি	-11332
▁মিগু	-11333
▁মেলা	-11334
▁সংকে	-11335
▁সর্প	-11336
▁সামস	-11337
▁স্মু	-11338
Second	-11339
allons	-11340
umayra	-11341
কারদের	-11342
গাড়ির	-11343
বস্তুর	-11344
বেগুনি	-11345
মায়ের	-11346
▁avail	-11347
▁dates	-11348
▁exist	-11349
▁fixed	-11350
▁indic	-11351
▁marks	-11352
▁types	-11353
▁অভিনে	-11354
▁আদর্শ	-11355
▁একাদশ	-11356
▁এলসার	-11357
▁কাকটি	-11358
▁কাস্ট	-11359
▁কিনলো	-11360
▁টপিংস	-11361
▁ট্রেই	-11362
▁ডালিম	-11363
▁ডিয়ে	-11364
▁থামার	-11365
▁দিলেন	-11366
▁পদকের	-11367
▁পান্থ	-11368
▁পার্ম	-11369
▁পেনশন	-11370
▁পেলিখ	-11371
▁পেস্ট	-11372
▁প্রেৎ	-11373
▁ফেললে	-11374
▁বাজনা	-11375
▁বানের	-11376
▁বাসটি	-11377
▁বুনতি	-11378
▁ভলিউম	-11379
▁মাহিন	-11380
▁মিশেল	-11381
▁মেলের	-11382
▁মোলার	-11383
▁রক্ষা	-11384
▁রম্বস	-11385
▁রাখলে	-11386
▁রাসেল	-11387
▁রুবিন	-11388
▁রুমের	-11389
▁রৌপ্য	-11390
▁লিখিত	-11391
▁লুনার	-11392
▁লেজের	-11393
▁শ্বাস	-11394
▁সমাকল	-11395
▁সাকিব	-11396
▁সুস্থ	-11397
▁সোর্ড	-11398
Express	-11399
apezoid	-11400
ference	-11401
perties	-11402
ফিল্ডের	-11403
সেন্টের	-11404
▁enough	-11405
▁inside	-11406
▁neighb	-11407
▁অক্ষরে	-11408
▁আবিরের	-11409
▁ইঞ্চির	-11410
▁উঠেছিল	-11411
▁এইগুলি	-11412
▁কতটুকু	-11413
▁ক্যারো	-11414
▁গ্লাভস	-11415
▁চারকোল	-11416
▁ছক্কার	-11417
▁জনসনের	-11418
▁জাদুঘর	-11419
▁ডেল্টা	-11420
▁তমালের	-11421
▁নিখুঁত	-11422
▁পাউডার	-11423
▁পাপড়ি	-11424
▁পাশায়	-11425
▁পেরেছে	-11426
▁প্রত্ন	-11427
▁ফলাফলে	-11428
▁ভিড়ের	-11429
▁মেলিসা	-11430
▁রসুনের	-11431
▁লিস্টে	-11432
▁সবশেষে	-11433
▁সিয়াম	-11434
▁সোনালী	-11435
▁স্টেসি	-11436
▁হিলারি	-11437
Possible	-11438
ক্রিয়ার	-11439
▁Finding	-11440
▁categor	-11441
▁certain	-11442
▁counted	-11443
▁crayons	-11444
▁snippet	-11445
▁tangent	-11446
▁traffic	-11447
▁অ্যাপের	-11448
▁আত্মীয়	-11449
▁গাছগুলো	-11450
▁গ্যাব্র	-11451
▁গ্যালার	-11452
▁চন্দ্রা	-11453
▁জায়গার	-11454
▁জাস্টিন	-11455
▁জিতেছেন	-11456
▁জিসানের	-11457
▁ডালিয়া	-11458
▁পেমেন্ট	-11459
▁প্রথমটি	-11460
▁ফুটবলের	-11461
▁ফ্রেঞ্চ	-11462
▁রম্বসের	-11463
▁সংস্থার	-11464
▁হিসেবেও	-11465
▁হেদারের	-11466
perimeter	-11467
▁choosing	-11468
▁expected	-11469
▁question	-11470
▁symmetry	-11471
▁আগামীকাল	-11472
▁ইস্পাতের	-11473
▁কনসার্টে	-11474
▁কমিয়েছে	-11475
▁ক্যাবিনে	-11476
▁গন্তব্যে	-11477
▁গোল্ডফিশ	-11478
▁চন্দ্রার	-11479
▁ডিভাইসের	-11480
▁ড্রাফটিং	-11481
▁পুনর্গঠন	-11482
▁বর্গগুলি	-11483
▁available	-11484
▁increases	-11485
▁অতিক্রমিত	-11486
▁অলিভিয়ার	-11487
▁আলবার্টের	-11488
▁কারখানায়	-11489
▁কেন্দ্রার	-11490
▁দেখেছিলেন	-11491
▁বাইন্ডারে	-11492
▁বিস্তারিত	-11493
▁বৃত্তীকরণ	-11494
▁হিজকিয়ার	-11495
Probability	-11496
▁__________	-11497
▁inequality	-11498
▁অংশগ্রহণের	-11499
▁অঙ্কগুলিকে	-11500
▁উইলিয়ামের	-11501
▁ট্যাবলেটের	-11502
▁দৌড়বিদদের	-11503
▁ফ্যাক্টরের	-11504
▁হারিয়েছেন	-11505
▁অঙ্কদ্বয়ের	-11506
▁প্রতিবেশীকে	-11507
▁ভ্যারিয়েন্স	-11508
▁হোয়াইটবোর্ড	-11509
▁circumference	-11510
▁বৈশিষ্ট্যগুলি	-11511
▁শীর্ষবিন্দুগুলি	-11512
'.	-11513
=.	-11514
CA	-11515
co	-11516
{{	-11517
}।	-11518
উং	-11519
কী	-11520
গস	-11521
ভু	-11522
,\]	-11523
Equ	-11524
Per	-11525
Ver	-11526
edi	-11527
iel	-11528
lse	-11529
ood	-11530
rho	-11531
গমন	-11532
চডা	-11533
টপত	-11534
পেক	-11535
য়ী	-11536
রকম	-11537
সাপ	-11538
সিল	-11539
সেক	-11540
্ধব	-11541
্বই	-11542
▁AO	-11543
▁DP	-11544
▁[]	-11545
▁\;	-11546
▁ax	-11547
▁de	-11548
▁ওজ	-11549
▁ডট	-11550
▁সৃ	-11551
Cons	-11552
chie	-11553
hole	-11554
term	-11555
umns	-11556
}.$$	-11557
কড়া	-11558
ক্লা	-11559
খণ্ড	-11560
জকের	-11561
ডমিন	-11562
ধারা	-11563
ন্ডে	-11564
বাইট	-11565
ভূমি	-11566
শালী	-11567
ষষ্ঠ	-11568
ামেল	-11569
ুটার	-11570
্থার	-11571
▁One	-11572
▁Squ	-11573
▁আঠা	-11574
▁গবল	-11575
▁ছোঁ	-11576
▁জেস	-11577
▁ঝোপ	-11578
▁টবে	-11579
▁বোধ	-11580
▁বোল	-11581
▁মাথ	-11582
▁মাপ	-11583
▁মিক	-11584
▁মুন	-11585
▁রজত	-11586
▁শিল	-11587
▁ষাট	-11588
gamma	-11589
gests	-11590
using	-11591
where	-11592
কেদের	-11593
ঙ্কার	-11594
ছায়া	-11595
ন্টাল	-11596
ব্যাপ	-11597
মহিলা	-11598
শেলের	-11599
সমস্ত	-11600
সাম্য	-11601
ুক্ষণ	-11602
▁Bind	-11603
▁City	-11604
▁edge	-11605
▁else	-11606
▁fits	-11607
▁আমির	-11608
▁ইয়ে	-11609
▁ইরার	-11610
▁এলির	-11611
▁কুইন	-11612
▁ক্ষে	-11613
▁চলার	-11614
▁জনির	-11615
▁জামা	-11616
▁ট্যু	-11617
▁ডগের	-11618
▁ডনের	-11619
▁ডাটা	-11620
▁দেখব	-11621
▁নাদি	-11622
▁নোটে	-11623
▁পাতি	-11624
▁পৃথি	-11625
▁ফাঁক	-11626
▁বক্র	-11627
▁বদলি	-11628
▁মানক	-11629
▁মেলে	-11630
▁রজার	-11631
▁শিফট	-11632
▁সায়	-11633
cribed	-11634
তামূলক	-11635
ন্টাইন	-11636
রবিবার	-11637
রাউন্ড	-11638
সমূহের	-11639
স্তরের	-11640
স্থলের	-11641
্যাঙ্ক	-11642
▁Place	-11643
▁close	-11644
▁games	-11645
▁thous	-11646
▁worst	-11647
▁অবসরে	-11648
▁অ্যাং	-11649
▁আইফোন	-11650
▁আড়াই	-11651
▁করলেও	-11652
▁কলোনি	-11653
▁কার্প	-11654
▁কিমের	-11655
▁কুইজে	-11656
▁ঘনমূল	-11657
▁চলেছে	-11658
▁চিজের	-11659
▁জামির	-11660
▁টাচডা	-11661
▁টানার	-11662
▁ডালের	-11663
▁দেবেন	-11664
▁নকশার	-11665
▁নামার	-11666
▁পিটের	-11667
▁পিঠার	-11668
▁প্রাপ	-11669
▁ফোল্ড	-11670
▁বেল্ট	-11671
▁বোলিং	-11672
▁মিলবে	-11673
▁মেঝের	-11674
▁ম্যান	-11675
▁রডনির	-11676
▁রাকিব	-11677
▁রাজুর	-11678
▁শুনতে	-11679
▁সরীসৃ	-11680
▁সিটির	-11681
▁স্যাল	-11682
divisor	-11683
valuate	-11684
বোর্ডিং	-11685
স্কেলেট	-11686
িজিয়াম	-11687
▁asking	-11688
▁calcul	-11689
▁chairs	-11690
▁reason	-11691
▁অপেক্ষ	-11692
▁উচ্চতর	-11693
▁উদযাপন	-11694
▁উদ্ধৃত	-11695
▁কান্তা	-11696
▁ক্যাথি	-11697
▁খাচ্ছে	-11698
▁জাম্বো	-11699
▁জোড়ের	-11700
▁টেক্সা	-11701
▁ডোডেকা	-11702
▁থমাসের	-11703
▁থার্মো	-11704
▁দ্বিপদ	-11705
▁নিষেধা	-11706
▁পরিসরে	-11707
▁বিচ্যু	-11708
▁রাইসিন	-11709
▁রেডিওর	-11710
▁লিফটটি	-11711
▁শিবিরে	-11712
▁সিক্কা	-11713
▁সুইমিং	-11714
▁স্টেশন	-11715
Applying	-11716
ষ্ট্রপতি	-11717
▁Humayra	-11718
▁closest	-11719
▁columns	-11720
▁perform	-11721
▁অক্টোবর	-11722
▁আতশবাজি	-11723
▁আদনানের	-11724
▁উপনিবেশ	-11725
▁এক্সটেন	-11726
▁এগুলোকে	-11727
▁ওয়াশার	-11728
▁কারিনার	-11729
▁কার্লার	-11730
▁কোর্সের	-11731
▁গ্রুপটি	-11732
▁চড়েছিল	-11733
▁চারজনকে	-11734
▁টাইফুনে	-11735
▁ডিজেলের	-11736
▁ত্রিশটি	-11737
▁দর্শকের	-11738
▁ধুয়েছে	-11739
▁পতাকায়	-11740
▁পাউরুটি	-11741
▁ফলোয়ার	-11742
▁বন্ধনীর	-11743
▁বিকেলের	-11744
▁ভবিষ্যত	-11745
▁মিনিবাস	-11746
▁স্কেটিং	-11747
▁স্পর্শক	-11748
▁স্মিথের	-11749
▁স্যাম্প	-11750
▁স্যুটের	-11751
▁Checking	-11752
▁Counting	-11753
▁Dividing	-11754
▁Multiply	-11755
▁contains	-11756
▁suggests	-11757
▁উৎক্ষেপণ	-11758
▁কিছুক্ষণ	-11759
▁ক্রিস্টে	-11760
▁গোলরক্ষক	-11761
▁জলাশয়ের	-11762
▁টর্চলাইট	-11763
▁দিনগুলির	-11764
▁নির্মাতা	-11765
▁বামহস্তী	-11766
▁মোড়ানোর	-11767
▁সিয়ানের	-11768
▁inclusive	-11769
▁questions	-11770
▁কার্ডগুলো	-11771
▁কোস্টারের	-11772
▁চতুর্ভুজে	-11773
▁দুর্ঘটনার	-11774
▁পর্যটকদের	-11775
▁প্রযুক্তি	-11776
▁ফুলদানিতে	-11777
▁বিস্কুটের	-11778
▁সরঞ্জামের	-11779
▁স্থানাঙ্ক	-11780
Identifying	-11781
multicolumn	-11782
▁অ্যাথলেটিক	-11783
▁উভয়পক্ষকে	-11784
▁ওয়ার্কবুক	-11785
▁ছুড়েছিলেন	-11786
▁পরিষ্কারের	-11787
▁পুনরুদ্ধার	-11788
▁পেপারব্যাক	-11789
▁প্রচারমূলক	-11790
▁ল্যামন্টের	-11791
▁শয়নকক্ষের	-11792
▁স্পষ্টভাবে	-11793
▁হ্যামস্টার	-11794
প্রাথমিকভাবে	-11795
▁progression	-11796
▁গ্রীষ্মকালে	-11797
▁প্রকৃতপক্ষে	-11798
▁গ্রীষ্মকালীন	-11799
▁প্রতিযোগীদের	-11800
▁ইঞ্জিনিয়ারিং	-11801
▁আয়তক্ষেত্রটির	-11802
▁স্বেচ্ছাসেবককে	-11803
▁অ্যাপার্টমেন্টে	-11804
▁পুনরাবৃত্তিমূলক	-11805
"-	-11806
%:	-11807
->	-11808
Na	-11809
^(	-11810
mn	-11811
}[	-11812
রত	-11813
ষম	-11814
েউ	-11815
!)^	-11816
BDE	-11817
com	-11818
ega	-11819
els	-11820
red	-11821
}{}	-11822
কিছ	-11823
ক্স	-11824
গরু	-11825
চেন	-11826
জান	-11827
ঠাক	-11828
বুল	-11829
মেশ	-11830
রাত	-11831
রাস	-11832
রেখ	-11833
ষড়	-11834
াকী	-11835
▁<=	-11836
▁জং	-11837
▁পট	-11838
▁মধ	-11839
ayel	-11840
osed	-11841
pril	-11842
zero	-11843
ইউরো	-11844
ইয়ং	-11845
কোসা	-11846
গতির	-11847
ছনের	-11848
ছন্দ	-11849
ছিলো	-11850
জাতক	-11851
ণ্ডা	-11852
ণ্ডু	-11853
বনের	-11854
বিকি	-11855
ব্রি	-11856
ভবতী	-11857
মিকা	-11858
ম্মা	-11859
লম্ব	-11860
শ্রম	-11861
সমতা	-11862
সলের	-11863
সূচক	-11864
স্টন	-11865
হারী	-11866
ারার	-11867
িতাম	-11868
িরার	-11869
ুটের	-11870
েনের	-11871
্যিক	-11872
▁<->	-11873
▁Col	-11874
▁Two	-11875
▁arm	-11876
▁cow	-11877
▁six	-11878
▁too	-11879
▁wal	-11880
▁অণু	-11881
▁আকি	-11882
▁আনি	-11883
▁আনো	-11884
▁কমপ	-11885
▁কেপ	-11886
▁খুল	-11887
▁ঘেউ	-11888
▁চিট	-11889
▁চিব	-11890
▁ছুট	-11891
▁জুল	-11892
▁ডিল	-11893
▁পেজ	-11894
▁ফর্	-11895
▁বিগ	-11896
▁মজু	-11897
▁রাব	-11898
▁লিফ	-11899
▁সির	-11900
▁সেক	-11901
)!}\]	-11902
Sigma	-11903
igeon	-11904
inish	-11905
okies	-11906
omega	-11907
ওয়াই	-11908
কেয়া	-11909
ধ্যার	-11910
ন্ডের	-11911
পেনের	-11912
ফিল্ড	-11913
বেশির	-11914
শনারি	-11915
▁ages	-11916
▁crit	-11917
▁real	-11918
▁runs	-11919
▁আন্ত	-11920
▁আলিস	-11921
▁আশিস	-11922
▁উইলো	-11923
▁একমত	-11924
▁এরকম	-11925
▁এসিড	-11926
▁কখনো	-11927
▁কমার	-11928
▁কাইফ	-11929
▁কারল	-11930
▁চলবে	-11931
▁চেইন	-11932
▁টমকে	-11933
▁ডাকা	-11934
▁দালা	-11935
▁দেড়	-11936
▁ধাতব	-11937
▁নারি	-11938
▁বদলে	-11939
▁বাবদ	-11940
▁মঞ্চ	-11941
▁মলির	-11942
▁মুর্	-11943
▁রক্ত	-11944
▁রক্ষ	-11945
▁লিচু	-11946
▁লীলা	-11947
▁লুনা	-11948
▁শাকা	-11949
▁শিলা	-11950
▁শেলি	-11951
▁সদ্য	-11952
▁সহজে	-11953
▁সুইট	-11954
▁সুষম	-11955
ecause	-11956
অ্যাপল	-11957
জ্যামি	-11958
নিয়াম	-11959
পৃষ্ঠা	-11960
ব্যাপী	-11961
মেয়ের	-11962
▁achie	-11963
▁cards	-11964
▁clear	-11965
▁doesn	-11966
▁white	-11967
▁আংশিক	-11968
▁আরনের	-11969
▁আর্চি	-11970
▁ইনস্ট	-11971
▁এম্মা	-11972
▁কীটপত	-11973
▁চাইলে	-11974
▁জার্ক	-11975
▁জিনের	-11976
▁ট্রোল	-11977
▁ডেকের	-11978
▁দায়ী	-11979
▁দোলার	-11980
▁নার্স	-11981
▁নিলেন	-11982
▁পজিশন	-11983
▁পাজলে	-11984
▁পার্ট	-11985
▁ফোনের	-11986
▁বাড়ে	-11987
▁বার্ট	-11988
▁বিবাহ	-11989
▁মেকআপ	-11990
▁মেষের	-11991
▁মোমের	-11992
▁রান্ন	-11993
▁রূপের	-11994
▁রেসিং	-11995
▁রোমান	-11996
▁র্যাক	-11997
▁লুকের	-11998
▁ষোলটি	-11999
▁সমর্থ	-12000
▁সেটকে	-12001
▁স্ক্র	-12002
উপন্যাস	-12003
ডমিন্টন	-12004
বঅ্যাপল	-12005
স্থানের	-12006
▁Salary	-12007
▁arrang	-12008
▁assign	-12009
▁lights	-12010
▁opened	-12011
▁passes	-12012
▁picked	-12013
▁scores	-12014
▁অনাহির	-12015
▁অভিযোগ	-12016
▁অ্যামো	-12017
▁ইউরোতে	-12018
▁ইথানের	-12019
▁এসেছেন	-12020
▁কবিতার	-12021
▁কারলার	-12022
▁গুণনের	-12023
▁চালকের	-12024
▁ঠিকঠাক	-12025
▁ডায়েট	-12026
▁ডিগ্রী	-12027
▁ডেইজির	-12028
▁ত্রয়ী	-12029
▁থাকবেন	-12030
▁দুইটির	-12031
▁নরওয়ে	-12032
▁পাণ্ডু	-12033
▁পায়েল	-12034
▁পুডলের	-12035
▁পোমেলো	-12036
▁বর্ধিত	-12037
▁বলগুলি	-12038
▁বলেছেন	-12039
▁বাজাতে	-12040
▁বিয়ের	-12041
▁মরিচের	-12042
▁মাখনের	-12043
▁মেনুতে	-12044
▁মেশিনে	-12045
▁ম্যাটি	-12046
▁সবাইকে	-12047
▁সাভানা	-12048
▁স্কিইং	-12049
▁স্টকিং	-12050
▁স্টেডি	-12051
▁হোসকের	-12052
▁হ্যালি	-12053
--------	-12054
entially	-12055
ribution	-12056
বেশিরভাগ	-12057
▁centers	-12058
▁colored	-12059
▁cookies	-12060
▁gallons	-12061
▁symbols	-12062
▁অক্সাইড	-12063
▁অ্যালেক	-12064
▁আয়তকার	-12065
▁কর্মদিব	-12066
▁কার্লের	-12067
▁ক্যালরি	-12068
▁গর্ভবতী	-12069
▁গাছপালা	-12070
▁ছিটিয়ে	-12071
▁জানেটের	-12072
▁ডিউটিতে	-12073
▁ড্রয়ার	-12074
▁তারিখের	-12075
▁পুরুষরা	-12076
▁প্যাটের	-12077
▁রিপোর্ট	-12078
▁শারীরিক	-12079
▁সংগৃহীত	-12080
▁স্তবকের	-12081
কেবলমাত্র	-12082
কোসাহেড্র	-12083
ুয়ারিয়া	-12084
▁children	-12085
▁counting	-12086
▁includes	-12087
▁received	-12088
▁অতিথিদের	-12089
▁এস্কেলেট	-12090
▁করেছিলাম	-12091
▁ক্যাপ্টে	-12092
▁গ্রাহককে	-12093
▁তথ্যগুলি	-12094
▁থিয়েটার	-12095
▁পদ্ধতিটি	-12096
▁প্রজেক্ট	-12097
▁বাক্সটির	-12098
▁বামদিকের	-12099
▁ব্রাউনির	-12100
▁মানগুলির	-12101
▁ল্যাডিবা	-12102
▁শাকাহারী	-12103
▁সন্ধ্যার	-12104
▁সিরিয়াল	-12105
কেন্দ্রীয়	-12106
▁Principle	-12107
▁continues	-12108
▁fractions	-12109
▁অনুক্রমের	-12110
▁অভ্যন্তরে	-12111
▁এক্সটেনশন	-12112
▁ওয়েবসাইট	-12113
▁জিতেছিলেন	-12114
▁টুকরোগুলি	-12115
▁তাকগুলিতে	-12116
▁পছন্দগুলি	-12117
▁পাস্কালের	-12118
▁পোস্টারের	-12119
▁বাণিজ্যিক	-12120
▁র্যান্ডির	-12121
▁সংযোগকারী	-12122
▁সনাক্তকরণ	-12123
▁সাহিত্যের	-12124
▁congruence	-12125
▁polynomial	-12126
▁কম্পিউটারে	-12127
▁ক্লাসরুমের	-12128
▁নিষেধাজ্ঞা	-12129
▁পাণ্ডুলিপি	-12130
▁প্রশ্নটিতে	-12131
▁প্রস্তাবিত	-12132
▁বিপরীতভাবে	-12133
▁ব্যবস্থাগত	-12134
▁ব্যায়ামের	-12135
▁ব্র্যান্ডন	-12136
▁মিথ্যাবাদী	-12137
▁লাগিয়েছিল	-12138
▁সম্প্রসারণ	-12139
▁কার্যকরভাবে	-12140
▁ত্রিমাত্রিক	-12141
▁পরিস্থিতিটি	-12142
▁প্রত্নবস্তু	-12143
▁প্রদর্শনীতে	-12144
▁সমন্বয়গুলি	-12145
▁সিদ্ধান্তের	-12146
▁পুনর্বিবেচনা	-12147
▁intersections	-12148
▁ক্র্যাবঅ্যাপল	-12149
▁ফেব্রুয়ারিতে	-12150
▁সুপারমার্কেটে	-12151
(.	-12152
/.	-12153
AP	-12154
নব	-12155
পড	-12156
পল	-12157
মূ	-12158
হী	-12159
▁;	-12160
)--	-12161
)}\	-12162
>>.	-12163
Cho	-12164
^{(	-12165
bar	-12166
eds	-12167
ott	-12168
sim	-12169
sph	-12170
tab	-12171
ude	-12172
}}$	-12173
টনা	-12174
দুর	-12175
নেস	-12176
বোর	-12177
ভেস	-12178
মতো	-12179
লেব	-12180
াইল	-12181
িকে	-12182
ুইন	-12183
োলো	-12184
▁CE	-12185
▁dx	-12186
▁dy	-12187
▁kh	-12188
▁ow	-12189
▁গহ	-12190
▁ঠে	-12191
▁সৎ	-12192
)\):	-12193
Last	-12194
alse	-12195
cted	-12196
face	-12197
pute	-12198
ules	-12199
}_{\	-12200
}}\]	-12201
আমার	-12202
ইলের	-12203
ট্রে	-12204
ড্রে	-12205
দেশে	-12206
ভুজে	-12207
য়টি	-12208
রামা	-12209
লকের	-12210
ষণের	-12211
ালের	-12212
▁HCl	-12213
▁\);	-12214
▁\\\	-12215
▁bag	-12216
▁অলো	-12217
▁আঙ্	-12218
▁এগো	-12219
▁গুল	-12220
▁জলি	-12221
▁ডুপ	-12222
▁মৌচ	-12223
▁সুর	-12224
Digit	-12225
Given	-12226
Least	-12227
arget	-12228
asses	-12229
ually	-12230
verse	-12231
wards	-12232
উইনের	-12233
ক্ষিত	-12234
খাবার	-12235
খ্যাত	-12236
জিস্ট	-12237
টার্ট	-12238
নার্থ	-12239
বর্তন	-12240
বারিক	-12241
র্টের	-12242
লিক্স	-12243
লিস্ট	-12244
শাদার	-12245
শিয়া	-12246
সম্ভব	-12247
াইলের	-12248
াক্কা	-12249
ান্তি	-12250
োটেলে	-12251
▁Even	-12252
▁just	-12253
▁long	-12254
▁plum	-12255
▁sequ	-12256
▁আরাফ	-12257
▁উঠার	-12258
▁কলির	-12259
▁কানা	-12260
▁কোকো	-12261
▁চিনা	-12262
▁জগার	-12263
▁জলির	-12264
▁জেডন	-12265
▁ডেকে	-12266
▁দারু	-12267
▁দিলো	-12268
▁পরার	-12269
▁পরেন	-12270
▁প্রি	-12271
▁ফাটা	-12272
▁বাটন	-12273
▁বিরল	-12274
▁বুফে	-12275
▁মহাস	-12276
▁মাশা	-12277
▁যোসে	-12278
▁রায়	-12279
▁লেখক	-12280
▁শসার	-12281
▁সমতা	-12282
▁সাইট	-12283
▁সাহে	-12284
▁সিপি	-12285
▁সোজা	-12286
▁স্না	-12287
▁হারি	-12288
▁হেঁট	-12289
▁হেলি	-12290
▁হোসক	-12291
ucture	-12292
ugging	-12293
কর্মের	-12294
চ্ছন্ন	-12295
ডিয়ান	-12296
তিক্রম	-12297
দেওয়া	-12298
পরিমাণ	-12299
পিরামি	-12300
প্রধান	-12301
বিক্রি	-12302
য়েসের	-12303
সংখ্যক	-12304
সংলগ্ন	-12305
সামনের	-12306
্টারের	-12307
্লিকেট	-12308
▁Balls	-12309
▁Payel	-12310
▁minus	-12311
▁seven	-12312
▁আবারও	-12313
▁আমিবা	-12314
▁আসেনি	-12315
▁একাকী	-12316
▁কমানো	-12317
▁কাকের	-12318
▁কাটান	-12319
▁ক্রাউ	-12320
▁খণ্ডে	-12321
▁খোলার	-12322
▁গোলের	-12323
▁গ্রহে	-12324
▁গ্রিল	-12325
▁ঘুমান	-12326
▁চাইছি	-12327
▁টুনার	-12328
▁ডেনের	-12329
▁তহবিল	-12330
▁তারটি	-12331
▁থেকেই	-12332
▁ধাতুর	-12333
▁পাওনা	-12334
▁পেড্র	-12335
▁ফ্লোর	-12336
▁বললেন	-12337
▁বাগেট	-12338
▁বার্ন	-12339
▁বিয়ে	-12340
▁বেগের	-12341
▁বেরির	-12342
▁ভাগটি	-12343
▁মশলার	-12344
▁মাপের	-12345
▁মালার	-12346
▁মেলডি	-12347
▁ম্যাল	-12348
▁যুগ্ম	-12349
▁যোদ্ধ	-12350
▁শালিক	-12351
▁সিদ্ধ	-12352
▁সিরিজ	-12353
▁স্নান	-12354
cluding	-12355
initial	-12356
কুকুরের	-12357
ট্রোজেন	-12358
্লেষণের	-12359
▁finish	-12360
▁inches	-12361
▁letter	-12362
▁making	-12363
▁occurs	-12364
▁shaded	-12365
▁অ্যাডি	-12366
▁আইনজীব	-12367
▁আঙ্কেল	-12368
▁আন্নার	-12369
▁আর্থার	-12370
▁ইউঞ্জি	-12371
▁ইউনিটে	-12372
▁ইসাবেল	-12373
▁কিনেছি	-12374
▁ক্যাটা	-12375
▁ক্যারে	-12376
▁ক্লারা	-12377
▁ক্লিনি	-12378
▁খেলছিল	-12379
▁গাইডের	-12380
▁চল্লিশ	-12381
▁টুথপিক	-12382
▁ট্রিপল	-12383
▁ড্যারে	-12384
▁দালালি	-12385
▁দ্রুতি	-12386
▁নির্বা	-12387
▁পক্ষের	-12388
▁ফেয়ের	-12389
▁ফ্রিজে	-12390
▁বামদিক	-12391
▁ভ্রমনে	-12392
▁মতিনের	-12393
▁রুপালি	-12394
▁রূপালী	-12395
▁লোকেরা	-12396
▁শিশুরা	-12397
▁সড়কের	-12398
▁সময়টি	-12399
▁সরীসৃপ	-12400
▁সান্ডে	-12401
▁সিকুইন	-12402
▁স্কার্	-12403
▁স্পঞ্জ	-12404
▁হটডগের	-12405
▁হেয়ার	-12406
Checking	-12407
Greatest	-12408
geqslant	-12409
urrences	-12410
সম্ভাবনা	-12411
▁Product	-12412
▁answers	-12413
▁covered	-12414
▁equally	-12415
▁অনুলিপি	-12416
▁অনুসারী	-12417
▁ইংরেজির	-12418
▁ইউয়ানে	-12419
▁এককভাবে	-12420
▁কমপ্লেক	-12421
▁কার্ডটি	-12422
▁কেটেছেন	-12423
▁কোয়ারে	-12424
▁ক্যারোল	-12425
▁ক্লার্ক	-12426
▁খামারের	-12427
▁গভীরতার	-12428
▁গালিবের	-12429
▁ঘরগুলির	-12430
▁জামিলের	-12431
▁টুনারের	-12432
▁তানিয়া	-12433
▁ত্রিগুণ	-12434
▁দম্পতির	-12435
▁নাস্তার	-12436
▁নেগেটিভ	-12437
▁পেত্যার	-12438
▁পৌঁছায়	-12439
▁প্রত্যা	-12440
▁বাজেটের	-12441
▁বারান্দ	-12442
▁বার্তার	-12443
▁বিখ্যাত	-12444
▁ব্যয়ের	-12445
▁ব্যাঙটি	-12446
▁ব্ল্যাক	-12447
▁মারুফের	-12448
▁মূল্যকে	-12449
▁রুস্টার	-12450
▁লুকাসের	-12451
▁শাস্ত্র	-12452
▁সাবধানে	-12453
▁সিমেন্ট	-12454
▁স্টাফিং	-12455
▁স্থানকে	-12456
▁স্প্যাম	-12457
▁হাইওয়ে	-12458
Condition	-12459
remaining	-12460
solutions	-12461
▁polygons	-12462
▁অনুপাতকে	-12463
▁অর্ধেকটি	-12464
▁আমান্ডার	-12465
▁উল্টানোর	-12466
▁কার্যকরী	-12467
▁কোস্টারে	-12468
▁গ্রাহকরা	-12469
▁জুলিয়ান	-12470
▁জ্যাসনের	-12471
▁টাইলারের	-12472
▁দারুচিনি	-12473
▁নিয়োগের	-12474
▁পরিবহনের	-12475
▁পেইন্টের	-12476
▁বিজ্ঞানে	-12477
▁বিয়োগ্য	-12478
▁রক্ষণাবে	-12479
▁লেমনেডের	-12480
▁সংস্থায়	-12481
▁স্থাপত্য	-12482
Substitute	-12483
▁neighbors	-12484
▁operation	-12485
▁trapezoid	-12486
▁অন্যোন্যক	-12487
▁অ্যালিসের	-12488
▁কংক্রিটের	-12489
▁জ্যাকসনের	-12490
▁ঝুলিয়েছে	-12491
▁ডুপ্লিকেট	-12492
▁দর্শনার্থ	-12493
▁নিম্নমুখী	-12494
▁নির্বাচনী	-12495
▁পারিবারিক	-12496
▁পুনর্বাসন	-12497
▁পেরেছিলেন	-12498
▁ফ্যাব্রিক	-12499
▁বর্গফুটের	-12500
▁বিয়ান্কা	-12501
▁ব্র্যাডের	-12502
▁লাফালাফির	-12503
▁শক্তিশালী	-12504
▁স্টেশনারি	-12505
তৃতীয়াংশের	-12506
▁ন্যাপকিনের	-12507
▁পঞ্চভুজীয়	-12508
▁প্যাটার্নে	-12509
▁প্রতিযোগীর	-12510
▁বিশ্লেষণের	-12511
▁যন্ত্রপাতি	-12512
▁সমাবেশগুলি	-12513
▁সামান্তরিক	-12514
▁স্ট্রাইপের	-12515
▁অন্তর্লিখিত	-12516
▁আকুয়ারিয়া	-12517
▁ডিসকাউন্টের	-12518
▁ত্রিকোণাকার	-12519
▁বাধ্যতামূলক	-12520
▁বাস্কেটবলের	-12521
▁বিন্যাসগুলি	-12522
▁ব্র্যান্ডের	-12523
▁রেস্তোরাঁটি	-12524
▁রেস্তোরাঁয়	-12525
▁সমদ্বিখণ্ডক	-12526
▁সেমিস্টারের	-12527
▁স্থানগুলিতে	-12528
▁ছেলেমেয়েদের	-12529
▁relationships	-12530
%$	-12531
'-	-12532
AA	-12533
BG	-12534
If	-12535
MP	-12536
Pi	-12537
kn	-12538
tc	-12539
অক	-12540
অধ	-12541
ওক	-12542
ঘো	-12543
$)।	-12544
air	-12545
}),	-12546
ইনে	-12547
টিন	-12548
টেড	-12549
দাত	-12550
ভাল	-12551
মিট	-12552
রাজ	-12553
রোধ	-12554
শতা	-12555
ষ্ণ	-12556
সংশ	-12557
হুন	-12558
ুকে	-12559
▁BF	-12560
▁DA	-12561
▁__	-12562
▁cd	-12563
▁mg	-12564
▁ol	-12565
).\]	-12566
---|	-12567
...$	-12568
\%\)	-12569
\)),	-12570
down	-12571
ifts	-12572
ired	-12573
ires	-12574
odes	-12575
pace	-12576
plic	-12577
ross	-12578
team	-12579
with	-12580
ycle	-12581
আমরা	-12582
কিউট	-12583
খরোট	-12584
গন্ধ	-12585
গ্রে	-12586
চেইন	-12587
জন্য	-12588
টনের	-12589
পাথর	-12590
ফারে	-12591
মাগত	-12592
লিকা	-12593
লেনা	-12594
সিতে	-12595
াসিড	-12596
ুরোদ	-12597
োভনা	-12598
োমিন	-12599
্রিক	-12600
্রিপ	-12601
▁Int	-12602
▁Max	-12603
▁Tih	-12604
▁\[-	-12605
▁cos	-12606
▁suc	-12607
▁আফি	-12608
▁কুন	-12609
▁কেই	-12610
▁চেন	-12611
▁টিফ	-12612
▁ট্য	-12613
▁পিল	-12614
▁মতে	-12615
▁মিত	-12616
▁মুর	-12617
▁শিট	-12618
▁শেখ	-12619
▁সীক	-12620
Solve	-12621
ament	-12622
final	-12623
under	-12624
কেস্ট	-12625
ঙ্গিক	-12626
ট্রাক	-12627
তারের	-12628
ধারার	-12629
নারের	-12630
পাতির	-12631
ব্রেড	-12632
ভ্যান	-12633
মুরগি	-12634
লেনার	-12635
সুফের	-12636
হিমের	-12637
▁Days	-12638
▁Sadi	-12639
▁meet	-12640
▁আইভি	-12641
▁আগেই	-12642
▁আসছে	-12643
▁ইথান	-12644
▁এখনো	-12645
▁এমিল	-12646
▁ওজনে	-12647
▁কঙ্ক	-12648
▁কপির	-12649
▁ক্ষু	-12650
▁খ্রি	-12651
▁গেমে	-12652
▁চেপে	-12653
▁জানো	-12654
▁জেলা	-12655
▁টিমে	-12656
▁ডুবে	-12657
▁তেরে	-12658
▁থামে	-12659
▁দেখল	-12660
▁পাঠে	-12661
▁ফিওড	-12662
▁বড়ি	-12663
▁বন্য	-12664
▁বাঁধ	-12665
▁মানব	-12666
▁রসুন	-12667
▁রুপি	-12668
▁লামি	-12669
▁লোহা	-12670
▁শুভে	-12671
▁শেরি	-12672
▁হীরা	-12673
Factor	-12674
sphere	-12675
urface	-12676
ক্র্যা	-12677
ঘর্ষিক	-12678
ন্যবাদ	-12679
পানীয়	-12680
প্রদান	-12681
বর্ণের	-12682
য়ানার	-12683
লিয়েন	-12684
স্টনের	-12685
▁False	-12686
▁birds	-12687
▁coins	-12688
▁cubes	-12689
▁extra	-12690
▁falls	-12691
▁green	-12692
▁might	-12693
▁picks	-12694
▁plays	-12695
▁radii	-12696
▁rules	-12697
▁shape	-12698
▁subtr	-12699
▁আইসোট	-12700
▁আবদ্ধ	-12701
▁এদিকে	-12702
▁এপিসো	-12703
▁ওলগার	-12704
▁করেছো	-12705
▁কাটলে	-12706
▁কেচাপ	-12707
▁খেলেন	-12708
▁গাভীর	-12709
▁গুলির	-12710
▁ঘুরতে	-12711
▁চলাচল	-12712
▁জেব্র	-12713
▁টিউটর	-12714
▁ডাইনো	-12715
▁ডোনার	-12716
▁তোমরা	-12717
▁নব্বই	-12718
▁নামতে	-12719
▁পীচের	-12720
▁ফাহিম	-12721
▁বাথটা	-12722
▁বাল্ড	-12723
▁ভাতার	-12724
▁ভোটার	-12725
▁মোলের	-12726
▁যোগের	-12727
▁রিভার	-12728
▁রোলের	-12729
▁লুডোর	-12730
▁লোডের	-12731
▁সানডে	-12732
▁স্কাউ	-12733
▁স্টেক	-12734
▁হেলমে	-12735
▁হোসোক	-12736
atively	-12737
itemize	-12738
pecific	-12739
plement	-12740
squared	-12741
তিহাসিক	-12742
বার্ষিক	-12743
বৃদ্ধির	-12744
মূল্যের	-12745
সরলীকরণ	-12746
হাজারের	-12747
ান্তরের	-12748
▁Divide	-12749
▁define	-12750
▁higher	-12751
▁revers	-12752
▁অ্যানি	-12753
▁আক্রমণ	-12754
▁উদ্ভূত	-12755
▁একটিকে	-12756
▁কতজনের	-12757
▁কাইলার	-12758
▁কিউবের	-12759
▁গণনাকে	-12760
▁ছয়কোণ	-12761
▁ছুড়তে	-12762
▁টিয়ার	-12763
▁পৃষ্ঠে	-12764
▁প্যারে	-12765
▁প্রহসন	-12766
▁ফোয়ের	-12767
▁বর্গটি	-12768
▁বহুগুণ	-12769
▁বানায়	-12770
▁বালতির	-12771
▁রাফটিং	-12772
▁রিবনের	-12773
▁রেফারি	-12774
▁লিজাকে	-12775
▁লুবাবা	-12776
▁শিফটের	-12777
▁সাবসেট	-12778
▁সারাকে	-12779
▁সুবিধা	-12780
▁স্কটিশ	-12781
▁স্বর্ণ	-12782
▁হোটেলে	-12783
ড়িয়েছে	-12784
্যাসার্ধ	-12785
▁Formula	-12786
▁Summing	-12787
▁modular	-12788
▁student	-12789
▁success	-12790
▁wrapper	-12791
▁অঙ্কটির	-12792
▁আলবার্ত	-12793
▁এন্ট্রি	-12794
▁কর্পোরে	-12795
▁কেটেছিল	-12796
▁ক্রমাগত	-12797
▁ক্লারার	-12798
▁গোল্লাই	-12799
▁গ্রান্ট	-12800
▁ঘাতগুলি	-12801
▁ঘুরিয়ে	-12802
▁জানিনের	-12803
▁জিমন্যা	-12804
▁জীমিনের	-12805
▁জুনায়ে	-12806
▁জোড়াটি	-12807
▁ডিনারের	-12808
▁দীর্ঘতম	-12809
▁দ্বারাও	-12810
▁নারীদের	-12811
▁নিচ্ছেন	-12812
▁পরিচালক	-12813
▁পরিদর্শ	-12814
▁পরিশেষে	-12815
▁প্যানেল	-12816
▁ফাইনালে	-12817
▁বৃত্তটি	-12818
▁বেড়ায়	-12819
▁ব্যাটিং	-12820
▁ব্রাশের	-12821
▁ব্রিটিশ	-12822
▁ভাগফলের	-12823
▁মেবেলের	-12824
▁লবণাক্ত	-12825
▁লোকেদের	-12826
▁সময়মতো	-12827
▁সম্পাদক	-12828
▁সুজানের	-12829
▁স্কিটলস	-12830
▁হয়েছেন	-12831
igeonhole	-12832
itionally	-12833
▁Plugging	-12834
▁bisector	-12835
▁combined	-12836
▁increase	-12837
▁interpre	-12838
▁requires	-12839
▁totaling	-12840
▁অঙ্কুরোদ	-12841
▁অর্কেস্ট	-12842
▁আপেলগুলো	-12843
▁ক্রিসমাস	-12844
▁চিজকেকের	-12845
▁জনপ্রিয়	-12846
▁পরিবারকে	-12847
▁পরিমাণটি	-12848
▁পরিমাপের	-12849
▁পরিশোধিত	-12850
▁ফোল্ডারে	-12851
▁বন্ধুবান	-12852
▁বিচ্যুতি	-12853
▁বেডরুমের	-12854
▁ব্যাঙটির	-12855
▁ভাজকগুলো	-12856
▁মরিয়মের	-12857
▁শুভেচ্ছা	-12858
▁শেলযুক্ত	-12859
▁সময়টিকে	-12860
▁স্থানাংক	-12861
▁described	-12862
▁favorable	-12863
▁thousands	-12864
▁অস্বীকৃতি	-12865
▁কাউন্টারে	-12866
▁গায়কদলের	-12867
▁গ্রান্টের	-12868
▁চেসবোর্ডে	-12869
▁থাকাকালীন	-12870
▁নিভিয়েছে	-12871
▁বিদ্যুতের	-12872
▁ব্রাউজারে	-12873
▁রান্নাকার	-12874
▁লাফিয়েছে	-12875
▁সাংঘর্ষিক	-12876
▁সুইটটার্ট	-12877
▁হয়েছিলেন	-12878
Simplifying	-12879
▁considered	-12880
▁determined	-12881
▁passengers	-12882
▁translated	-12883
▁উপাদানগুলি	-12884
▁কর্মকর্তার	-12885
▁ক্যাশিয়ার	-12886
▁ট্রাপিজয়ে	-12887
▁দ্বিগুণেরও	-12888
▁পাঠিয়েছেন	-12889
▁বর্গাকারের	-12890
▁সমস্যাটিকে	-12891
▁সমীকরণগুলো	-12892
▁সমীকরণটিতে	-12893
▁সিনিয়রদের	-12894
▁palindromic	-12895
▁অ্যান্টাসিড	-12896
▁ওভারল্যাপিং	-12897
▁কর্মসংস্থান	-12898
▁খেলোয়াড়রা	-12899
▁জানুয়ারিতে	-12900
▁প্রোগ্রামের	-12901
▁প্ল্যাটফর্ম	-12902
▁ভগ্নাংশগুলো	-12903
▁Additionally	-12904
▁সম্ভাবনাগুলি	-12905
▁টেকনিশিয়ানদের	-12906
▁সামঞ্জস্যপূর্ণ	-12907
""	-12908
".	-12909
'।	-12910
+.	-12911
,"	-12912
BO	-12913
Br	-12914
WW	-12915
])	-12916
uz	-12917
বণ	-12918
সূ	-12919
exp	-12920
fit	-12921
gin	-12922
ilk	-12923
man	-12924
set	-12925
var	-12926
zen	-12927
গির	-12928
ছেদ	-12929
জকে	-12930
বিট	-12931
মতী	-12932
রেল	-12933
র্ধ	-12934
শিন	-12935
সিত	-12936
ুটি	-12937
ুতি	-12938
▁$.	-12939
▁BG	-12940
▁Cl	-12941
▁Eq	-12942
▁IB	-12943
▁Se	-12944
▁er	-12945
▁উজ	-12946
▁ঠো	-12947
▁ফর	-12948
▁মস	-12949
)--(	-12950
adim	-12951
eron	-12952
nses	-12953
plus	-12954
অনুক	-12955
আউটে	-12956
একজন	-12957
ডলার	-12958
ড়লে	-12959
নমুন	-12960
পারা	-12961
বোনা	-12962
মেরি	-12963
য়াদ	-12964
রিদম	-12965
লসের	-12966
ষ্ণা	-12967
সপ্ত	-12968
াকাপ	-12969
ানটি	-12970
ুদের	-12971
ুল্ক	-12972
্রোর	-12973
▁<<(	-12974
▁Ind	-12975
▁etc	-12976
▁kee	-12977
▁los	-12978
▁sub	-12979
▁sup	-12980
▁খেত	-12981
▁গলফ	-12982
▁জলদ	-12983
▁ডিক	-12984
▁তিম	-12985
▁দুল	-12986
▁পচে	-12987
▁পিচ	-12988
▁পেট	-12989
▁ফরি	-12990
▁ফুড	-12991
▁ভিউ	-12992
▁ভিন	-12993
▁মনি	-12994
▁মাহ	-12995
▁রইল	-12996
▁সাদ	-12997
▁সাহ	-12998
▁সিফ	-12999
▁সুপ	-13000
ample	-13001
anged	-13002
ested	-13003
imens	-13004
otice	-13005
ounts	-13006
ythag	-13007
উপহার	-13008
গুণফল	-13009
টিক্স	-13010
দেনের	-13011
ধার্ত	-13012
নেটের	-13013
পাত্র	-13014
বালের	-13015
বিক্র	-13016
মান্স	-13017
মারির	-13018
যাচাই	-13019
লাইনে	-13020
লাভের	-13021
লিকের	-13022
শীলতা	-13023
সঙ্গে	-13024
সীমের	-13025
সেন্ট	-13026
েয়গি	-13027
্রিয়	-13028
▁Expe	-13029
▁\[\\	-13030
▁cars	-13031
▁resp	-13032
▁scho	-13033
▁tick	-13034
▁yiel	-13035
▁আগ্ন	-13036
▁আয়ে	-13037
▁ইউজং	-13038
▁উষ্ণ	-13039
▁একশো	-13040
▁এরিন	-13041
▁এলসা	-13042
▁ওয়ন	-13043
▁কাবা	-13044
▁কোণা	-13045
▁ক্রা	-13046
▁গেকো	-13047
▁ঘটবে	-13048
▁ছড়ি	-13049
▁থলির	-13050
▁দাদি	-13051
▁ধারে	-13052
▁নোরা	-13053
▁পাঠা	-13054
▁ফ্লে	-13055
▁বকের	-13056
▁বেলি	-13057
▁ভিনে	-13058
▁মগের	-13059
▁মজুত	-13060
▁মাউস	-13061
▁মায়	-13062
▁মিডল	-13063
▁রেমি	-13064
▁রোগে	-13065
▁লিখল	-13066
▁সমাজ	-13067
▁সাবর	-13068
▁স্কট	-13069
▁হুলা	-13070
anging	-13071
ipping	-13072
omatic	-13073
titude	-13074
varphi	-13075
ক্রমিক	-13076
ঘন্টার	-13077
চেইনের	-13078
জেব্রা	-13079
নিকটতম	-13080
পারাগা	-13081
য়োজিত	-13082
ল্পনিক	-13083
শ্রুতি	-13084
সমান্ত	-13085
সিয়ান	-13086
সিয়ার	-13087
ৃত্তের	-13088
▁Angle	-13089
▁April	-13090
▁Heron	-13091
▁Point	-13092
▁Sadia	-13093
▁Speed	-13094
▁begin	-13095
▁flags	-13096
▁trees	-13097
▁আইভির	-13098
▁আইসিং	-13099
▁আখরোট	-13100
▁আর্কে	-13101
▁ইনিংস	-13102
▁উইলের	-13103
▁এটিতে	-13104
▁এনার্	-13105
▁এলিজা	-13106
▁কাঁচি	-13107
▁কাছের	-13108
▁ক্রেন	-13109
▁খাটার	-13110
▁গেমিং	-13111
▁গ্রোট	-13112
▁চাপের	-13113
▁জুলির	-13114
▁তিনার	-13115
▁দর্শন	-13116
▁দিককে	-13117
▁দিনটি	-13118
▁দিলেও	-13119
▁দেয়া	-13120
▁দ্বীপ	-13121
▁নকআউট	-13122
▁নীতির	-13123
▁পাড়া	-13124
▁পাবার	-13125
▁পেলেন	-13126
▁ফেলবে	-13127
▁বসবাস	-13128
▁বাটির	-13129
▁ভাজতে	-13130
▁ভান্য	-13131
▁ভাস্ক	-13132
▁ভিজিট	-13133
▁মানকে	-13134
▁যতবার	-13135
▁রানিং	-13136
▁রিডার	-13137
▁লাবিব	-13138
▁লিখুন	-13139
▁শার্ক	-13140
▁সংকেত	-13141
▁সবকটি	-13142
▁স্পাই	-13143
▁হারকে	-13144
▁হারুন	-13145
▁হোলের	-13146
mallest	-13147
আউন্সের	-13148
দ্বিগুণ	-13149
নির্বাচ	-13150
পরীক্ষা	-13151
োনিয়ার	-13152
▁Notice	-13153
▁Pythag	-13154
▁comput	-13155
▁floors	-13156
▁handsh	-13157
▁wheels	-13158
▁আরিফের	-13159
▁কনফারে	-13160
▁কবিরের	-13161
▁কৃষ্ণা	-13162
▁চারটির	-13163
▁চার্টে	-13164
▁জেরিকে	-13165
▁তখনকার	-13166
▁দেখাতে	-13167
▁ধারকটি	-13168
▁পদটিকে	-13169
▁পাখিটি	-13170
▁পারফর্	-13171
▁পালকের	-13172
▁প্রগতি	-13173
▁প্রিমি	-13174
▁ফাইনাল	-13175
▁ফোস্কা	-13176
▁বেথানি	-13177
▁বেলনের	-13178
▁বোঝানো	-13179
▁মাধ্যম	-13180
▁মিলাতে	-13181
▁লাফায়	-13182
▁সংগঠিত	-13183
▁সর্বসম	-13184
▁সসেজের	-13185
▁সাজায়	-13186
▁সেতুটি	-13187
▁স্যামি	-13188
▁স্লটের	-13189
▁হুইজিট	-13190
বর্তমানে	-13191
ল্যান্ডে	-13192
▁Iterate	-13193
▁convert	-13194
▁ensures	-13195
▁inverse	-13196
▁অখাওয়া	-13197
▁উত্তোলন	-13198
▁কাজকারী	-13199
▁ক্রেতার	-13200
▁গ্রাফিক	-13201
▁ঘোরানোর	-13202
▁চাকরিতে	-13203
▁চার্জার	-13204
▁চার্জের	-13205
▁ছয়জনের	-13206
▁জন্মানো	-13207
▁জলজন্তু	-13208
▁জলদস্যু	-13209
▁জামাকাপ	-13210
▁জাহিদের	-13211
▁টাচডাউন	-13212
▁টেহিয়ং	-13213
▁ট্রেলার	-13214
▁ডালিমের	-13215
▁ডেরেকের	-13216
▁তুষারের	-13217
▁তোমাদের	-13218
▁ধন্যবাদ	-13219
▁নাদিয়া	-13220
▁নিকোলের	-13221
▁পুকুরটি	-13222
▁পেরেকের	-13223
▁প্যাটিও	-13224
▁প্রকারে	-13225
▁ফেলেছেন	-13226
▁ফ্রান্স	-13227
▁বারবিকি	-13228
▁বিমানের	-13229
▁ব্রিজেট	-13230
▁ভেন্যুর	-13231
▁মার্গার	-13232
▁মার্চের	-13233
▁মিটবলের	-13234
▁ম্যাজিক	-13235
▁রোগীদের	-13236
▁লুসিয়া	-13237
▁শীর্ষের	-13238
▁সেন্টার	-13239
▁সৈন্যদল	-13240
▁স্কুলটি	-13241
▁হান্নাহ	-13242
ordinates	-13243
▁Expenses	-13244
▁November	-13245
▁Sequence	-13246
▁frequent	-13247
▁inradius	-13248
▁অক্টোপাস	-13249
▁আমেলিয়া	-13250
▁ইউটিলিটি	-13251
▁উদ্ভিদের	-13252
▁গাড়িটির	-13253
▁গিরগিটির	-13254
▁ঘনকগুলির	-13255
▁চলাকালীন	-13256
▁চিপমান্স	-13257
▁ট্যাংকের	-13258
▁তথ্যগুলো	-13259
▁দেওয়ালে	-13260
▁নাস্তায়	-13261
▁নিয়োজিত	-13262
▁পাওয়ালা	-13263
▁প্রতিরোধ	-13264
▁বন্ধুত্ব	-13265
▁বিন্দুটি	-13266
▁মালিকদের	-13267
▁রেকর্ডের	-13268
▁রেখাগুলি	-13269
▁লাইনআপের	-13270
▁সেন্টারে	-13271
▁সেবাস্টি	-13272
▁সৈন্যদলে	-13273
▁adjacency	-13274
▁inscribed	-13275
▁midpoints	-13276
▁structure	-13277
▁অপারেশনের	-13278
▁আগ্নেয়গি	-13279
▁একত্রীকরণ	-13280
▁ওলিভিয়ার	-13281
▁কারনেশনের	-13282
▁ক্যাটারার	-13283
▁ক্যাপ্টেন	-13284
▁জেরাল্ডের	-13285
▁ট্র্যাকের	-13286
▁ত্রৈমাসিক	-13287
▁প্লেয়ারে	-13288
▁ফুলওয়ালা	-13289
▁বিন্যাসটি	-13290
▁মার্টিনের	-13291
▁মৃত্যুহার	-13292
▁সাইকেলটির	-13293
▁স্ট্রিমিং	-13294
▁অঙ্কগুলোকে	-13295
▁কাটিয়েছেন	-13296
▁কোম্পানিটি	-13297
▁চতুস্তলকের	-13298
▁চালিয়েছিল	-13299
▁পৃষ্ঠাগুলি	-13300
▁প্রতিফলনের	-13301
▁প্রয়োজনের	-13302
▁ফ্যাক্টরিং	-13303
▁বৃত্তাকারে	-13304
▁ব্যবস্থাপক	-13305
▁সাবস্ক্রাই	-13306
▁হাসপাতালের	-13307
▁হ্যান্ডশেক	-13308
▁corresponds	-13309
▁অঙ্কবিশিষ্ট	-13310
▁অ্যাসপারাগা	-13311
▁আলেকজান্ডার	-13312
▁উৎপাদকগুলির	-13313
▁ওয়াইটবোর্ড	-13314
▁দৃশ্যকল্পের	-13315
▁প্রতিশ্রুতি	-13316
▁প্রোগ্রামার	-13317
বর্গক্ষেত্রের	-13318
▁calculations	-13319
▁mathematical	-13320
▁ক্রীড়াবিদের	-13321
▁জিঞ্জারব্রেড	-13322
▁ভিক্টোরিয়ার	-13323
▁ম্যানেজারদের	-13324
▁রসায়নবিদ্যা	-13325
▁understanding	-13326
▁অ্যাপারটাইজার	-13327
▁ধারাবাহিকভাবে	-13328
▁প্রশ্নানুসারে	-13329
▁নির্বাচনকারীদের	-13330
('	-13331
</	-13332
CE	-13333
PF	-13334
`।	-13335
oc	-13336
pq	-13337
{,	-13338
ণ্	-13339
রন	-13340
$**	-13341
)):	-13342
Int	-13343
bra	-13344
ily	-13345
ogn	-13346
tim	-13347
upi	-13348
ঁটি	-13349
গরে	-13350
গ্ধ	-13351
জাম	-13352
ডজন	-13353
ডিং	-13354
ডেন	-13355
তবে	-13356
দুধ	-13357
নাট	-13358
নাশ	-13359
পিন	-13360
বুও	-13361
রেট	-13362
র্স	-13363
লসি	-13364
শিক	-13365
ষ্প	-13366
▁Co	-13367
▁XR	-13368
▁`{	-13369
▁ডং	-13370
▁নু	-13371
▁মড	-13372
)^{\	-13373
,\,\	-13374
aces	-13375
anks	-13376
area	-13377
cept	-13378
cons	-13379
good	-13380
half	-13381
ithm	-13382
last	-13383
ones	-13384
wise	-13385
ঁজের	-13386
ংহাই	-13387
আয়ো	-13388
ইংরে	-13389
কুলে	-13390
গম্য	-13391
জাকে	-13392
ত্রে	-13393
দ্যু	-13394
বন্দ	-13395
বাহী	-13396
বাহে	-13397
ভরের	-13398
মরের	-13399
য়েস	-13400
লাতে	-13401
শাইন	-13402
হূর্	-13403
ান্ন	-13404
োটিন	-13405
্টিক	-13406
্যুৎ	-13407
্সির	-13408
▁Red	-13409
▁Rub	-13410
▁আরন	-13411
▁এলভ	-13412
▁এশা	-13413
▁কতো	-13414
▁খড়	-13415
▁গয়	-13416
▁ছাদ	-13417
▁ঝরে	-13418
▁টাঙ	-13419
▁তির	-13420
▁দার	-13421
▁পাগ	-13422
▁মুক	-13423
▁রুজ	-13424
▁শিন	-13425
)$**:	-13426
duces	-13427
iling	-13428
tenti	-13429
tical	-13430
tools	-13431
upied	-13432
অক্টো	-13433
অসমতা	-13434
কৃতির	-13435
ক্লাস	-13436
ঙ্কিত	-13437
ণ্ডার	-13438
ধায়ক	-13439
নিসের	-13440
পঞ্চম	-13441
পাসের	-13442
বাবার	-13443
বোনের	-13444
ভিয়া	-13445
মূলের	-13446
রেখার	-13447
রোয়া	-13448
র্ধ্ব	-13449
লোডের	-13450
সানার	-13451
সেলের	-13452
▁Shad	-13453
▁Taka	-13454
▁army	-13455
▁conn	-13456
▁pack	-13457
▁used	-13458
▁অপ্র	-13459
▁আহমে	-13460
▁এখান	-13461
▁কর্ন	-13462
▁কাকা	-13463
▁গিনি	-13464
▁ঘাতে	-13465
▁ঘোরা	-13466
▁ছাদে	-13467
▁জয়া	-13468
▁জ্বা	-13469
▁টসের	-13470
▁টানি	-13471
▁টেলি	-13472
▁টোকন	-13473
▁ট্রা	-13474
▁ডিবে	-13475
▁তবুও	-13476
▁তমার	-13477
▁তুলা	-13478
▁থাকি	-13479
▁দশকে	-13480
▁দামি	-13481
▁নামক	-13482
▁নিচু	-13483
▁পালে	-13484
▁ফুলে	-13485
▁ববির	-13486
▁ব্রক	-13487
▁ভাষণ	-13488
▁ভেরো	-13489
▁মর্গ	-13490
▁রফিক	-13491
▁শাড়	-13492
▁সাইড	-13493
▁সাদি	-13494
▁সানি	-13495
▁স্পট	-13496
▁হরটি	-13497
▁হাঙর	-13498
▁হানি	-13499
ctions	-13500
posite	-13501
অন্তর্	-13502
আয়োজক	-13503
ড্রাগন	-13504
বর্গের	-13505
য়েডের	-13506
িত্রের	-13507
িয়েলা	-13508
্যাপিং	-13509
্সিসের	-13510
▁Least	-13511
▁Solve	-13512
▁doors	-13513
▁sympy	-13514
▁tanks	-13515
▁tourn	-13516
▁অসমতল	-13517
▁আঠারো	-13518
▁আন্না	-13519
▁আয়তঘ	-13520
▁আয়ান	-13521
▁ইউঞ্জ	-13522
▁কাগজে	-13523
▁কারের	-13524
▁ক্যাশ	-13525
▁ক্রাই	-13526
▁গামের	-13527
▁গ্রেস	-13528
▁ঘেরাও	-13529
▁জমিতে	-13530
▁জ্ঞাত	-13531
▁ট্রিক	-13532
▁ডেভিন	-13533
▁ড্যার	-13534
▁তথ্যে	-13535
▁তাহমি	-13536
▁থাবোর	-13537
▁নাগেট	-13538
▁পরানো	-13539
▁পাবলো	-13540
▁বিক্ষ	-13541
▁বিগোর	-13542
▁বেঞ্জ	-13543
▁বৈজ্ঞ	-13544
▁ব্রাস	-13545
▁ভাস্য	-13546
▁মিমের	-13547
▁মোটের	-13548
▁রক্ষক	-13549
▁লাগলো	-13550
▁লাগান	-13551
▁লিখলে	-13552
▁সর্বো	-13553
▁সাইটে	-13554
▁সুজান	-13555
▁স্নাত	-13556
▁স্লেট	-13557
▁হামিদ	-13558
▁হ্যাঁ	-13559
enerate	-13560
factors	-13561
দ্যুতিক	-13562
ারেল্লা	-13563
্রিয়ার	-13564
্রোব্যা	-13565
্ল্যাডি	-13566
▁Expand	-13567
▁Geomet	-13568
▁orange	-13569
▁school	-13570
▁অধিবেশ	-13571
▁অ্যালো	-13572
▁আঙুরের	-13573
▁আনিকার	-13574
▁আলপাকা	-13575
▁আলানের	-13576
▁ইভেন্ট	-13577
▁কাইলির	-13578
▁কাবাডি	-13579
▁কারলের	-13580
▁কুইজের	-13581
▁গর্তটি	-13582
▁গিয়ার	-13583
▁গ্যারি	-13584
▁চাওয়া	-13585
▁জসীমের	-13586
▁জেরেমি	-13587
▁জ্বালা	-13588
▁থামায়	-13589
▁দেয়নি	-13590
▁ধাক্কা	-13591
▁নামকরণ	-13592
▁নোয়াহ	-13593
▁পরিচয়	-13594
▁পিয়াল	-13595
▁ফরিদের	-13596
▁ফাঁকের	-13597
▁ফ্লাইট	-13598
▁বন্দুক	-13599
▁বানরটি	-13600
▁বামনের	-13601
▁ব্রাউন	-13602
▁ভ্যালে	-13603
▁মাইলেজ	-13604
▁মার্সি	-13605
▁মিলাবে	-13606
▁মুহূর্	-13607
▁ম্যাগি	-13608
▁যোদ্ধা	-13609
▁লরেন্স	-13610
▁লিমনের	-13611
▁লেনদেন	-13612
▁লোকসান	-13613
▁শ্রেণি	-13614
▁সমমিতি	-13615
▁সর্পিল	-13616
▁সাজালে	-13617
▁সামিরা	-13618
▁সিডনির	-13619
▁স্যামু	-13620
▁স্যুটে	-13621
▁হেরেছে	-13622
multiple	-13623
original	-13624
petition	-13625
প্রশ্নটি	-13626
বিদ্যায়	-13627
সীমাবদ্ধ	-13628
▁Compute	-13629
▁element	-13630
▁iterate	-13631
▁ordered	-13632
▁potenti	-13633
▁selling	-13634
▁solving	-13635
▁subtrac	-13636
▁surface	-13637
▁অনুগ্রহ	-13638
▁অলঙ্কার	-13639
▁অসাধারণ	-13640
▁ইউসুফের	-13641
▁উৎপাদনে	-13642
▁এনার্জি	-13643
▁কর্তব্য	-13644
▁কোনোটিই	-13645
▁ক্ষেতের	-13646
▁খেলেছেন	-13647
▁গ্যারির	-13648
▁চৌদ্দটি	-13649
▁ছেলেটির	-13650
▁জাদুকরী	-13651
▁জেমসনের	-13652
▁জোড়াকে	-13653
▁টারান্ট	-13654
▁নিলয়ের	-13655
▁পৌঁছানো	-13656
▁প্রচারণ	-13657
▁ফুলিয়ে	-13658
▁বসন্তের	-13659
▁বস্তায়	-13660
▁বিষাক্ত	-13661
▁বোধগম্য	-13662
▁মালামাল	-13663
▁মিংয়ের	-13664
▁মেগাবিট	-13665
▁যেগুলোর	-13666
▁রবার্টো	-13667
▁সাইকেলে	-13668
▁সাদৃশ্য	-13669
▁সানশাইন	-13670
▁সাবানের	-13671
▁সুড়ঙ্গ	-13672
▁স্টেসির	-13673
▁স্থানিক	-13674
▁স্যামকে	-13675
▁স্লাইডে	-13676
▁হান্সের	-13677
iguration	-13678
imensions	-13679
ত্রিভুজের	-13680
পূর্ণবর্গ	-13681
▁Divisors	-13682
▁arranged	-13683
▁bacteria	-13684
▁computed	-13685
▁conclude	-13686
▁daughter	-13687
▁included	-13688
▁occupied	-13689
▁অর্ধবর্ষ	-13690
▁ইউএসডিতে	-13691
▁ইয়ার্ডে	-13692
▁উপসভাপতি	-13693
▁এনেছিলেন	-13694
▁কার্টনের	-13695
▁কার্টুনে	-13696
▁ক্যালভিন	-13697
▁গ্ল্যাডি	-13698
▁চার্লসের	-13699
▁ট্রেভরের	-13700
▁ড্রাইভিং	-13701
▁দ্রাক্ষা	-13702
▁নাইট্রেট	-13703
▁নির্দেশক	-13704
▁নির্মাণে	-13705
▁পরস্পরকে	-13706
▁পরিবারটি	-13707
▁পাত্রটির	-13708
▁পাম্পকিন	-13709
▁ফার্মেসি	-13710
▁ফ্লায়ার	-13711
▁ফ্ল্যাটে	-13712
▁বিড়ালকে	-13713
▁ভাগ্যবান	-13714
▁মাউন্টেন	-13715
▁ম্যাকরেল	-13716
▁রাশিগুলি	-13717
▁লিয়ামের	-13718
▁শীতকালীন	-13719
▁সঞ্চয়ের	-13720
▁সামগ্রীর	-13721
▁স্কোয়াট	-13722
▁হাসপাতাল	-13723
▁হ্রাসকৃত	-13724
decreasing	-13725
গ্রহণযোগ্য	-13726
▁increment	-13727
▁satisfied	-13728
▁variables	-13729
▁আমেরিকায়	-13730
▁কন্টেইনার	-13731
▁কর্মদিবসে	-13732
▁কেটেছিলেন	-13733
▁ক্ষুধার্ত	-13734
▁ট্যাক্সের	-13735
▁দেখাশুনার	-13736
▁দৌড়বিদের	-13737
▁পড়াশোনার	-13738
▁পরিবেশনের	-13739
▁পেস্ট্রির	-13740
▁প্যাকেজিং	-13741
▁প্রতিজনের	-13742
▁প্রতিষ্ঠা	-13743
▁প্ল্যানের	-13744
▁বেড়াটিতে	-13745
▁বৈজ্ঞানিক	-13746
▁বৈদ্যুতিক	-13747
▁মানগুলিকে	-13748
▁সংখ্যকবার	-13749
▁সহপাঠীদের	-13750
ubstituting	-13751
▁handshakes	-13752
▁tournament	-13753
▁অলিম্পিয়া	-13754
▁আত্মীয়দের	-13755
▁উপস্থিতদের	-13756
▁এলিজাবেথের	-13757
▁খেলাধুলায়	-13758
▁গ্যালারিতে	-13759
▁ছায়াঙ্কিত	-13760
▁জানোয়ারের	-13761
▁পার্মুটেশন	-13762
▁বর্ণমালায়	-13763
▁সংখ্যাসূচক	-13764
▁সাবস্ক্রিপ	-13765
▁ক্যালেন্ডার	-13766
▁ক্র্যাকারের	-13767
▁তৃতীয়াংশের	-13768
▁বন্ধুবান্ধব	-13769
▁ব্রোকারেজের	-13770
▁ভিক্টোরিয়া	-13771
▁সংবাদপত্রের	-13772
▁স্টেডিয়ামে	-13773
▁Distribution	-13774
▁অ্যাক্রোব্যা	-13775
▁অ্যাপেটাইজার	-13776
▁ড্যানিয়েলের	-13777
▁বিন্দুগুলোকে	-13778
▁ভগ্নাংশগুলির	-13779
▁ম্যাটিয়াসের	-13780
▁approximately	-13781
▁হাইড্রোক্সাইড	-13782
ca	-13783
fe	-13784
{}	-13785
}-	-13786
আল	-13787
উৎ	-13788
জড	-13789
▁_	-13790
ABA	-13791
Not	-13792
ask	-13793
fis	-13794
haw	-13795
pis	-13796
অতি	-13797
ইতি	-13798
ইলো	-13799
কিল	-13800
ক্ক	-13801
টেজ	-13802
নাই	-13803
বিং	-13804
ভেট	-13805
মিঃ	-13806
মুর	-13807
সাল	-13808
হলে	-13809
হোল	-13810
াইট	-13811
োদন	-13812
▁Am	-13813
▁DF	-13814
▁PA	-13815
▁Pe	-13816
▁মখ	-13817
▁লট	-13818
▁শপ	-13819
,...	-13820
aint	-13821
ouse	-13822
part	-13823
perm	-13824
ract	-13825
thod	-13826
work	-13827
})\]	-13828
})}{	-13829
ইয়ো	-13830
কাটা	-13831
কোনো	-13832
চার্	-13833
জামা	-13834
টরের	-13835
ট্যা	-13836
থেকে	-13837
দাদী	-13838
ধরুন	-13839
পাশা	-13840
ফ্লো	-13841
বেলে	-13842
লিনা	-13843
সংশো	-13844
ানকে	-13845
ার্ভ	-13846
িনীর	-13847
্পির	-13848
্পেট	-13849
্বিল	-13850
▁"!"	-13851
▁DBA	-13852
▁Tah	-13853
▁\(=	-13854
▁\[{	-13855
▁aba	-13856
▁fun	-13857
▁mis	-13858
▁own	-13859
▁soc	-13860
▁ইমু	-13861
▁এডি	-13862
▁এসি	-13863
▁গাই	-13864
▁ছাপ	-13865
▁জনে	-13866
▁জাগ	-13867
▁জোন	-13868
▁টিল	-13869
▁টোল	-13870
▁ততো	-13871
▁তমা	-13872
▁তলে	-13873
▁দুঃ	-13874
▁নাত	-13875
▁পোন	-13876
▁ফাজ	-13877
▁বনি	-13878
▁ভেক	-13879
▁যুজ	-13880
▁রোড	-13881
▁শ্র	-13882
▁সেথ	-13883
▁হুম	-13884
\}\),	-13885
arity	-13886
elves	-13887
meter	-13888
orean	-13889
ourth	-13890
tains	-13891
teams	-13892
ঁধুনি	-13893
অন্তত	-13894
গালের	-13895
চেইনে	-13896
চ্ছ্ব	-13897
ডেনের	-13898
নাকার	-13899
নিজের	-13900
নোমের	-13901
প্রাই	-13902
বাসীর	-13903
বেড়া	-13904
ভাগের	-13905
লাসের	-13906
সার্ট	-13907
হাম্ম	-13908
াক্ষর	-13909
▁Seat	-13910
▁\((-	-13911
▁goes	-13912
▁outs	-13913
▁page	-13914
▁rest	-13915
▁sqrt	-13916
▁towe	-13917
▁walk	-13918
▁আদিল	-13919
▁করেও	-13920
▁কাইল	-13921
▁কেসি	-13922
▁কোষে	-13923
▁গায়	-13924
▁চৌকি	-13925
▁ছুরি	-13926
▁জিমে	-13927
▁জুনে	-13928
▁টিতে	-13929
▁টিনে	-13930
▁নাচে	-13931
▁নার্	-13932
▁নিনা	-13933
▁নিয়	-13934
▁পুনঃ	-13935
▁পেলো	-13936
▁পোষণ	-13937
▁ফুটো	-13938
▁ফেয়	-13939
▁বড়ো	-13940
▁বললো	-13941
▁বিলে	-13942
▁বেগম	-13943
▁ভার্	-13944
▁মলের	-13945
▁মহান	-13946
▁রইলো	-13947
▁রেদো	-13948
▁শিকা	-13949
▁শোভা	-13950
▁সৈকত	-13951
▁স্থি	-13952
▁হেরে	-13953
ecting	-13954
values	-13955
আমাদের	-13956
কল্পনা	-13957
দশমাংশ	-13958
পক্ষের	-13959
পশ্চিম	-13960
পিজ্জা	-13961
প্রিলে	-13962
ষড়ভুজ	-13963
স্পরিক	-13964
▁Among	-13965
▁Nafis	-13966
▁Their	-13967
▁apply	-13968
▁gifts	-13969
▁simul	-13970
▁table	-13971
▁অক্ষত	-13972
▁অর্ধে	-13973
▁এগারো	-13974
▁কলসির	-13975
▁কাউন্	-13976
▁কিছুই	-13977
▁কূপের	-13978
▁কোচের	-13979
▁ক্যাথ	-13980
▁জারেড	-13981
▁জীবের	-13982
▁টাইপি	-13983
▁ডজনের	-13984
▁ডেরেক	-13985
▁তাড়া	-13986
▁থাকলো	-13987
▁নয়জন	-13988
▁পাইতে	-13989
▁পাওলা	-13990
▁পৃথিব	-13991
▁ফার্ম	-13992
▁ফোনটি	-13993
▁বক্সে	-13994
▁বছরটি	-13995
▁বাতাস	-13996
▁বাম্প	-13997
▁বারেক	-13998
▁বার্ব	-13999
▁বিথির	-14000
▁বেকির	-14001
▁মারতে	-14002
▁মিনজং	-14003
▁রক্ষী	-14004
▁রামেন	-14005
▁লাইলা	-14006
▁শাখার	-14007
▁শেলির	-14008
▁সত্যি	-14009
▁সহায়	-14010
▁সামের	-14011
▁সীমিত	-14012
▁হারিছ	-14013
▁হালিম	-14014
▁হেদার	-14015
Numbers	-14016
Solving	-14017
alyzing	-14018
osition	-14019
seconds	-14020
উপযুক্ত	-14021
জিংয়ের	-14022
ন্ডারের	-14023
প্রান্ত	-14024
ব্যবহৃত	-14025
িয়াসের	-14026
▁Tahmid	-14027
▁candid	-14028
▁choice	-14029
▁evenly	-14030
▁likely	-14031
▁parity	-14032
▁repeat	-14033
▁scored	-14034
▁অদৃশ্য	-14035
▁ইঞ্জিন	-14036
▁উভয়টি	-14037
▁ওয়াইপ	-14038
▁কলেজের	-14039
▁কিগ্রা	-14040
▁কোল্যা	-14041
▁ক্যানু	-14042
▁খুঁজতে	-14043
▁গোছায়	-14044
▁চাবিটি	-14045
▁জানানো	-14046
▁জামিলা	-14047
▁ট্যামি	-14048
▁ডিভাইস	-14049
▁ততোধিক	-14050
▁দখলকৃত	-14051
▁দুটিকে	-14052
▁দ্রব্য	-14053
▁ধারণার	-14054
▁নবজাতক	-14055
▁পাচ্ছে	-14056
▁পারতেন	-14057
▁ফাইলের	-14058
▁ফিবোনা	-14059
▁বক্তার	-14060
▁বলেছিল	-14061
▁বিতর্ক	-14062
▁ব্যারে	-14063
▁মার্চে	-14064
▁মাল্টি	-14065
▁মুক্তা	-14066
▁মুক্তি	-14067
▁ম্যানি	-14068
▁রাইলির	-14069
▁লিয়ার	-14070
▁ল্যাপে	-14071
▁ল্যাবে	-14072
▁শিয়ান	-14073
▁সিয়ান	-14074
▁সুমনের	-14075
▁সের্জি	-14076
▁স্কটের	-14077
▁স্মুথি	-14078
▁হারমাই	-14079
ইতিমধ্যে	-14080
▁Factors	-14081
▁Maximum	-14082
▁outside	-14083
▁periods	-14084
▁removed	-14085
▁repeats	-14086
▁running	-14087
▁subsets	-14088
▁অতিথিরা	-14089
▁অন্ধকার	-14090
▁অবদানের	-14091
▁অভিনেতা	-14092
▁ইতিহাসে	-14093
▁উল্টালে	-14094
▁এপ্রিলে	-14095
▁ওয়েটার	-14096
▁কামারির	-14097
▁ক্ষতিতে	-14098
▁গর্ডনের	-14099
▁গালিচার	-14100
▁গিটারের	-14101
▁গোত্রের	-14102
▁চার্জিং	-14103
▁জনগোষ্ঠ	-14104
▁জেব্রার	-14105
▁জেরাল্ড	-14106
▁জোসেফের	-14107
▁ট্রেনকে	-14108
▁ডিয়েগো	-14109
▁তারামাছ	-14110
▁থার্মোস	-14111
▁দলগুলির	-14112
▁দশভুজের	-14113
▁নির্গমন	-14114
▁পরিপক্ক	-14115
▁পরিসরের	-14116
▁পাইকারি	-14117
▁পিরিয়ড	-14118
▁পুরুষকে	-14119
▁পোড়ানো	-14120
▁প্রকৃতি	-14121
▁প্রথমের	-14122
▁প্রশ্নই	-14123
▁প্রোটিন	-14124
▁ফাংশনের	-14125
▁বার্গেন	-14126
▁মাস্টার	-14127
▁মিচেলের	-14128
▁মেশিনটি	-14129
▁মোহাম্ম	-14130
▁রাঁধুনি	-14131
▁শামুকের	-14132
▁শুকিয়ে	-14133
▁শ্রীমতী	-14134
▁সমতলীয়	-14135
▁সীমানার	-14136
▁সুপারিশ	-14137
▁সূত্রের	-14138
▁সেগুলির	-14139
▁স্কার্ফ	-14140
▁স্থানটি	-14141
ersection	-14142
ব্যাসার্ধ	-14143
▁Identify	-14144
▁criteria	-14145
▁earnings	-14146
▁reversed	-14147
▁অনুশীলনে	-14148
▁অন্যথায়	-14149
▁অর্ডারটি	-14150
▁কিশমিশের	-14151
▁ক্যামেরন	-14152
▁গায়কদের	-14153
▁জ্যাসমিন	-14154
▁ট্যাংকটি	-14155
▁দৈর্ঘ্যে	-14156
▁নিবন্ধিত	-14157
▁পর্যটকের	-14158
▁পাঁচজনের	-14159
▁পিকনিকের	-14160
▁প্রচারের	-14161
▁প্রদানের	-14162
▁বর্ণমালা	-14163
▁বানাচ্ছে	-14164
▁বিড়ালটি	-14165
▁বিভাজনের	-14166
▁বেড়ােতে	-14167
▁ভারসাম্য	-14168
▁রেদোয়ান	-14169
▁সন্তানকে	-14170
▁সরবরাহের	-14171
▁সেগমেন্ট	-14172
▁সোফিয়ার	-14173
▁স্ত্রীকে	-14174
▁স্পেয়ার	-14175
etermining	-14176
increasing	-14177
▁alternate	-14178
▁specifies	-14179
▁অধ্যয়নের	-14180
▁ইলেকট্রিক	-14181
▁কনসার্টের	-14182
▁কারখানাটি	-14183
▁কিনেছিলাম	-14184
▁ক্যাবিনেট	-14185
▁চ্যালেঞ্জ	-14186
▁জানুয়ারি	-14187
▁ট্র্যাকটি	-14188
▁দৌড়াচ্ছে	-14189
▁পারস্পরিক	-14190
▁প্রতিপক্ষ	-14191
▁প্লাম্বার	-14192
▁ফলাফলগুলো	-14193
▁ফ্ল্যাটের	-14194
▁বিমানবন্দ	-14195
▁ব্যতিক্রম	-14196
▁ব্যান্ডের	-14197
▁ব্রোঞ্জের	-14198
▁মঙ্গলগ্রহ	-14199
▁মারিয়াকে	-14200
▁রুস্টারের	-14201
▁লিখেছিলেন	-14202
▁শর্তগুলির	-14203
▁শর্তাবলীর	-14204
▁সর্বোত্তম	-14205
▁সিওকজিনের	-14206
প্রেসিডেন্ট	-14207
▁contribute	-14208
▁rectangles	-14209
▁simplicity	-14210
▁আসনবিশিষ্ট	-14211
▁উইলিয়ামকে	-14212
▁উৎপাদকগুলো	-14213
▁ওয়ার্কশপে	-14214
▁কিলোমিটারে	-14215
▁ক্রিয়াকলা	-14216
▁পেপারজ্যাক	-14217
▁প্রতিসমতার	-14218
▁প্রবেশকারী	-14219
▁প্রশিক্ষণে	-14220
▁বাক্সগুলির	-14221
▁বিন্দুগুলো	-14222
▁ব্যবস্থাটি	-14223
▁শাস্ত্রীয়	-14224
▁সম্ভাবনাকে	-14225
▁সোয়ানসনের	-14226
▁স্থানপূর্ণ	-14227
▁স্মার্টফোন	-14228
▁Pythagorean	-14229
▁competition	-14230
▁congruences	-14231
▁individuals	-14232
▁occurrences	-14233
▁permutation	-14234
▁উল্লেখযোগ্য	-14235
▁ক্রিকেটারের	-14236
▁ক্ষেত্রটিকে	-14237
▁ঘনক্ষেত্রের	-14238
▁দ্বিতীয়টির	-14239
▁বার্ষিকভাবে	-14240
▁বিট্রিক্সের	-14241
▁বিল্ডিংয়ের	-14242
▁যুক্তিযুক্ত	-14243
▁লক্ষ্যবস্তু	-14244
▁সংযুক্তকারী	-14245
▁স্প্রিন্টার	-14246
▁ইলেকট্রনিক্স	-14247
▁কেন্দ্রস্থলে	-14248
▁ক্রয়মূল্যের	-14249
▁ব্র্যান্ডনের	-14250
▁ভ্রমণকারীদের	-14251
▁লাগিয়েছিলেন	-14252
▁অ্যাসাইনমেন্ট	-14253
▁চ্যাম্পিয়নশি	-14254
▁তত্ত্বাবধায়ক	-14255
▁ভগ্নাংশগুলিকে	-14256
▁সেন্টিমিটারের	-14257
▁representation	-14258
▁স্প্রিংফিল্ডের	-14259
▁বর্গক্ষেত্রাকার	-14260
=?	-14261
MI	-14262
OM	-14263
[(	-14264
[\	-14265
\*	-14266
bo	-14267
dc	-14268
hs	-14269
{[	-14270
}:	-14271
অভ	-14272
আট	-14273
জল	-14274
বব	-14275
বহ	-14276
ষধ	-14277
ূট	-14278
)!$	-14279
AAB	-14280
Add	-14281
HCO	-14282
Two	-14283
ech	-14284
eps	-14285
ier	-14286
ift	-14287
jec	-14288
oes	-14289
ped	-14290
raz	-14291
tax	-14292
ঁটা	-14293
কাই	-14294
ঘরে	-14295
ঙের	-14296
ছয়	-14297
ড়ো	-14298
তরণ	-14299
তিফ	-14300
ধরা	-14301
নোট	-14302
ফিস	-14303
বেক	-14304
ভুত	-14305
মরি	-14306
সনে	-14307
সমে	-14308
সাং	-14309
হিদ	-14310
হোর	-14311
ুখি	-14312
▁EF	-14313
▁NH	-14314
▁Sa	-14315
▁dt	-14316
▁mn	-14317
▁oz	-14318
▁pq	-14319
▁ইঁ	-14320
▁জর	-14321
▁ঝর	-14322
▁রট	-14323
)**,	-14324
---+	-14325
abij	-14326
anan	-14327
aves	-14328
eded	-14329
ilon	-14330
plan	-14331
shir	-14332
side	-14333
subs	-14334
}}}{	-14335
উনের	-14336
এন্ড	-14337
ওনের	-14338
কতের	-14339
গমের	-14340
ছিলে	-14341
টিকি	-14342
পতির	-14343
ব্লক	-14344
মিনি	-14345
শোনা	-14346
সাইড	-14347
সিংহ	-14348
স্তর	-14349
ামিন	-14350
াযোগ	-14351
ীদার	-14352
ূটনী	-14353
▁$(\	-14354
▁${{	-14355
▁**\	-14356
▁//=	-14357
▁Apu	-14358
▁Ima	-14359
▁Mon	-14360
▁Sun	-14361
▁___	-14362
▁chr	-14363
▁fil	-14364
▁her	-14365
▁mat	-14366
▁men	-14367
▁old	-14368
▁pop	-14369
▁sal	-14370
▁sch	-14371
▁অদ্	-14372
▁আগু	-14373
▁আজা	-14374
▁ওটস	-14375
▁করণ	-14376
▁কিথ	-14377
▁গজে	-14378
▁চাদ	-14379
▁ছাই	-14380
▁ছিট	-14381
▁জোক	-14382
▁তীর	-14383
▁নিচ	-14384
▁নিট	-14385
▁পটা	-14386
▁পাক	-14387
▁বংশ	-14388
▁বপন	-14389
▁বলদ	-14390
▁বিট	-14391
▁ভুজ	-14392
▁মিথ	-14393
▁মোড	-14394
▁শপে	-14395
▁সাক	-14396
▁সীল	-14397
▁সূর	-14398
Range	-14399
minus	-14400
odulo	-14401
tinue	-14402
vings	-14403
ইতিহা	-14404
ওয়াক	-14405
ওয়ান	-14406
কেন্দ	-14407
গ্রিন	-14408
চ্ছেদ	-14409
জনীতি	-14410
জেন্ট	-14411
দ্ধের	-14412
নিকেল	-14413
নেলের	-14414
ফাইনা	-14415
বিভাগ	-14416
ব্রিড	-14417
মার্চ	-14418
য়র্ক	-14419
রুটির	-14420
লোচনা	-14421
ষিদ্ধ	-14422
স্কাপ	-14423
স্টনে	-14424
স্তের	-14425
িয়াস	-14426
ীমায়	-14427
োমুখি	-14428
▁Also	-14429
▁Math	-14430
▁adds	-14431
▁bott	-14432
▁carr	-14433
▁fish	-14434
▁here	-14435
▁lead	-14436
▁milk	-14437
▁none	-14438
▁tree	-14439
▁অডিও	-14440
▁অডিট	-14441
▁অভেদ	-14442
▁অমির	-14443
▁এরিক	-14444
▁কলের	-14445
▁কাদা	-14446
▁কোরি	-14447
▁খনিজ	-14448
▁চপ্প	-14449
▁ছষ্ঠ	-14450
▁জেগে	-14451
▁জ্যো	-14452
▁টেলর	-14453
▁টোরি	-14454
▁ঠেলা	-14455
▁তুলি	-14456
▁থ্রি	-14457
▁দয়া	-14458
▁দিবে	-14459
▁ধুলা	-14460
▁নাহি	-14461
▁নেলি	-14462
▁পথটি	-14463
▁পরাব	-14464
▁পাটি	-14465
▁পিজা	-14466
▁প্রো	-14467
▁ববকে	-14468
▁বরিস	-14469
▁বলবে	-14470
▁বিনা	-14471
▁বিশপ	-14472
▁ভ্লা	-14473
▁মোনা	-14474
▁যাবো	-14475
▁রোলে	-14476
▁লগের	-14477
▁লটার	-14478
▁শীলা	-14479
▁সক্স	-14480
▁সবার	-14481
▁সীকি	-14482
▁হবার	-14483
▁হলেন	-14484
hspace	-14485
ibling	-14486
length	-14487
ondays	-14488
ওয়ারি	-14489
টবর্তী	-14490
পারকিউ	-14491
পিছনের	-14492
প্রত্য	-14493
য়োলিন	-14494
লাইটের	-14495
লাইনের	-14496
িয়নের	-14497
্যান্স	-14498
্রামিত	-14499
্র্যাট	-14500
▁Nadim	-14501
▁added	-14502
▁allow	-14503
▁along	-14504
▁drawn	-14505
▁grams	-14506
▁input	-14507
▁ricks	-14508
▁seeds	-14509
▁socks	-14510
▁store	-14511
▁touch	-14512
▁upper	-14513
▁অবতরণ	-14514
▁আয়রন	-14515
▁আয়োড	-14516
▁উইলির	-14517
▁উজানে	-14518
▁উঠেছে	-14519
▁উড়তে	-14520
▁কথাটি	-14521
▁কম্পা	-14522
▁করাতে	-14523
▁কর্ণে	-14524
▁কাঁটা	-14525
▁কারসন	-14526
▁কালার	-14527
▁কিশোর	-14528
▁কুগার	-14529
▁কুড়া	-14530
▁কূটনী	-14531
▁কেয়া	-14532
▁ক্লের	-14533
▁গতিবে	-14534
▁গবলিন	-14535
▁গয়না	-14536
▁গানটি	-14537
▁ঘোষণা	-14538
▁চেডার	-14539
▁জানেট	-14540
▁জারিফ	-14541
▁জিশান	-14542
▁জুটির	-14543
▁জুডের	-14544
▁জোকার	-14545
▁জোন্স	-14546
▁ঝড়ের	-14547
▁টিউনা	-14548
▁ডালমে	-14549
▁ডেনিস	-14550
▁দশবার	-14551
▁দেশেই	-14552
▁ধাপটি	-14553
▁পর্দা	-14554
▁পর্বে	-14555
▁পারলে	-14556
▁পিলুল	-14557
▁পুলের	-14558
▁পেপের	-14559
▁পোকার	-14560
▁ফ্যান	-14561
▁বইয়ে	-14562
▁বাজান	-14563
▁মায়া	-14564
▁মুখকে	-14565
▁মুবিন	-14566
▁মূলের	-14567
▁মোজাই	-14568
▁রঙকরণ	-14569
▁রয়ের	-14570
▁রাহুল	-14571
▁রুপার	-14572
▁লীজার	-14573
▁শেলফে	-14574
▁সজ্জা	-14575
▁সম্পদ	-14576
▁সাবিন	-14577
▁সিরাপ	-14578
▁সিশেল	-14579
▁সুমাই	-14580
▁হেক্ট	-14581
▁হেজেল	-14582
abijabi	-14583
epsilon	-14584
erefore	-14585
matches	-14586
present	-14587
চিত্রের	-14588
চ্ছিলেন	-14589
ছেলেদের	-14590
প্যাকের	-14591
ফ্যাক্ট	-14592
সংমিশ্র	-14593
সংশোধিত	-14594
সম্পর্ক	-14595
স্ট্রিম	-14596
স্থিতির	-14597
▁across	-14598
▁change	-14599
▁mature	-14600
▁method	-14601
▁অদ্ভুত	-14602
▁অনিন্দ	-14603
▁অনুদান	-14604
▁অর্ঘের	-14605
▁অলোকের	-14606
▁আকাশের	-14607
▁আচারের	-14608
▁আজিজের	-14609
▁আবর্জন	-14610
▁ইস্কাপ	-14611
▁উৎসবের	-14612
▁এতগুলো	-14613
▁এমিলীর	-14614
▁কলসিতে	-14615
▁কিনছেন	-14616
▁ক্যাবে	-14617
▁গনোমের	-14618
▁গিনিপি	-14619
▁ঘড়িতে	-14620
▁ঘরোয়া	-14621
▁ঘুরানো	-14622
▁চক্রটি	-14623
▁চলরাশি	-14624
▁ছাত্রই	-14625
▁জাফরান	-14626
▁টাইপিং	-14627
▁ডায়ান	-14628
▁তারটির	-14629
▁তির্যক	-14630
▁দলগুলি	-14631
▁নামজুন	-14632
▁পজিটিভ	-14633
▁পরিমান	-14634
▁পাইয়ে	-14635
▁পাড়ার	-14636
▁বর্গকে	-14637
▁বুফেতে	-14638
▁বৈপরীত	-14639
▁ভাস্যা	-14640
▁মিলিপি	-14641
▁শিকাগো	-14642
▁সংযোজক	-14643
▁সজ্জার	-14644
▁সন্ধান	-14645
▁সৃষ্টি	-14646
▁সৌরভের	-14647
▁স্কোরি	-14648
▁স্থিতি	-14649
▁হরিণের	-14650
---|---|	-14651
........	-14652
টাইজারের	-14653
নেতিবাচক	-14654
শিয়ানের	-14655
সপ্তাহের	-14656
সমাবেশের	-14657
সিয়েনের	-14658
▁Largest	-14659
▁Minimum	-14660
▁getting	-14661
▁options	-14662
▁reaches	-14663
▁remains	-14664
▁showing	-14665
▁অংশীদার	-14666
▁অডিটোরি	-14667
▁অধিবেশন	-14668
▁অসমতাকে	-14669
▁অ্যানির	-14670
▁আইনজীবী	-14671
▁আইসোটোপ	-14672
▁আঙ্গিনা	-14673
▁আভাকাডো	-14674
▁আয়তনকে	-14675
▁আর্কেডে	-14676
▁কার্যদি	-14677
▁ক্যাথির	-14678
▁ক্যালেব	-14679
▁খাদ্যের	-14680
▁খাবারটি	-14681
▁গাপ্পির	-14682
▁গুলিয়ে	-14683
▁গ্রাফের	-14684
▁চুক্তির	-14685
▁ছাড়কৃত	-14686
▁ছেদরেখা	-14687
▁জরিপকৃত	-14688
▁জ্বালান	-14689
▁টিকটিকি	-14690
▁ডাকিয়া	-14691
▁ডার্সির	-14692
▁ড্রামের	-14693
▁দুর্গের	-14694
▁পনেরোটি	-14695
▁পয়সায়	-14696
▁পাড়ায়	-14697
▁পারেননি	-14698
▁পেপারের	-14699
▁পেলিখান	-14700
▁প্রহসনে	-14701
▁প্রাপ্য	-14702
▁প্রিন্স	-14703
▁ফারিয়া	-14704
▁ফোয়েরে	-14705
▁বক্সকার	-14706
▁বামদিকে	-14707
▁বার্টের	-14708
▁বৃত্তকে	-14709
▁বেলালের	-14710
▁মোবাইলে	-14711
▁রাজনীতি	-14712
▁রানারের	-14713
▁রিকোয়ে	-14714
▁রুবিনার	-14715
▁শর্টসের	-14716
▁সমমিতির	-14717
▁সাইমনের	-14718
▁সাকিবের	-14719
▁সেটগুলি	-14720
▁স্কোরকে	-14721
▁স্থাপিত	-14722
▁স্লাইসে	-14723
▁হামিদের	-14724
inclusive	-14725
দ্রষ্টব্য	-14726
পিরামিডের	-14727
▁opposite	-14728
▁rickshaw	-14729
▁tangency	-14730
▁trailing	-14731
▁অনুমানের	-14732
▁অপেক্ষার	-14733
▁অ্যাওয়ে	-14734
▁অ্যাথলেট	-14735
▁ওস্কারের	-14736
▁ক্যাটফিশ	-14737
▁ক্যাফেতে	-14738
▁ক্লিনিকে	-14739
▁ক্লেয়ার	-14740
▁গুড়িয়া	-14741
▁চতুষ্পদী	-14742
▁জর্জিয়া	-14743
▁টেরিয়ার	-14744
▁ডানহস্তী	-14745
▁দৌড়েছেন	-14746
▁পিটবুলের	-14747
▁পিরামিডে	-14748
▁প্যাট্রি	-14749
▁প্রবাহিত	-14750
▁বন্যপ্রা	-14751
▁বাউন্সের	-14752
▁বাচ্চারা	-14753
▁বাসিন্দা	-14754
▁বিকল্পটি	-14755
▁ব্যবধানে	-14756
▁ব্যাারেল	-14757
▁ভাইবোনকে	-14758
▁ভাগশেষের	-14759
▁ভিক্টরের	-14760
▁মালিকানা	-14761
▁মিল্কশেক	-14762
▁মিস্ত্রি	-14763
▁মুখোমুখি	-14764
▁সংরক্ষিত	-14765
▁সমপরিমাণ	-14766
▁সাঁতারের	-14767
▁সারপ্রাই	-14768
▁সিয়ামের	-14769
▁হাইব্রিড	-14770
▁ascending	-14771
▁beginning	-14772
▁chromatic	-14773
▁diagonals	-14774
▁interpret	-14775
▁iterating	-14776
▁receiving	-14777
▁sequences	-14778
▁অক্ষরগুলি	-14779
▁অভিভাবকের	-14780
▁অর্ধেকেরও	-14781
▁অ্যালকোহল	-14782
▁ইন্টারনেট	-14783
▁উপস্থিতির	-14784
▁উপার্জনের	-14785
▁কার্ডগুলি	-14786
▁কুকুরটিকে	-14787
▁ক্যাম্পিং	-14788
▁ক্যালেবের	-14789
▁ক্রেতাদের	-14790
▁ক্লাউনফিশ	-14791
▁ক্ষেত্রটি	-14792
▁চিনাবাদাম	-14793
▁টুকরোগুলো	-14794
▁ডেটাসেটের	-14795
▁ড্যারিলের	-14796
▁নমুনাটিতে	-14797
▁নির্দেশনা	-14798
▁নির্মাণের	-14799
▁পরিসীমায়	-14800
▁প্যাট্রিক	-14801
▁প্রজাপতির	-14802
▁ফেলেছিলেন	-14803
▁বিন্যাসকে	-14804
▁বিশেষভাবে	-14805
▁ব্রেন্ডান	-14806
▁রেখাগুলির	-14807
▁ল্যাডিবাগ	-14808
▁সংক্রামিত	-14809
▁সময়কালকে	-14810
▁হাইকারদের	-14811
Determining	-14812
overlapping	-14813
য়েন্টমেন্ট	-14814
▁dimensions	-14815
▁population	-14816
▁অ্যালিসনের	-14817
▁আইল্যান্ডে	-14818
▁আইসল্যান্ড	-14819
▁কর্মচারীকে	-14820
▁কীটপতঙ্গের	-14821
▁গুণিতকগুলো	-14822
▁চিত্রশিল্প	-14823
▁জনসংখ্যায়	-14824
▁ডাক্তারদের	-14825
▁পার্থক্যকে	-14826
▁পূর্ণকালীন	-14827
▁ভূমিকাগুলি	-14828
▁ম্যাচস্টিক	-14829
▁যাতায়াতের	-14830
▁রান্নাকারী	-14831
▁লুসিয়েনের	-14832
▁সহকর্মীদের	-14833
▁স্টকিংয়ের	-14834
▁Multiplying	-14835
▁alternating	-14836
▁অ্যালজেব্রা	-14837
▁ক্রিস্টেনের	-14838
▁ডেমোক্র্যাট	-14839
▁নিউইয়র্কের	-14840
▁পঞ্চভুজাকার	-14841
▁পৃষ্ঠাগুলির	-14842
▁বিমানবন্দরে	-14843
▁ব্যাঙগুলিকে	-14844
▁ভেরিয়েবলের	-14845
▁সংগ্রহকারীর	-14846
▁সম্প্রসারিত	-14847
▁অ্যাসপারাগাস	-14848
▁আপেক্ষিকভাবে	-14849
▁সম্প্রসারণের	-14850
▁ক্লায়েন্টদের	-14851
▁প্ল্যাটফর্মের	-14852
▁multiplication	-14853
▁অ্যান্টোনিয়োর	-14854
▁প্যালিনড্রোমের	-14855
▁সীমাবদ্ধতাগুলি	-14856
▁ট্র্যাপিজয়েডের	-14857
▁হাইড্রোক্সাইডের	-14858
AF	-14859
OB	-14860
bh	-14861
bl	-14862
no	-14863
ya	-14864
}]	-14865
আজ	-14866
ওং	-14867
কল	-14868
খো	-14869
)\\	-14870
**।	-14871
Ang	-14872
den	-14873
ens	-14874
fuz	-14875
mil	-14876
ops	-14877
ork	-14878
roc	-14879
ror	-14880
tan	-14881
tex	-14882
tly	-14883
|\)	-14884
})$	-14885
ইউন	-14886
কোষ	-14887
জ্জ	-14888
টেক	-14889
তিম	-14890
নলি	-14891
লীর	-14892
স্ন	-14893
ুতে	-14894
ুলু	-14895
ৃণা	-14896
▁>=	-14897
▁Cm	-14898
▁Dh	-14899
▁FJ	-14900
▁ME	-14901
▁PT	-14902
▁PW	-14903
▁PX	-14904
▁SR	-14905
▁du	-14906
▁sa	-14907
▁আফ	-14908
▁গী	-14909
▁তন	-14910
▁মগ	-14911
▁রড	-14912
▁শখ	-14913
▁শয	-14914
)}}{	-14915
\}$,	-14916
amps	-14917
asan	-14918
cell	-14919
free	-14920
fuzh	-14921
less	-14922
most	-14923
ries	-14924
roid	-14925
tent	-14926
uits	-14927
উত্ত	-14928
কোণী	-14929
গুণন	-14930
ঘটনা	-14931
চ্চি	-14932
ডামে	-14933
ডায়	-14934
ধারী	-14935
ন্থি	-14936
পালক	-14937
পেনি	-14938
বহুল	-14939
বিলা	-14940
যোগে	-14941
র্টে	-14942
শুরু	-14943
সকাল	-14944
স্থা	-14945
ার্ল	-14946
িকোর	-14947
োর্ট	-14948
্পাদ	-14949
্লির	-14950
▁ABD	-14951
▁Any	-14952
▁But	-14953
▁Reg	-14954
▁Rel	-14955
▁\([	-14956
▁aim	-14957
▁cal	-14958
▁hol	-14959
▁imm	-14960
▁pap	-14961
▁por	-14962
▁son	-14963
▁আভা	-14964
▁ইগল	-14965
▁উঠা	-14966
▁এলফ	-14967
▁কিট	-14968
▁খেজ	-14969
▁ঘটি	-14970
▁ঘনা	-14971
▁জিং	-14972
▁টবি	-14973
▁দাস	-14974
▁পোচ	-14975
▁বীট	-14976
▁ভাত	-14977
▁ভুগ	-14978
▁মুছ	-14979
▁রুক	-14980
▁রুথ	-14981
▁রোন	-14982
▁লোম	-14983
▁সজি	-14984
▁সতী	-14985
▁সিউ	-14986
▁সোফ	-14987
▁হিথ	-14988
aling	-14989
cline	-14990
index	-14991
known	-14992
milia	-14993
osite	-14994
phant	-14995
উৎপাদ	-14996
কার্ব	-14997
কেনের	-14998
গেটের	-14999
গ্রাফ	-15000
ঙ্গার	-15001
চকলেট	-15002
জনায়	-15003
জুড়ে	-15004
ধুলার	-15005
নকারী	-15006
পিকের	-15007
পোশাক	-15008
ফিকের	-15009
ফোনের	-15010
বক্সে	-15011
বছরের	-15012
মাকড়	-15013
মূলধন	-15014
য়মিত	-15015
র্টার	-15016
লিসার	-15017
শ্রেণ	-15018
সবহুল	-15019
সুপার	-15020
হানার	-15021
হুনের	-15022
াপড়া	-15023
িয়াও	-15024
োমিনো	-15025
▁**$(	-15026
▁Murs	-15027
▁Rear	-15028
▁Ruba	-15029
▁\(\\	-15030
▁dice	-15031
▁epis	-15032
▁exch	-15033
▁fill	-15034
▁happ	-15035
▁kmph	-15036
▁seem	-15037
▁shot	-15038
▁well	-15039
▁অপুর	-15040
▁অবহে	-15041
▁অব্র	-15042
▁আইপড	-15043
▁আনেন	-15044
▁আরোপ	-15045
▁উটের	-15046
▁কর্ড	-15047
▁কলসি	-15048
▁কসাই	-15049
▁কুকু	-15050
▁গণ্য	-15051
▁গহনা	-15052
▁গাদা	-15053
▁গিনা	-15054
▁গোটা	-15055
▁ঘৃণা	-15056
▁ছত্র	-15057
▁জিমি	-15058
▁জেতা	-15059
▁টবের	-15060
▁তোষক	-15061
▁দাউদ	-15062
▁দেরি	-15063
▁ননগন	-15064
▁নরউই	-15065
▁নাসর	-15066
▁নিরা	-15067
▁পশ্চ	-15068
▁পিএম	-15069
▁পেরি	-15070
▁পোতা	-15071
▁পোহা	-15072
▁বুকে	-15073
▁ব্লি	-15074
▁ভল্ট	-15075
▁ভাগা	-15076
▁ভারত	-15077
▁মখমল	-15078
▁মানি	-15079
▁রচনা	-15080
▁রিবে	-15081
▁রিমা	-15082
▁রুটে	-15083
▁রেইন	-15084
▁লতিফ	-15085
▁লালন	-15086
▁লেনা	-15087
▁শততম	-15088
▁শফির	-15089
▁শরীর	-15090
▁শশার	-15091
▁সাজস	-15092
▁সানা	-15093
▁সাফা	-15094
▁সুতো	-15095
▁সেরে	-15096
esting	-15097
rictly	-15098
ritten	-15099
selves	-15100
আপেলের	-15101
ইংরেজি	-15102
কুলেলে	-15103
নাতিনী	-15104
বয়সের	-15105
মিনিটে	-15106
যাত্রা	-15107
স্পর্শ	-15108
স্বাদু	-15109
ুদ্রিক	-15110
ুরিয়ে	-15111
্তেজিত	-15112
্যাহ্ন	-15113
্লিকার	-15114
্লিখিত	-15115
▁Dhaka	-15116
▁Indiv	-15117
▁Value	-15118
▁apart	-15119
▁apple	-15120
▁guess	-15121
▁lamps	-15122
▁occup	-15123
▁shots	-15124
▁takas	-15125
▁turns	-15126
▁অংকটি	-15127
▁অংশকে	-15128
▁অ্যার	-15129
▁অ্যাশ	-15130
▁আকাশে	-15131
▁আলানা	-15132
▁ইউনিক	-15133
▁এলিয়	-15134
▁কাঁচা	-15135
▁কাউকে	-15136
▁কাটছে	-15137
▁কামের	-15138
▁কোডের	-15139
▁কোপেক	-15140
▁কোরির	-15141
▁ক্রুজ	-15142
▁ক্লোর	-15143
▁খাবেন	-15144
▁খোসার	-15145
▁গুড়ি	-15146
▁গুলোর	-15147
▁চলকের	-15148
▁চাইছে	-15149
▁চারার	-15150
▁চাষের	-15151
▁ছিন্ন	-15152
▁ছুটতে	-15153
▁জন্যে	-15154
▁জীবনী	-15155
▁ট্যাপ	-15156
▁ডেক্স	-15157
▁ডেবির	-15158
▁দুঃখী	-15159
▁নারীর	-15160
▁নাশতা	-15161
▁নিনজা	-15162
▁নেবেন	-15163
▁নেভিল	-15164
▁পপলার	-15165
▁পাড়ি	-15166
▁পেন্ট	-15167
▁পোষার	-15168
▁ফারিন	-15169
▁ফিওডর	-15170
▁ফেন্স	-15171
▁ফ্লিপ	-15172
▁বর্ষে	-15173
▁বাজতে	-15174
▁বিয়া	-15175
▁বোঝার	-15176
▁ভালের	-15177
▁মাশার	-15178
▁মুরসা	-15179
▁মেরিল	-15180
▁যোগির	-15181
▁রাখবো	-15182
▁রাজার	-15183
▁রিকের	-15184
▁রিফিল	-15185
▁লিখবে	-15186
▁শহরটি	-15187
▁শার্প	-15188
▁সংগীত	-15189
▁সমজাত	-15190
▁সাপটি	-15191
▁সুতার	-15192
▁সেবের	-15193
▁সেভিং	-15194
▁স্টলে	-15195
▁স্টেট	-15196
Analyze	-15197
Minimum	-15198
ranging	-15199
উত্তরটি	-15200
টিক্যাল	-15201
ট্র্যাপ	-15202
ন্যূনতম	-15203
পেন্সিল	-15204
বর্জনের	-15205
বাইনারি	-15206
বিন্যাস	-15207
বৃহত্তম	-15208
ভগ্নাংশ	-15209
ভেন্ডার	-15210
ম্পসনের	-15211
যোগফলের	-15212
স্যান্ড	-15213
্যুৎপাত	-15214
্লেয়ার	-15215
▁Angles	-15216
▁filled	-15217
▁jersey	-15218
▁linear	-15219
▁stores	-15220
▁target	-15221
▁towels	-15222
▁triple	-15223
▁অধিকৃত	-15224
▁অন্নার	-15225
▁অন্যের	-15226
▁অপছন্দ	-15227
▁আর্থিক	-15228
▁আলিয়া	-15229
▁উত্তরে	-15230
▁উমারের	-15231
▁এপিসোড	-15232
▁এলিডার	-15233
▁ওভারের	-15234
▁কাইফের	-15235
▁কিনবেন	-15236
▁কেজিতে	-15237
▁ক্যারল	-15238
▁ক্রোমি	-15239
▁গোডামে	-15240
▁চার্জে	-15241
▁ছয়বার	-15242
▁ছুড়লে	-15243
▁জসিমের	-15244
▁জানাতে	-15245
▁জ্বলছে	-15246
▁টাইমের	-15247
▁টার্নি	-15248
▁টিকিটে	-15249
▁টুকরার	-15250
[...]
