<pad>	0
<unk>	0
<s>	0
</s>	0
▁ক	-0
ার	-1
▁স	-2
য়	-3
▁প	-4
্য	-5
▁\	-6
▁ব	-7
ের	-8
টি	-9
্র	-10
▁এ	-11
▁কর	-12
▁=	-13
▁ম	-14
▁ত	-15
▁দ	-16
▁আ	-17
্যা	-18
▁1	-19
▁হ	-20
▁জ	-21
▁য	-22
র্	-23
▁প্র	-24
ান	-25
িন	-26
ছে	-27
▁অ	-28
▁ন	-29
▁$	-30
তে	-31
▁সং	-32
▁2	-33
কে	-34
▁-	-35
তি	-36
▁গ	-37
▁+	-38
▁সংখ	-39
er	-40
বে	-41
য়ে	-42
বং	-43
▁এবং	-44
▁জন	-45
▁১	-46
▁t	-47
রা	-48
▁সংখ্যা	-49
▁এক	-50
াক	-51
ন্	-52
▁সম	-53
লে	-54
▁তা	-55
োট	-56
▁করে	-57
▁3	-58
লি	-59
▁(	-60
ড়	-61
▁\(	-62
▁থ	-63
▁আম	-64
es	-65
▁চ	-66
▁মোট	-67
্ত	-68
▁প্রতি	-69
▁th	-70
in	-71
িক	-72
লা	-73
▁শ	-74
▁a	-75
▁ট	-76
▁*	-77
▁নি	-78
্ব	-79
ti	-80
▁পর	-81
ভা	-82
▁ছ	-83
▁4	-84
গু	-85
০০	-86
ায়	-87
▁A	-88
িত	-89
▁জন্য	-90
▁তার	-91
▁২	-92
দের	-93
ns	-94
00	-95
ত্র	-96
▁উ	-97
▁আমরা	-98
▁খ	-99
▁\[	-100
▁কত	-101
▁the	-102
▁5	-103
▁করতে	-104
▁একটি	-105
িল	-106
wer	-107
nswer	-108
▁র	-109
্ষ	-110
▁Answer	-111
ac	-112
্ট	-113
না	-114
▁টি	-115
▁করি	-116
েকে	-117
▁আছে	-118
▁কা	-119
▁\)	-120
▁যে	-121
▁৩	-122
▁পার	-123
▁পা	-124
▁\]	-125
▁বি	-126
}{	-127
▁6	-128
fr	-129
লো	-130
te	-131
mes	-132
োগ	-133
▁o	-134
য়া	-135
times	-136
জন	-137
▁বা	-138
▁ধ	-139
▁হবে	-140
▁থেকে	-141
▁সে	-142
্ক	-143
▁নির্	-144
▁c	-145
▁৪	-146
▁এর	-147
frac	-148
▁ঘ	-149
িট	-150
▁প্রতিটি	-151
▁n	-152
is	-153
থম	-154
্ন	-155
▁দ্ব	-156
▁b	-157
▁s	-158
▁ফ	-159
্থ	-160
▁করা	-161
▁৫	-162
গুলি	-163
▁তিন	-164
▁তাই	-165
ুর	-166
\)	-167
াকা	-168
▁মা	-169
▁ভ	-170
▁সা	-171
েয়ে	-172
ুক	-173
▁বে	-174
**	-175
▁যা	-176
▁**	-177
িয়ে	-178
▁দু	-179
▁p	-180
▁ড	-181
খন	-182
le	-183
রি	-184
<<	-185
>>	-186
▁7	-187
রণ	-188
মা	-189
▁ব্য	-190
▁of	-191
▁8	-192
▁ভা	-193
al	-194
re	-195
▁প্রথম	-196
লের	-197
nd	-198
দি	-199
um	-200
ক্ষ	-201
▁যোগ	-202
বার	-203
▁9	-204
▁বাক	-205
ন্ট	-206
xt	-207
তু	-208
▁এই	-209
▁ছা	-210
▁৬	-211
text	-212
▁T	-213
ির	-214
▁দে	-215
াম	-216
্প	-217
্রি	-218
▁হল	-219
▁হয়	-220
ফল	-221
▁পরি	-222
on	-223
▁w	-224
▁করার	-225
▁10	-226
▁উপ	-227
ীয়	-228
বা	-229
ওয়া	-230
ot	-231
▁কে	-232
▁টাকা	-233
▁f	-234
▁এখন	-235
▁d	-236
সে	-237
▁গণ	-238
▁x	-239
ধ্য	-240
▁৮	-241
▁দিয়ে	-242
্চ	-243
▁অন	-244
ছর	-245
▁is	-246
ারা	-247
▁বছর	-248
or	-249
▁12	-250
য়েছে	-251
▁দিন	-252
▁<<	-253
▁বের	-254
▁সংখ্য	-255
য়ার	-256
য়স	-257
হার	-258
শি	-259
▁0	-260
এব	-261
তএব	-262
▁গু	-263
▁অতএব	-264
▁ই	-265
▁যদি	-266
ঙ্ক	-267
▁অর্	-268
en	-269
▁ছাত্র	-270
ারণ	-271
▁লা	-272
নের	-273
াকে	-274
▁গণনা	-275
ন্ড	-276
হে	-277
{1	-278
▁মধ্য	-279
ber	-280
▁বাকি	-281
▁ছিল	-282
umber	-283
▁ও	-284
▁কাছে	-285
▁বয়স	-286
▁ব্যব	-287
াদের	-288
রে	-289
পে	-290
▁১০	-291
▁m	-292
ীক	-293
▁থাকে	-294
ানে	-295
▁তাহ	-296
▁পারে	-297
▁তাহলে	-298
▁Th	-299
ড়া	-300
▁ভাগ	-301
ষ্	-302
ার্	-303
▁গুণ	-304
মি	-305
an	-306
▁সময়	-307
ূর্	-308
ংশ	-309
েষ	-310
▁না	-311
ing	-312
ীকরণ	-313
ig	-314
▁আমাদের	-315
▁বিক	-316
▁number	-317
▁and	-318
▁দুটি	-319
▁/	-320
▁নির্ণ	-321
▁নির্ণয়	-322
iv	-323
it	-324
▁মধ্যে	-325
▁সু	-326
▁20	-327
তা	-328
▁কো	-329
:**	-330
ুন	-331
qu	-332
ৃত	-333
▁তৈ	-334
▁মি	-335
ছিল	-336
▁তৈরি	-337
▁S	-338
▁কম	-339
াই	-340
▁অঙ্ক	-341
ed	-342
at	-343
▁রা	-344
▁৭	-345
▁পারি	-346
^2	-347
েত্র	-348
▁চেয়ে	-349
▁২০	-350
ূর্ণ	-351
▁মিন	-352
র্ত	-353
ুজ	-354
om	-355
ভাবে	-356
্রে	-357
▁সংখ্যার	-358
স্থ	-359
▁to	-360
▁দ্বারা	-361
ূল	-362
▁কিন	-363
পা	-364
▁তিনি	-365
▁e	-366
▁$1	-367
ছি	-368
▁১২	-369
জে	-370
কের	-371
্তা	-372
থে	-373
সং	-374
▁ব্যবহার	-375
▁নে	-376
▁মিনিট	-377
▁অনু	-378
▁15	-379
▁তাদের	-380
dot	-381
ন্ত	-382
গুলো	-383
▁ল	-384
▁1.	-385
2}	-386
সের	-387
▁গা	-388
ro	-389
▁খে	-390
▁in	-391
ারে	-392
▁সমা	-393
নি	-394
▁P	-395
িন্ন	-396
ul	-397
▁সমীকরণ	-398
ধান	-399
▁ক্ষ	-400
**:	-401
▁বেশি	-402
্তি	-403
াপ	-404
▁ঘন্ট	-405
ুল	-406
▁সম্	-407
ar	-408
দ্	-409
▁পে	-410
us	-411
20	-412
হেতু	-413
▁মান	-414
ষ্ট	-415
▁১৫	-416
cdot	-417
▁যোগফল	-418
গুণ	-419
$।	-420
▁করেছে	-421
লেন	-422
\]	-423
▁2.	-424
বো	-425
িটার	-426
েক	-427
▁৯	-428
িতীয়	-429
▁বই	-430
ত্ত	-431
▁মূল	-432
▁৳	-433
▁খু	-434
িতে	-435
▁গড়	-436
্রম	-437
োর	-438
▁প্রথমে	-439
লার	-440
ভাব	-441
▁C	-442
▁কি	-443
▁11	-444
▁রয়েছে	-445
র্গ	-446
মাণ	-447
▁যায়	-448
কা	-449
▁যেহেতু	-450
▁সমান	-451
▁0.	-452
প্তা	-453
কার	-454
ুরু	-455
im	-456
বি	-457
ুট	-458
▁খুঁ	-459
ভুজ	-460
০০০	-461
th	-462
পর	-463
▁সব	-464
▁দ্বিতীয়	-465
ওয়ার	-466
▁সুত	-467
সা	-468
থা	-469
রাং	-470
লিখ	-471
▁সুতরাং	-472
▁ভিন্ন	-473
▁থাক	-474
▁সাথে	-475
ম্ব	-476
টির	-477
▁পূর্ণ	-478
গে	-479
▁স্থ	-480
ol	-481
▁হলো	-482
▁এটি	-483
ভয়	-484
▁পাই	-485
▁জো	-486
ঞ্চ	-487
্লা	-488
▁3.	-489
ষ্ঠ	-490
ce	-491
▁খা	-492
▁উভয়	-493
▁অব	-494
ধু	-495
ir	-496
▁সপ্তা	-497
▁100	-498
ble	-499
র্ঘ	-500
▁বর্গ	-501
▁সমাধান	-502
▁শেষ	-503
▁জান	-504
▁সমস	-505
▁ব্যা	-506
▁খুঁজে	-507
বাচ	-508
▁$\	-509
▁গ্র	-510
##	-511
▁আয়	-512
ম্ন	-513
টা	-514
▁পরিমাণ	-515
et	-516
▁চার	-517
▁ক্ষেত্র	-518
দিন	-519
ছিলেন	-520
▁সর্	-521
$,	-522
২০	-523
▁নির্বাচ	-524
মের	-525
}{2}	-526
চ্চ	-527
▁দৈ	-528
▁The	-529
সংখ	-530
য়ের	-531
▁$2	-532
▁বিন	-533
od	-534
দ্ধ	-535
ণ্ট	-536
▁16	-537
▁খর	-538
▁কুক	-539
▁ঘন্টা	-540
▁তিনটি	-541
গ্র	-542
ati	-543
▁দুই	-544
খানে	-545
জি	-546
্ম	-547
▁সম্ভাব	-548
ীর	-549
▁18	-550
▁পরে	-551
▁আপে	-552
as	-553
নে	-554
য়োগ	-555
▁কতটি	-556
১০	-557
র্ঘ্য	-558
▁কাজ	-559
▁আর	-560
▁বিক্রি	-561
▁13	-562
▁ওজন	-563
▁রঙ	-564
রের	-565
▁স্ক	-566
▁পর্য	-567
▁we	-568
▁ছোট	-569
৫০	-570
▁g	-571
▁দৈর্ঘ্য	-572
▁হয়েছে	-573
▁প্যা	-574
ধারণ	-575
▁কতগুলি	-576
▁দ্বি	-577
ানের	-578
▁h	-579
▁be	-580
▁দাম	-581
▁বাক্	-582
▁৩০	-583
্দ	-584
োজন	-585
▁ক্যা	-586
▁কোন	-587
▁দেওয়া	-588
ay	-589
▁for	-590
▁খরচ	-591
মে	-592
▁একই	-593
▁মাই	-594
▁অংশ	-595
▁বৃ	-596
▁30	-597
মন	-598
ন্স	-599
▁বন্	-600
ল্প	-601
▁B	-602
▁ঘণ্ট	-603
000	-604
▁24	-605
▁হতে	-606
▁অ্যা	-607
▁হি	-608
▁বো	-609
চ্	-610
▁14	-611
য়োজন	-612
▁করলে	-613
id	-614
▁তারা	-615
10	-616
োম	-617
▁দ্বিগুণ	-618
থাৎ	-619
তির	-620
$.	-621
▁প্রয়োজন	-622
▁by	-623
▁$3	-624
৪০	-625
▁y	-626
ড়ি	-627
``	-628
▁পৃ	-629
১২	-630
▁ডি	-631
▁r	-632
▁\\	-633
উন্ড	-634
▁ছে	-635
▁বাদ	-636
▁দেখ	-637
ুক্ত	-638
50	-639
▁প্রত	-640
েছে	-641
▁are	-642
▁প্রা	-643
▁pro	-644
ve	-645
ছু	-646
তুন	-647
ক্তি	-648
bin	-649
গুলির	-650
▁নী	-651
▁অর্থাৎ	-652
▁বার	-653
▁4.	-654
টার	-655
সংখ্যা	-656
▁পর্যন্ত	-657
▁নিম্ন	-658
▁অর্ধ	-659
লিক	-660
▁গো	-661
৬০	-662
os	-663
▁মিটার	-664
▁নির্বাচন	-665
বর্ত	-666
▁কারণ	-667
▁যেখানে	-668
▁F	-669
ere	-670
ind	-671
▁সক	-672
▁re	-673
▁কিছু	-674
3}	-675
▁W	-676
মান	-677
ons	-678
▁নতুন	-679
if	-680
াত	-681
igh	-682
প্র	-683
▁টুক	-684
▁&	-685
▁L	-686
ুদ	-687
গ্রহ	-688
▁ফুট	-689
▁চা	-690
▁৪০	-691
রো	-692
▁ক্লা	-693
▁ধরি	-694
লিখিত	-695
▁ব্যক্তি	-696
াকার	-697
▁$$	-698
▁can	-699
▁ত্রি	-700
▁40	-701
ight	-702
▁থাকা	-703
▁নিম্নলিখিত	-704
▁পৃষ্ঠ	-705
▁একজন	-706
▁শি	-707
▁লি	-708
)।	-709
▁25	-710
▁মূল্য	-711
ঙ্	-712
▁আপেল	-713
▁জে	-714
▁এমন	-715
▁বিয়োগ	-716
কো	-717
টের	-718
▁উপায়	-719
▁that	-720
ানো	-721
শে	-722
দা	-723
জ্	-724
▁লো	-725
▁v	-726
▁স্ট	-727
▁ধরে	-728
▁দূ	-729
ঠিক	-730
▁বন্ধু	-731
ec	-732
▁৬০	-733
▁মাইল	-734
▁চি	-735
ত্ব	-736
▁দিনে	-737
▁সংখ্যক	-738
▁সর	-739
▁সম্প	-740
▁সকল	-741
ers	-742
জা	-743
▁D	-744
ad	-745
▁(1	-746
▁আরও	-747
▁মৌ	-748
▁অর্ধেক	-749
▁তারপর	-750
▁৫০	-751
igit	-752
▁বড়	-753
▁১০০	-754
▁অঙ্কের	-755
99	-756
▁গতি	-757
▁36	-758
binom	-759
ুপ	-760
▁সংখ্যাটি	-761
াপন	-762
▁ত্রিভুজ	-763
▁বিভা	-764
বল	-765
▁অনুস	-766
▁হার	-767
▁wh	-768
▁১৮	-769
▁পেয়ে	-770
▁প্রতিদিন	-771
টে	-772
▁নম্ব	-773
▁সম্ভাব্য	-774
▁l	-775
ার্ড	-776
▁শুরু	-777
ou	-778
▁60	-779
▁নয়	-780
▁লাল	-781
▁বল	-782
▁$4	-783
্ড	-784
ান্ত	-785
25	-786
্দু	-787
▁numbers	-788
▁সপ্তাহে	-789
মাত্র	-790
ge	-791
▁ইঞ্চ	-792
ার্ট	-793
▁জানি	-794
▁R	-795
▁আয়ত	-796
equ	-797
ষ্টি	-798
তম	-799
্যার	-800
▁সমস্যা	-801
),	-802
স্ত	-803
▁পো	-804
▁তৃত	-805
ক্ষেত্র	-806
বেশ	-807
শেষ	-808
▁উত্ত	-809
▁ঘণ্টা	-810
বর্তী	-811
▁মে	-812
▁পাউন্ড	-813
▁করুন	-814
নার	-815
4}	-816
৩০	-817
▁আস	-818
▁দূর	-819
▁পদ	-820
িক্ষ	-821
দিষ্ট	-822
▁তুল	-823
▁টুকরো	-824
ic	-825
▁ne	-826
থমিক	-827
ft	-828
ন্দ	-829
ts	-830
▁গাছ	-831
এর	-832
▁প্রত্য	-833
▁বিকল্প	-834
▁পূর্ণসংখ্যা	-835
▁নির্দিষ্ট	-836
▁div	-837
▁তবে	-838
▁17	-839
ীক্ষ	-840
হি	-841
▁50	-842
য়েন্ট	-843
▁০	-844
▁রে	-845
▁ইঞ্চি	-846
▁ক্ষেত্রফল	-847
.5	-848
pl	-849
ড়ে	-850
▁রাখ	-851
্ল	-852
_1	-853
il	-854
▁সি	-855
▁নম্বর	-856
▁মৌলিক	-857
▁করেন	-858
চনা	-859
▁দূরত্ব	-860
yth	-861
হু	-862
বিন	-863
▁পি	-864
▁সার	-865
▁খাবার	-866
▁প্রশ	-867
স্ট	-868
ython	-869
১৫	-870
জ্য	-871
▁ঘন	-872
▁কাপ	-873
▁তৃতীয়	-874
▁দেয়	-875
▁করেছেন	-876
িনি	-877
▁বিবে	-878
ible	-879
▁কেজি	-880
40	-881
ঁচ	-882
▁করবো	-883
▁দি	-884
_{	-885
র্ষ	-886
▁প্রদ	-887
▁পরীক্ষ	-888
ন্য	-889
▁ডলার	-890
▁k	-891
▁নীল	-892
}{1	-893
▁দশ	-894
্রা	-895
▁১৬	-896
ক্ষে	-897
▁N	-898
▁as	-899
^{	-900
▁পান	-901
▁×	-902
▁21	-903
▁যার	-904
▁পায়	-905
▁তাকে	-906
▁পয়েন্ট	-907
ation	-908
ate	-909
ানোর	-910
▁অনুসারে	-911
▁বিবেচনা	-912
শু	-913
▁৩টি	-914
▁ছেলে	-915
সি	-916
▁কার্ড	-917
▁সূ	-918
▁৪টি	-919
..	-920
▁##	-921
▁19	-922
▁বেছে	-923
নায়	-924
ore	-925
▁প্রাথমিক	-926
▁সমীকরণটি	-927
লেট	-928
60	-929
্যাক	-930
▁৫টি	-931
▁মাছ	-932
▁শিক্ষ	-933
▁us	-934
ুরুষ	-935
শিষ্ট	-936
▁সরল	-937
right	-938
▁করব	-939
5$	-940
otal	-941
▁ছাত্রদের	-942
ছেন	-943
তুর্	-944
▁থাকবে	-945
স্য	-946
সংহার	-947
▁জোড়া	-948
=<<	-949
▁পুরুষ	-950
▁5.	-951
ho	-952
ঙ্গ	-953
▁need	-954
▁কুকুর	-955
ারের	-956
▁উত্তর	-957
১০০	-958
▁সপ্তাহ	-959
80	-960
৮০	-961
▁নির্ধারণ	-962
blem	-963
ভি	-964
▁pr	-965
▁অন্য	-966
quad	-967
▁বৃদ্ধ	-968
▁হয়ে	-969
▁তুলনায়	-970
▁আগে	-971
\).	-972
{3	-973
▁চারটি	-974
left	-975
▁স্ব	-976
▁প্রশ্ন	-977
ূপ	-978
_2	-979
সম	-980
▁ইউ	-981
▁দিনের	-982
োক	-983
irs	-984
ox	-985
▁মু	-986
ow	-987
5}	-988
mod	-989
্থক	-990
▁সদ	-991
▁ক্রম	-992
▁২৫	-993
্থক্য	-994
▁M	-995
▁হলে	-996
ut	-997
▁on	-998
▁হিসে	-999
▁We	-1000
▁লে	-1001
শ্র	-1002
▁টিক	-1003
▁find	-1004
▁অন্ত	-1005
▁হিসেবে	-1006
▁পৃষ্ঠা	-1007
▁problem	-1008
}{3}	-1009
▁বর্ত	-1010
▁গুণিত	-1011
▁১৪	-1012
ach	-1013
1)	-1014
▁বিভাজ্য	-1015
ণের	-1016
▁সংগ্রহ	-1017
▁###	-1018
▁সূত্র	-1019
▁$(	-1020
all	-1021
▁digit	-1022
্যাল	-1023
২৫	-1024
▁পার্থক্য	-1025
ince	-1026
▁an	-1027
tion	-1028
▁সহ	-1029
▁১১	-1030
▁কিনে	-1031
▁খেলা	-1032
^3	-1033
▁fr	-1034
যুক্ত	-1035
▁লোক	-1036
▁জু	-1037
েকেন্ড	-1038
▁বাক্স	-1039
ার্থ	-1040
▁sum	-1041
তিক	-1042
▁উচ্চ	-1043
▁2,	-1044
tep	-1045
▁মো	-1046
▁টিকিট	-1047
▁E	-1048
▁পাঁচ	-1049
▁টে	-1050
রণের	-1051
▁লাগ	-1052
▁লিখ	-1053
▁শী	-1054
▁মার্	-1055
বের	-1056
▁ধা	-1057
বোচ্চ	-1058
▁"	-1059
জ্ঞ	-1060
▁যেতে	-1061
জের	-1062
▁একক	-1063
▁val	-1064
িং	-1065
▁বয়সের	-1066
ays	-1067
িক্ত	-1068
ode	-1069
▁le	-1070
তিরিক্ত	-1071
{2	-1072
ith	-1073
▁পেতে	-1074
▁ফে	-1075
কেট	-1076
▁সাধারণ	-1077
▁সর্বোচ্চ	-1078
চেয়ে	-1079
▁চতুর্	-1080
▁কর্ম	-1081
▁কুকি	-1082
▁পরবর্তী	-1083
▁করবে	-1084
ুলে	-1085
▁কমলা	-1086
স্থাপন	-1087
▁Python	-1088
▁ভাই	-1089
▁ধাপে	-1090
▁যখন	-1091
ন্সিল	-1092
▁জোড়	-1093
▁স্থান	-1094
}$	-1095
▁২০০	-1096
ver	-1097
▁``	-1098
▁শু	-1099
▁ট্রে	-1100
▁করেছিল	-1101
▁```	-1102
▁সর্ব	-1103
▁পেন্সিল	-1104
▁মার	-1105
\),	-1106
▁উৎ	-1107
__	-1108
▁G	-1109
▁৮০	-1110
ap	-1111
নো	-1112
▁সবচেয়ে	-1113
্টি	-1114
▁this	-1115
▁অতিরিক্ত	-1116
মোট	-1117
▁মেয়ে	-1118
box	-1119
▁১৩	-1120
ফলের	-1121
তার	-1122
▁ম্যা	-1123
▁বৃদ্ধি	-1124
▁হা	-1125
▁sol	-1126
est	-1127
কারী	-1128
▁সদস্য	-1129
▁পছ	-1130
▁প্রতিস্থাপন	-1131
▁স্ত	-1132
ime	-1133
ম্প	-1134
▁1,	-1135
▁শীর্ষ	-1136
্স	-1137
▁একটা	-1138
▁নিয়ে	-1139
▁দৌ	-1140
boxed	-1141
▁রঙের	-1142
uc	-1143
erm	-1144
ond	-1145
▁কতজন	-1146
▁যাবে	-1147
চ্ছে	-1148
▁গাড়ি	-1149
▁I	-1150
qr	-1151
ri	-1152
▁#	-1153
cul	-1154
qrt	-1155
▁divis	-1156
▁দল	-1157
▁নেয়	-1158
▁45	-1159
▁28	-1160
▁(2	-1161
▁পাওয়া	-1162
্তু	-1163
য়ান	-1164
ies	-1165
▁বোত	-1166
▁1)	-1167
equiv	-1168
▁প্রদত্ত	-1169
াদ	-1170
sqrt	-1171
▁বিভ	-1172
6$	-1173
▁কিন্তু	-1174
▁27	-1175
্না	-1176
▁কার	-1177
alcul	-1178
▁There	-1179
▁শিশু	-1180
0.	-1181
▁যাক	-1182
ধুমাত্র	-1183
কাশ	-1184
ীমা	-1185
act	-1186
}{4}	-1187
1,	-1188
▁3,	-1189
▁code	-1190
ign	-1191
য়ন	-1192
fore	-1193
ang	-1194
▁গোল	-1195
▁গুণিতক	-1196
▁from	-1197
▁করেছিলেন	-1198
0$	-1199
▁অর্থ	-1200
১৬	-1201
impl	-1202
▁\).	-1203
▁32	-1204
্রেণ	-1205
▁মহি	-1206
3,	-1207
▁সেকেন্ড	-1208
▁১০টি	-1209
▁giv	-1210
▁টাই	-1211
▁ছয়	-1212
▁শ্রেণ	-1213
▁প্রকাশ	-1214
্লে	-1215
২৪	-1216
পাদ	-1217
esul	-1218
▁আউ	-1219
▁২৪	-1220
খা	-1221
align	-1222
▁মিলি	-1223
12	-1224
▁22	-1225
▁সেমি	-1226
ine	-1227
15	-1228
ent	-1229
CM	-1230
▁হওয়া	-1231
▁শর্ত	-1232
lo	-1233
▁মহিলা	-1234
সাথে	-1235
টিতে	-1236
▁ডিম	-1237
▁ধরণের	-1238
▁একসাথে	-1239
{4	-1240
▁পছন্দ	-1241
পের	-1242
বেল	-1243
ভব	-1244
▁শুধুমাত্র	-1245
▁জনের	-1246
লোয়া	-1247
▁বস	-1248
▁নেওয়া	-1249
eg	-1250
▁আই	-1251
▁$5	-1252
▁গে	-1253
লোয়াড়	-1254
▁ধার	-1255
পাত	-1256
▁35	-1257
ma	-1258
▁ডে	-1259
▁120	-1260
▁সমস্ত	-1261
▁স্যা	-1262
▁total	-1263
▁মিষ্টি	-1264
জো	-1265
▁pos	-1266
▁যাতে	-1267
▁বিন্যা	-1268
▁সাজ	-1269
▁যেকো	-1270
▁Therefore	-1271
▁সো	-1272
▁খেলোয়াড়	-1273
শন	-1274
ust	-1275
▁\\[	-1276
am	-1277
থ্য	-1278
esult	-1279
গের	-1280
▁রো	-1281
▁৬টি	-1282
▁মাসে	-1283
ence	-1284
▁উপসংহার	-1285
▁দলের	-1286
▁বর্তমান	-1287
▁each	-1288
▁\(\	-1289
▁তথ্য	-1290
▁চক	-1291
▁মাস	-1292
ডি	-1293
▁২টি	-1294
▁লম্ব	-1295
▁Since	-1296
ৃত্ত	-1297
▁বছরের	-1298
▁ব্যয়	-1299
ানা	-1300
ur	-1301
▁al	-1302
জার	-1303
▁বিড়া	-1304
ছা	-1305
▁ছাত্রের	-1306
▁সবুজ	-1307
▁সমাবেশ	-1308
6}	-1309
▁with	-1310
▁স্কোর	-1311
▁হিসা	-1312
▁কিনতে	-1313
▁ফলা	-1314
▁পরীক্ষা	-1315
▁বাক্সে	-1316
▁কল	-1317
▁ঠিক	-1318
▁valu	-1319
▁সঠিক	-1320
▁পেয়েছে	-1321
▁equ	-1322
▁খেয়ে	-1323
▁পারবে	-1324
▁পূ	-1325
বিন্দু	-1326
▁উৎপাদ	-1327
▁\),	-1328
▁সম্ভব	-1329
▁200	-1330
▁৮টি	-1331
যোগ	-1332
▁সম্ভাবনা	-1333
▁6.	-1334
▁26	-1335
▁বৃহ	-1336
▁দিতে	-1337
▁using	-1338
হ্ন	-1339
ফি	-1340
▁উচ্চতা	-1341
▁23	-1342
▁দোক	-1343
▁মুখ	-1344
▁পুন	-1345
▁\[\	-1346
লির	-1347
ুদ্র	-1348
▁একত্র	-1349
▁উপর	-1350
▁Let	-1351
{10	-1352
▁48	-1353
▁বিত	-1354
dd	-1355
▁হয়েছিল	-1356
▁V	-1357
শ্য	-1358
জোড়	-1359
▁ক্রে	-1360
1}	-1361
ধিক	-1362
▁cho	-1363
▁রু	-1364
▁সরলীকরণ	-1365
▁কোনও	-1366
▁পূরণ	-1367
পক্ষে	-1368
)$	-1369
▁লাগবে	-1370
▁চিহ্ন	-1371
▁আয়তক্ষেত্র	-1372
১৮	-1373
▁st	-1374
▁অবশিষ্ট	-1375
ates	-1376
কেল	-1377
▁ex	-1378
্মক	-1379
▁ট্র	-1380
irc	-1381
▁com	-1382
75	-1383
{5	-1384
চে	-1385
▁লাই	-1386
4$	-1387
▁গুণফল	-1388
▁H	-1389
কটি	-1390
চিত	-1391
▁সেই	-1392
end	-1393
▁কী	-1394
ঙ্কের	-1395
▁থাকতে	-1396
▁মিনিটে	-1397
পাশে	-1398
ডের	-1399
▁To	-1400
▁ট্যা	-1401
▁ভিত	-1402
▁must	-1403
▁ভ্রম	-1404
▁রান	-1405
রু	-1406
▁90	-1407
ক্ত	-1408
▁১৯	-1409
▁u	-1410
▁বু	-1411
▁পড়	-1412
▁গ্যাল	-1413
ান্তর	-1414
▁লিখতে	-1415
▁ঘন্টায়	-1416
{1}{	-1417
ড়ির	-1418
▁বইয়ের	-1419
▁বিন্দু	-1420
মিক	-1421
▁লম্বা	-1422
নিম্ন	-1423
pmod	-1424
▁শতা	-1425
ak	-1426
ly	-1427
▁আল	-1428
)}	-1429
▁হাত	-1430
):	-1431
CD	-1432
▁রূপ	-1433
16	-1434
হা	-1435
চের	-1436
▁৪৫	-1437
2$	-1438
).	-1439
▁80	-1440
▁লাগে	-1441
▁আউন্স	-1442
▁মার্বেল	-1443
▁কমপক্ষে	-1444
nt	-1445
▁ব্ল	-1446
▁5,	-1447
▁$7	-1448
▁$8	-1449
▁যেকোনো	-1450
▁১৭	-1451
মার	-1452
▁তখন	-1453
▁4,	-1454
▁টাকার	-1455
ab	-1456
33	-1457
নাত	-1458
▁বাহু	-1459
3)	-1460
{7	-1461
২০০	-1462
▁সর্বনিম্ন	-1463
্রু	-1464
▁২০টি	-1465
teg	-1466
irst	-1467
▁ছাড়	-1468
iti	-1469
▁বছরে	-1470
▁বিক্র	-1471
▁চিহ্নিত	-1472
শা	-1473
2)	-1474
▁কতগুলো	-1475
▁গঠ	-1476
▁বয়সী	-1477
▁অনুপাত	-1478
▁tw	-1479
▁তিনগুণ	-1480
ুলের	-1481
ess	-1482
loor	-1483
▁প্রত্যেকে	-1484
▁integ	-1485
▁গ্যালন	-1486
▁জি	-1487
*}	-1488
▁ধরা	-1489
▁লিটার	-1490
▁ha	-1491
▁বলে	-1492
▁$6	-1493
▁জল	-1494
▁বৃত্ত	-1495
alculate	-1496
থবা	-1497
স্থিত	-1498
30	-1499
ple	-1500
▁it	-1501
▁গ্রুপ	-1502
▁divisible	-1503
য়ম	-1504
▁বেল	-1505
▁স্টি	-1506
▁শীর্ষবিন্দু	-1507
মিটার	-1508
▁বিতরণ	-1509
▁ভিত্তি	-1510
▁দৌড়	-1511
▁প্রয়োজনীয়	-1512
েছেন	-1513
▁খেল	-1514
▁সম্পূর্ণ	-1515
▁বিজোড়	-1516
▁<	-1517
▁$9	-1518
▁ধনাত	-1519
▁given	-1520
১৪	-1521
int	-1522
▁digits	-1523
বারের	-1524
▁শিক্ষার্থ	-1525
sible	-1526
অঙ্কের	-1527
▁ধনাত্মক	-1528
শের	-1529
▁৩৬	-1530
▁দিয়েছে	-1531
,000	-1532
ন্টি	-1533
▁ষ	-1534
স্প	-1535
▁করো	-1536
actor	-1537
▁This	-1538
ীত	-1539
▁শতাংশ	-1540
▁তো	-1541
▁নোট	-1542
▁সেট	-1543
▁বাস	-1544
▁prime	-1545
▁প্রাণ	-1546
▁পাথ	-1547
angle	-1548
▁নেওয়ার	-1549
floor	-1550
pr	-1551
▁হলুদ	-1552
1$	-1553
}{2	-1554
▁৯০	-1555
িনের	-1556
▁গণিত	-1557
ুরগ	-1558
▁&=	-1559
▁or	-1560
▁খায়	-1561
▁গোলা	-1562
াইম	-1563
▁ভে	-1564
▁সাদা	-1565
leq	-1566
▁two	-1567
▁১২টি	-1568
col	-1569
▁ক্লাসে	-1570
▁জানতে	-1571
▁per	-1572
▁১২০	-1573
▁pa	-1574
▁ধারণ	-1575
▁ধারা	-1576
▁হওয়ার	-1577
}}	-1578
▁ছাড়া	-1579
▁রূপান্তর	-1580
▁বৈ	-1581
গুলোর	-1582
{8	-1583
মু	-1584
▁চে	-1585
▁কিল	-1586
৭৫	-1587
▁পুর	-1588
▁শার্ট	-1589
শেষে	-1590
▁বাই	-1591
ange	-1592
গ্রহণ	-1593
▁দিকে	-1594
▁কেক	-1595
▁মুরগ	-1596
▁নেই	-1597
row	-1598
▁ত্রিভুজের	-1599
▁কাগ	-1600
▁নিতে	-1601
ডে	-1602
▁'	-1603
▁বী	-1604
▁অতিক	-1605
সংখ্যার	-1606
{9	-1607
গ্না	-1608
গ্নাংশ	-1609
▁কিমি	-1610
লায়	-1611
▁rema	-1612
▁শেষে	-1613
গুলিকে	-1614
▁31	-1615
(1	-1616
▁সেন্ট	-1617
▁।	-1618
▁po	-1619
▁চতুর্থ	-1620
▁স্থানে	-1621
▁বিশ	-1622
▁বিষ	-1623
▁সমস্যাটি	-1624
_3	-1625
▁For	-1626
্যাপ	-1627
▁ক্ষেত্রে	-1628
▁form	-1629
▁have	-1630
▁ভগ্নাংশ	-1631
...	-1632
▁\)।	-1633
4,	-1634
▁\,	-1635
▁কলা	-1636
▁29	-1637
▁অক্ষ	-1638
▁ফলাফল	-1639
ন্ন	-1640
বর্	-1641
▁পঞ্চ	-1642
▁পদ্ধ	-1643
৩৬	-1644
▁প্রাথমিকভাবে	-1645
▁ব্যক্তির	-1646
ast	-1647
▁প্যাকে	-1648
▁বর্গক্ষেত্র	-1649
▁অথবা	-1650
app	-1651
▁তুলে	-1652
গুলিতে	-1653
inal	-1654
mall	-1655
ulti	-1656
beg	-1657
begin	-1658
ভুজের	-1659
▁পরিস	-1660
▁দেওয়ার	-1661
▁প্রত্যেক	-1662
েরি	-1663
▁অতিক্রম	-1664
্কার	-1665
▁ইতি	-1666
{6	-1667
▁পাখ	-1668
বাধিক	-1669
▁গ্রা	-1670
াল	-1671
ount	-1672
▁ক্র	-1673
pi	-1674
গো	-1675
2,	-1676
▁6,	-1677
ন্ডি	-1678
প্রতি	-1679
▁করছে	-1680
▁একত্রিত	-1681
▁solve	-1682
ub	-1683
▁>	-1684
ভুক্ত	-1685
▁2)	-1686
ক্রি	-1687
▁পিজ্	-1688
▁ঘণ্টায়	-1689
▁সোম	-1690
▁যাত্র	-1691
দে	-1692
শ্চ	-1693
িয়া	-1694
▁ইউন	-1695
▁সর্বাধিক	-1696
টো	-1697
▁পাঁচটি	-1698
▁term	-1699
ীদের	-1700
▁গ্রাম	-1701
▁হিসাব	-1702
▁৩৫	-1703
▁LCM	-1704
!}	-1705
66	-1706
duc	-1707
ভার	-1708
▁আক	-1709
▁\(2	-1710
▁বিড়াল	-1711
▁অন্তত	-1712
▁ভ্রমণ	-1713
ঞ্	-1714
▁লাভ	-1715
▁চায়	-1716
17	-1717
ese	-1718
▁জ্যা	-1719
দ্ধান	-1720
▁তিনজন	-1721
▁সিদ্ধান	-1722
▁পড়ে	-1723
▁factor	-1724
ধি	-1725
▁শে	-1726
▁স্প	-1727
ুষ	-1728
ich	-1729
▁ধর	-1730
▁int	-1731
▁ঝ	-1732
▁ধাপ	-1733
মিশ্র	-1734
▁আয়তন	-1735
▁প্রস্থ	-1736
▁সিদ্ধান্ত	-1737
8}	-1738
▁1000	-1739
▁কাজের	-1740
াকায়	-1741
▁একবার	-1742
oth	-1743
▁180	-1744
implies	-1745
▁পাশে	-1746
স্ক	-1747
▁ব্যাগ	-1748
তো	-1749
ষণ	-1750
▁z	-1751
▁56	-1752
▁chocol	-1753
▁বিভিন্ন	-1754
▁উভয়পাশে	-1755
ist	-1756
▁বাহ	-1757
▁জা	-1758
ra	-1759
ven	-1760
▁O	-1761
ডার	-1762
▁সংমিশ্র	-1763
কাল	-1764
ill	-1765
ints	-1766
19	-1767
0000	-1768
▁possible	-1769
ify	-1770
are	-1771
▁বোতল	-1772
ks	-1773
ড়িতে	-1774
ষা	-1775
▁small	-1776
11	-1777
▁দেখা	-1778
▁these	-1779
▁নিম্নলিখিতভাবে	-1780
শো	-1781
বু	-1782
৯০	-1783
▁১৫টি	-1784
▁দা	-1785
▁যত	-1786
▁অংশগ্রহণ	-1787
▁চকলেট	-1788
শাক	-1789
dots	-1790
বিল	-1791
▁অবস্থ	-1792
24	-1793
14	-1794
▁চাল	-1795
কারের	-1796
▁কেবল	-1797
▁ইউনিট	-1798
fer	-1799
▁34	-1800
▁পাঠ	-1801
▁ক্লাস	-1802
▁আপ	-1803
▁উল	-1804
▁cons	-1805
ক্ষণ	-1806
▁first	-1807
▁পারেন	-1808
▁42	-1809
ওয়	-1810
চার	-1811
াপ্ত	-1812
উপ	-1813
▁72	-1814
▁odd	-1815
▁will	-1816
▁49	-1817
▁কোণ	-1818
▁বাদাম	-1819
▁ভাগশেষ	-1820
8$	-1821
নির	-1822
▁সম্পর্	-1823
▁রি	-1824
▁which	-1825
▁pl	-1826
ations	-1827
▁AB	-1828
ণ্ড	-1829
সার	-1830
▁উচিত	-1831
▁গেছে	-1832
▁সপ্তাহের	-1833
▁চিত	-1834
▁স্থাপন	-1835
▁Thus	-1836
▁বিনি	-1837
কি	-1838
২টি	-1839
duct	-1840
▁কালো	-1841
▁অবশেষে	-1842
▁প্রায়	-1843
▁7.	-1844
▁step	-1845
▁পোশাক	-1846
▁ফুল	-1847
▁divid	-1848
div	-1849
র্ড	-1850
▁64	-1851
ঙ্গল	-1852
▁ছবি	-1853
▁৭টি	-1854
▁শত	-1855
(\	-1856
▁যথ	-1857
▁পাতা	-1858
▁মোজা	-1859
▁হচ্ছে	-1860
শ্যই	-1861
imum	-1862
শ্চিত	-1863
▁where	-1864
▁১৫০	-1865
▁বন্ধ	-1866
▁পু	-1867
▁সেন্টি	-1868
ুই	-1869
▁কয়ে	-1870
▁বাহুর	-1871
▁all	-1872
▁কোনো	-1873
▁অবশ্যই	-1874
গা	-1875
▁37	-1876
ধ্যে	-1877
▁আপেলের	-1878
iz	-1879
▁কলম	-1880
▁চলে	-1881
0,	-1882
▁J	-1883
{1}{2}	-1884
-1)	-1885
our	-1886
▁33	-1887
▁99	-1888
দান	-1889
▁সোমবার	-1890
▁নিশ্চিত	-1891
▁প্যাকেট	-1892
▁if	-1893
▁স্বা	-1894
▁গ্রাহ	-1895
iffer	-1896
যে	-1897
বির	-1898
▁(3	-1899
▁সাই	-1900
▁X	-1901
ধিত	-1902
▁বেলুন	-1903
▁7,	-1904
▁জন্ম	-1905
৩০০	-1906
▁কর্	-1907
▁ফেলে	-1908
▁যাওয়া	-1909
$$	-1910
▁লক্ষ	-1911
▁রাউন্ড	-1912
▁সারিতে	-1913
ta	-1914
▁অন্তর্	-1915
▁খাবারের	-1916
▁টমে	-1917
১২০	-1918
ায়ী	-1919
digit	-1920
চ্ছ	-1921
line	-1922
কারণ	-1923
▁কয়	-1924
ভে	-1925
▁one	-1926
▁multi	-1927
▁|	-1928
▁at	-1929
▁প্রাপ্ত	-1930
জক	-1931
▁If	-1932
▁পূর্ণসংখ্যার	-1933
▁কুকুরের	-1934
তন	-1935
পি	-1936
১৩	-1937
▁শুক	-1938
৮টি	-1939
}{5}	-1940
▁দান	-1941
▁দিক	-1942
}{3	-1943
▁তে	-1944
▁দেখতে	-1945
ন্ত্র	-1946
দ্ব	-1947
▁আট	-1948
▁বীজ	-1949
▁75	-1950
sum	-1951
▁$10	-1952
▁ভুল	-1953
▁even	-1954
arrow	-1955
inder	-1956
প্রথম	-1957
▁জিনি	-1958
▁সমষ্টি	-1959
খে	-1960
▁হে	-1961
্লেষণ	-1962
▁কিলোম	-1963
▁ছয়টি	-1964
▁সমীকরণে	-1965
পূর্ণ	-1966
▁মঙ্গল	-1967
00$	-1968
মধ্যে	-1969
▁মাসের	-1970
ীল	-1971
▁গত	-1972
ষ্কার	-1973
▁সারি	-1974
▁খেলে	-1975
▁মানে	-1976
ct	-1977
তৃত	-1978
লিন	-1979
circ	-1980
▁ক্যান্ডি	-1981
_4	-1982
▁squ	-1983
equence	-1984
▁values	-1985
rox	-1986
ফুট	-1987
▁has	-1988
▁বৃহত্ত	-1989
▁product	-1990
▁বৈধ	-1991
▁মিলে	-1992
উই	-1993
▁৭০	-1994
▁চাই	-1995
ax	-1996
mon	-1997
ীয়া	-1998
▁বাগ	-1999
▁integer	-2000
মূল	-2001
ঘন্ট	-2002
ldots	-2003
▁চেয়ার	-2004
▁লক্ষ্য	-2005
▁যাওয়ার	-2006
3$	-2007
▁not	-2008
▁বন্ধুদের	-2009
▁কিলোমিটার	-2010
▁ফল	-2011
▁বান	-2012
ীব	-2013
▁আলা	-2014
ীয়াংশ	-2015
▁টাকায়	-2016
▁শিক্ষক	-2017
য়াম	-2018
▁সমীকরণের	-2019
▁সংখ্যাগুলি	-2020
▁ইতিমধ্যে	-2021
AB	-2022
▁শব	-2023
over	-2024
▁বাম	-2025
▁সাম	-2026
▁১টি	-2027
▁পদ্ধতি	-2028
ানি	-2029
▁300	-2030
▁আলাদা	-2031
▁টেবিল	-2032
▁min	-2033
▁খাওয়া	-2034
▁ক্রেয়ন	-2035
▁চল	-2036
ীতে	-2037
৫টি	-2038
▁1}	-2039
▁70	-2040
টিকে	-2041
▁পাবে	-2042
▁গাছের	-2043
▁ব্যাস	-2044
▁ব্যবস্থ	-2045
▁সংখ্যাকে	-2046
▁মাত্র	-2047
▁দৈর্ঘ্যের	-2048
ose	-2049
▁ছু	-2050
▁বিন্যাস	-2051
)^2	-2052
ear	-2053
les	-2054
▁ব্র	-2055
▁ক্রি	-2056
▁রাখে	-2057
▁differ	-2058
▁খেলার	-2059
ূন্য	-2060
▁দুধ	-2061
▁নাশ	-2062
উপসংহার	-2063
▁পরিসীমা	-2064
৭০	-2065
00}	-2066
লেক	-2067
▁আবার	-2068
▁ব্লক	-2069
approx	-2070
▁চান	-2071
▁সংমিশ্রণ	-2072
র্শ	-2073
▁sequence	-2074
▁smallest	-2075
▁55	-2076
▁ক্ষুদ্র	-2077
হন	-2078
▁...	-2079
গার	-2080
▁চার্	-2081
▁সেন্টিমিটার	-2082
৪টি	-2083
৪০০	-2084
▁পাথর	-2085
▁বলের	-2086
্যান্ড	-2087
▁ঘনক	-2088
▁ষড়	-2089
▁উপায়ের	-2090
▁ঘাত	-2091
▁পড়া	-2092
▁}	-2093
geq	-2094
▁গতিতে	-2095
▁ছেলেদের	-2096
▁equation	-2097
নিক	-2098
▁নিক	-2099
▁পাখি	-2100
▁chocolates	-2101
\_	-2102
রাব	-2103
▁৯টি	-2104
▁নিয়ম	-2105
সব	-2106
বেরি	-2107
▁বুধ	-2108
▁বিভক্ত	-2109
\\	-2110
▁পরের	-2111
▁পূর্	-2112
▁ক্যান	-2113
▁গোলাপ	-2114
▁হারে	-2115
.0	-2116
▁ঘর	-2117
▁ফলে	-2118
েষ্ট	-2119
▁বাড়ি	-2120
▁ডা	-2121
▁২২	-2122
▁৩০০	-2123
ity	-2124
বিক	-2125
▁44	-2126
▁খাম	-2127
▁মানুষ	-2128
▁স্থানের	-2129
▁বেক	-2130
▁গ্রাহক	-2131
ন্ব	-2132
ঘন্টা	-2133
▁১০০০	-2134
▁pairs	-2135
▁কয়টি	-2136
৪৮	-2137
ার্ধ	-2138
▁উভয়ই	-2139
ents	-2140
▁দলে	-2141
্যাম্প	-2142
▁টমেটো	-2143
কেক	-2144
▁কাটা	-2145
▁ধারার	-2146
▁পিজ্জা	-2147
18	-2148
art	-2149
৪৫	-2150
▁0.0	-2151
▁উপস্থিত	-2152
▁remainder	-2153
▁সুদ	-2154
▁প্রতিনি	-2155
পার	-2156
্রের	-2157
▁$3$	-2158
▁সমন্ব	-2159
▁স্ট্র	-2160
▁দোকানে	-2161
▁যোগফলের	-2162
▁than	-2163
▁সীমা	-2164
▁সমানভাবে	-2165
▁days	-2166
▁ডান	-2167
▁সাত	-2168
্যাক্ট	-2169
▁নির্বাচনের	-2170
ition	-2171
▁value	-2172
বদ্ধ	-2173
▁ডজন	-2174
▁৫০০	-2175
▁cond	-2176
▁যারা	-2177
▁ঘনকের	-2178
ng	-2179
▁con	-2180
▁নাম	-2181
▁বিপর	-2182
▁উপহার	-2183
(2	-2184
ুম	-2185
▁max	-2186
▁শিক্ষার্থী	-2187
90	-2188
ূড়	-2189
ution	-2190
▁বিশ্লেষণ	-2191
▁(\	-2192
মেন্ট	-2193
ূড়ান্ত	-2194
▁ক্লাসের	-2195
^\	-2196
ড্র	-2197
▁জিনিস	-2198
riangle	-2199
▁গাড়ির	-2200
we	-2201
▁3)	-2202
মুনা	-2203
▁পক্ষ	-2204
▁নাশপা	-2205
▁সময়ের	-2206
▁$2$	-2207
▁150	-2208
▁পুরো	-2209
▁কারণে	-2210
▁সমান্ত	-2211
▁এরপর	-2212
লিপ	-2213
▁$20	-2214
▁সাজানো	-2215
৬৬	-2216
ব্য	-2217
ায়ে	-2218
▁দুইজন	-2219
থি	-2220
▁both	-2221
▁সুদের	-2222
▁answer	-2223
▁ট্রেনের	-2224
4)	-2225
বৃ	-2226
5,	-2227
7}	-2228
▁২১	-2229
▁৩২	-2230
▁বাক্সের	-2231
থাংশ	-2232
েকের	-2233
ভাবিক	-2234
▁আসুন	-2235
7$	-2236
▁সন্ত	-2237
▁নমুনা	-2238
▁বাচ্চ	-2239
6,	-2240
ion	-2241
▁আইটে	-2242
ংক	-2243
তের	-2244
▁ch	-2245
্ষিক	-2246
econd	-2247
▁ঘরের	-2248
uch	-2249
▁then	-2250
▁বিজ্ঞ	-2251
▁উপায়ে	-2252
▁প্রাণী	-2253
____	-2254
▁বিল	-2255
▁প্রাইম	-2256
▁ক্ষুদ্রতম	-2257
▁মার্ক	-2258
ute	-2259
▁পুনর্	-2260
▁cm	-2261
▁ভাজক	-2262
▁when	-2263
▁কেন্দ	-2264
▁খেলনা	-2265
▁বর্গফুট	-2266
▁বিক্রয়	-2267
▁স্বাভাবিক	-2268
{\	-2269
▁বেতন	-2270
▁print	-2271
ুদ্রা	-2272
▁মুরগি	-2273
▁সমস্যার	-2274
ীন	-2275
৩২	-2276
▁8.	-2277
▁৭৫	-2278
▁গড়ে	-2279
▁বুধবার	-2280
▁শ্রেণীর	-2281
▁কিনেছিলেন	-2282
ঠি	-2283
৩৫	-2284
▁ট্রেন	-2285
▁square	-2286
▁অন্তর্ভুক্ত	-2287
45	-2288
}(	-2289
স্তা	-2290
▁অক্ষর	-2291
▁মুদ্রা	-2292
▁ফ্যাক্ট	-2293
ree	-2294
▁let	-2295
▁আয়তক্ষেত্রের	-2296
89	-2297
লব	-2298
ase	-2299
চ্ছি	-2300
▁38	-2301
▁৪৮	-2302
▁মঙ্গলবার	-2303
▁ফির	-2304
▁শুক্র	-2305
▁স্কুলে	-2306
▁পরিবর্ত	-2307
▁বার্ষিক	-2308
▁tak	-2309
▁ভাবে	-2310
▁বর্গক্ষেত্রের	-2311
গ্রি	-2312
100	-2313
▁ক্রমিক	-2314
▁চূড়ান্ত	-2315
▁পৌ	-2316
ষ্টির	-2317
▁কর্ণ	-2318
uti	-2319
▁such	-2320
▁ব্যাসার্ধ	-2321
LCM	-2322
▁54	-2323
্যান	-2324
▁range	-2325
▁দোকান	-2326
▁সাজানোর	-2327
7,	-2328
▁2$	-2329
▁ডো	-2330
স্থি	-2331
ter	-2332
িয়েছে	-2333
▁আজ	-2334
মানে	-2335
্লাস	-2336
▁ছেদ	-2337
overline	-2338
২৮	-2339
শীল	-2340
৬০০	-2341
্রাম	-2342
ৃত্তি	-2343
▁বলা	-2344
▁there	-2345
▁অনন্য	-2346
}\]	-2347
▁গেম	-2348
▁মাঝ	-2349
its	-2350
▁3$	-2351
▁দী	-2352
লোরি	-2353
▁স্কুল	-2354
বুক	-2355
▁রাশি	-2356
▁গঠন	-2357
▁ওয়া	-2358
▁সারির	-2359
▁উৎপাদক	-2360
িতা	-2361
▁un	-2362
▁ver	-2363
▁পার্	-2364
▁points	-2365
▁জনসংখ্যা	-2366
ধন	-2367
uld	-2368
৩টি	-2369
▁২৮	-2370
35	-2371
৬টি	-2372
▁নির্ণয়ের	-2373
টতম	-2374
▁রেখা	-2375
python	-2376
পরে	-2377
▁1$	-2378
▁39	-2379
্রমে	-2380
▁$5$	-2381
▁আসন	-2382
▁কাগজ	-2383
▁বাবা	-2384
▁৩০টি	-2385
▁৪০০	-2386
28	-2387
১১	-2388
ফের	-2389
▁এল	-2390
▁জানা	-2391
▁চারজন	-2392
▁মেয়েদের	-2393
▁{	-2394
{20	-2395
▁9.	-2396
▁স্	-2397
▁দশমিক	-2398
▁টা	-2399
▁ভর	-2400
▁bet	-2401
▁ক্যালোরি	-2402
\)।	-2403
▁মাছের	-2404
▁মিশ্র	-2405
cl	-2406
un	-2407
▁বৃত্তের	-2408
ph	-2409
হৃত	-2410
স্পতি	-2411
ath	-2412
▁2^	-2413
▁8,	-2414
ween	-2415
্লাই	-2416
▁শব্দ	-2417
▁লোকের	-2418
৫০০	-2419
▁অতি	-2420
▁বহু	-2421
▁যাদের	-2422
▁টিকিটের	-2423
পিং	-2424
▁উই	-2425
▁\):	-2426
▁আইস	-2427
▁বিপরীত	-2428
32	-2429
5)	-2430
বিদ	-2431
▁অভি	-2432
▁তালি	-2433
▁পঞ্চম	-2434
▁between	-2435
▁স্যান্ড	-2436
▁পৌঁ	-2437
▁কিনেছেন	-2438
লগ	-2439
ঘণ্ট	-2440
▁টুপ	-2441
▁দীর্ঘ	-2442
▁কতভাবে	-2443
▁প্রয়োগ	-2444
▁সংখ্যাগুলো	-2445
▁($	-2446
▁ঘরে	-2447
▁জীব	-2448
▁বাল	-2449
▁পরিবার	-2450
▁me	-2451
▁দুজন	-2452
▁স্টিকার	-2453
/2	-2454
▁ঝু	-2455
▁সংখ্যাগুলির	-2456
▁অধ	-2457
▁শূন্য	-2458
▁তারপরে	-2459
▁নিকটতম	-2460
day	-2461
▁96	-2462
▁বর্গের	-2463
▁240	-2464
▁calculate	-2465
!(	-2466
el	-2467
fy	-2468
eck	-2469
১৫০	-2470
▁শহ	-2471
▁মিল	-2472
▁শুক্রবার	-2473
বাহ	-2474
ুপে	-2475
▁$4$	-2476
▁area	-2477
▁ওজনের	-2478
▁কিনেছে	-2479
▁পরবর্তীতে	-2480
কৃত	-2481
য়াল	-2482
▁আসে	-2483
ওয়ায়	-2484
▁গিয়ে	-2485
▁ভোট	-2486
press	-2487
▁Step	-2488
▁গোলক	-2489
▁প্রতিনিধিত	-2490
৯৯	-2491
▁তর	-2492
▁মতো	-2493
▁পোষা	-2494
▁প্রতিযোগ	-2495
সিক	-2496
্তে	-2497
▁টাইল	-2498
lfloor	-2499
rfloor	-2500
▁three	-2501
▁ব্যবহৃত	-2502
২১	-2503
াকড়	-2504
▁হ্যা	-2505
▁count	-2506
▁বর্তমানে	-2507
*.	-2508
{(	-2509
put	-2510
▁sid	-2511
▁বাজ	-2512
▁রাখা	-2513
াস	-2514
▁গ্রে	-2515
▁থাকার	-2516
eterm	-2517
ল্পনা	-2518
▁ব্যাঙ	-2519
ভূ	-2520
▁500	-2521
▁বিদ	-2522
▁মের	-2523
▁পরিক	-2524
▁পরিষ্কার	-2525
Result	-2526
▁মাধ্য	-2527
▁অর্ডার	-2528
পুর	-2529
▁এসে	-2530
প্রতিটি	-2531
36	-2532
!}{	-2533
কালে	-2534
8,	-2535
▁গ্রহ	-2536
itions	-2537
▁বিষয়	-2538
▁গ্রুপে	-2539
▁ভাইয়ের	-2540
▁6$	-2541
▁65	-2542
▁দর	-2543
ther	-2544
}{6}	-2545
▁ডিগ্রি	-2546
রাবৃত্তি	-2547
arg	-2548
স্ব	-2549
▁অংশের	-2550
▁any	-2551
▁পানি	-2552
▁পাত্র	-2553
▁divided	-2554
.6	-2555
ef	-2556
▁কাঠ	-2557
▁জেম	-2558
▁মাং	-2559
যেহেতু	-2560
▁second	-2561
ণি	-2562
▁5$	-2563
▁তু	-2564
ায়ের	-2565
▁dist	-2566
্যান্য	-2567
▁সম্পর্ক	-2568
▁বৃহস্পতি	-2569
ch	-2570
▁যৌ	-2571
▁২৭	-2572
্যাস	-2573
▁জাম	-2574
াক্রমে	-2575
ud	-2576
প্তাহ	-2577
▁দেখে	-2578
▁সম্পন্ন	-2579
সু	-2580
\_\_	-2581
▁আগের	-2582
▁কর্মী	-2583
▁combin	-2584
▁কিনেছিল	-2585
যা	-2586
▁১৮০	-2587
▁ways	-2588
▁গুটি	-2589
▁রেখে	-2590
▁মূল্যের	-2591
▁into	-2592
▁পরিবর্তন	-2593
▁নির্বাচিত	-2594
ঞ্জ	-2595
▁এখানে	-2596
▁থাকলে	-2597
▁যুক্ত	-2598
▁পরিস্থি	-2599
ect	-2600
▁অপর	-2601
▁হাই	-2602
▁circ	-2603
▁উপরের	-2604
▁প্রতিনিধিত্ব	-2605
▁শতক	-2606
ফে	-2607
১৭	-2608
▁2(	-2609
▁কন	-2610
▁Number	-2611
▁প্রতিটিতে	-2612
▁ফি	-2613
ঘণ্টা	-2614
▁ডিমের	-2615
▁শুরুতে	-2616
সন	-2617
▁অভ	-2618
▁$0.	-2619
▁রবি	-2620
▁final	-2621
▁ট্রি	-2622
▁উপার্	-2623
▁সেটের	-2624
▁যথাক্রমে	-2625
থক	-2626
+1)	-2627
▁রাখতে	-2628
▁ব্যাগে	-2629
▁নাশপাতি	-2630
▁\$	-2631
▁ছি	-2632
▁পর্যবে	-2633
9$	-2634
9}	-2635
per	-2636
▁ফো	-2637
▁উপার্জন	-2638
")	-2639
▁so	-2640
▁বোন	-2641
▁সিন	-2642
▁উপরে	-2643
▁পদের	-2644
▁চিত্র	-2645
▁ট্রাক	-2646
▁প্রদান	-2647
64	-2648
বক	-2649
▁4$	-2650
▁5)	-2651
▁৪০টি	-2652
▁বন্ধুর	-2653
▁আইসক্রি	-2654
ame	-2655
▁সেকেন্ডে	-2656
70	-2657
▁\(1	-2658
▁out	-2659
▁শনি	-2660
ility	-2661
▁ম্যাচ	-2662
▁express	-2663
▁হওয়ায়	-2664
▁বিড়ালের	-2665
▁গঠিত	-2666
▁লাইব	-2667
▁সারা	-2668
▁জ্যাক	-2669
▁ভি	-2670
▁ড্র	-2671
▁বোঝ	-2672
▁বৃহত্তম	-2673
▁বিনিয়োগ	-2674
▁সীমাবদ্ধ	-2675
{12	-2676
ট্র	-2677
ন্ধ	-2678
▁স্ট্রবেরি	-2679
ডা	-2680
ত্য	-2681
▁গর	-2682
▁\(3	-2683
▁শিশুদের	-2684
তৃতীয়াংশ	-2685
▁q	-2686
ula	-2687
্সের	-2688
▁আমার	-2689
▁এখনও	-2690
▁সমাবেশের	-2691
44	-2692
_5	-2693
ubs	-2694
▁\((	-2695
▁গাজ	-2696
▁asks	-2697
▁নোটবুক	-2698
▁কাছ	-2699
যায়ী	-2700
▁আছেন	-2701
▁লেখা	-2702
▁valid	-2703
▁পুনরাবৃত্তি	-2704
২৪০	-2705
▁ar	-2706
িটারে	-2707
▁নীতি	-2708
▁অঙ্কটি	-2709
▁মিনিটের	-2710
▁কেবলমাত্র	-2711
কর্	-2712
▁se	-2713
▁গরু	-2714
▁অনুযায়ী	-2715
up	-2716
১৯	-2717
▁টুপি	-2718
▁পৃথক	-2719
▁দিয়েছিল	-2720
৩৩	-2721
{2}	-2722
▁84	-2723
▁So	-2724
{10}	-2725
পত্র	-2726
ূল্য	-2727
▁GCD	-2728
▁স্কুলের	-2729
▁অন্যান্য	-2730
▁প্রতিটির	-2731
atis	-2732
্টার	-2733
▁গুণন	-2734
▁কেনার	-2735
▁360	-2736
▁get	-2737
▁চিন	-2738
▁লাফ	-2739
▁400	-2740
▁সময়ে	-2741
76	-2742
▁52	-2743
▁বোতলের	-2744
কোণ	-2745
▁দৃ	-2746
ড়ার	-2747
▁অসম	-2748
▁খরগো	-2749
▁result	-2750
▁থাকায়	-2751
ংরে	-2752
▁ষড়ভুজ	-2753
etermine	-2754
২২	-2755
▁9,	-2756
▁600	-2757
▁রোপ	-2758
▁জলের	-2759
▁জুতা	-2760
▁মিলিয়ে	-2761
})	-2762
tand	-2763
▁satis	-2764
rib	-2765
▁4)	-2766
nders	-2767
▁জায়	-2768
▁পদক্ষে	-2769
▁[	-2770
▁বহন	-2771
▁ছেলের	-2772
▁ফুলের	-2773
▁কোয়ার	-2774
nderstand	-2775
দেশ	-2776
বাই	-2777
▁উঠ	-2778
বয়স	-2779
▁পর্	-2780
▁verify	-2781
▁উৎপাদন	-2782
▁কাগজের	-2783
▁ঘন্টার	-2784
লাই	-2785
▁(5	-2786
▁পারবেন	-2787
▁পরিকল্পনা	-2788
}{\	-2789
iven	-2790
▁non	-2791
ুক্তি	-2792
▁খুঁজ	-2793
▁বাস্	-2794
গুলোকে	-2795
▁অনুসরণ	-2796
▁স্যান্ডউই	-2797
▁বৃহস্পতিবার	-2798
▁৬০০	-2799
▁পয়স	-2800
▁এইভাবে	-2801
▁যাত্রা	-2802
াকি	-2803
▁(4	-2804
▁অপ	-2805
স্তু	-2806
▁0.5	-2807
▁স্লাই	-2808
▁কেন্দ্র	-2809
▁২৩	-2810
▁least	-2811
▁কোম্প	-2812
▁ধরনের	-2813
▁পরীক্ষার	-2814
^4	-2815
by	-2816
cd	-2817
▁একা	-2818
▁দিলে	-2819
▁ফা	-2820
▁তোম	-2821
▁নিই	-2822
▁টায়	-2823
▁নিচে	-2824
▁নিয়মিত	-2825
▁integers	-2826
▁difference	-2827
ass	-2828
▁46	-2829
▁ফের	-2830
ছাত্র	-2831
▁larg	-2832
▁last	-2833
_{1	-2834
▁0,	-2835
▁ap	-2836
▁২৬	-2837
য়ানের	-2838
▁বোনের	-2839
▁formula	-2840
13	-2841
ans	-2842
{3}	-2843
ারি	-2844
▁$12	-2845
▁\(4	-2846
▁common	-2847
▁খেলায়	-2848
88	-2849
▁$6$	-2850
লিয়ে	-2851
স্টার	-2852
▁ইংরে	-2853
▁করছেন	-2854
▁খেয়েছে	-2855
▁মানগুলি	-2856
9,	-2857
▁টম	-2858
pm	-2859
ors	-2860
োগ্রাম	-2861
▁রান্না	-2862
▁factors	-2863
▁প্রান্ত	-2864
▁multiple	-2865
\%	-2866
und	-2867
▁sh	-2868
ঙ্গু	-2869
▁কিনা	-2870
▁প্রাণীর	-2871
োল	-2872
tic	-2873
}\)	-2874
▁co	-2875
বাহু	-2876
▁মেল	-2877
▁ক্ষতি	-2878
▁maximum	-2879
▁কেনা	-2880
▁আড়	-2881
▁কাট	-2882
দ্বিতীয়	-2883
▁পরিবারের	-2884
ug	-2885
▁j	-2886
▁আন	-2887
▁পরা	-2888
▁অংশে	-2889
▁সন্তান	-2890
▁প্রশ্নের	-2891
▁i	-2892
▁৮০০	-2893
বয়স্ক	-2894
▁terms	-2895
▁আকারের	-2896
▁তালিকা	-2897
▁পরিবর্	-2898
▁শনিবার	-2899
▁অবস্থান	-2900
▁বাস্কেট	-2901
Step	-2902
্রাউ	-2903
▁বেস	-2904
▁জনকে	-2905
▁দশটি	-2906
▁প্যালিন	-2907
▁পেয়েছিল	-2908
own	-2909
▁লু	-2910
িকের	-2911
▁কেস	-2912
ড়াতে	-2913
▁...,	-2914
▁৬০টি	-2915
▁খাওয়ার	-2916
▁পরিস্থিতি	-2917
}")	-2918
মিন	-2919
১৮০	-2920
ment	-2921
▁ফ্র	-2922
ining	-2923
▁৫০টি	-2924
▁অ্যাপ	-2925
▁গ্রহণ	-2926
pe	-2927
ue	-2928
ted	-2929
ves	-2930
কল্প	-2931
Right	-2932
▁year	-2933
▁ফিরে	-2934
▁ভাড়া	-2935
▁সংযুক্ত	-2936
▁তুমি	-2937
▁তোমার	-2938
▁পড়তে	-2939
Rightarrow	-2940
শুর	-2941
সাই	-2942
▁লাইন	-2943
▁Given	-2944
▁যাচ্ছে	-2945
ider	-2946
ngth	-2947
লগ্ন	-2948
▁125	-2949
▁বেগু	-2950
▁ফুটবল	-2951
▁ইউয়ান	-2952
▁নির্দেশ	-2953
▁মাধ্যমে	-2954
▁ti	-2955
▁কমি	-2956
▁চকো	-2957
ating	-2958
▁অনুষ্ঠ	-2959
▁দিয়েছেন	-2960
-1	-2961
▁`	-2962
tit	-2963
শার	-2964
৯টি	-2965
▁দিই	-2966
▁ফলের	-2967
▁সাজা	-2968
▁their	-2969
ালা	-2970
▁day	-2971
▁আরে	-2972
▁ছাগ	-2973
▁মুদ্র	-2974
▁কাপকেক	-2975
▁ছাড়ের	-2976
^1	-2977
ভের	-2978
▁250	-2979
▁ডাক	-2980
▁বেগ	-2981
▁ball	-2982
▁জিতে	-2983
▁মুরগির	-2984
চাই	-2985
ক্ষম	-2986
িলের	-2987
▁গরুর	-2988
▁সমাধানের	-2989
▁স্ট্যাম্প	-2990
ম্	-2991
▁1:	-2992
▁সৈ	-2993
্দুর	-2994
▁110	-2995
্ল্যা	-2996
▁ললিপ	-2997
▁হিসাবে	-2998
▁কার্ডের	-2999
age	-3000
তুল	-3001
▁47	-3002
▁ময়	-3003
▁দিয়েছিলেন	-3004
1.	-3005
২৭	-3006
▁অর্জন	-3007
▁কর্মচার	-3008
ইন	-3009
▁63	-3010
▁66	-3011
tern	-3012
মিলি	-3013
▁খেতে	-3014
▁কলমের	-3015
▁অনুশীল	-3016
▁ব্যবস্থা	-3017
enti	-3018
▁দুপুর	-3019
▁ভাইবো	-3020
▁পাথরের	-3021
▁গ্রুপের	-3022
▁বন্ধুকে	-3023
▁চতুর্থাংশ	-3024
▁প্রাপ্তবয়স্ক	-3025
$)	-3026
▁নৌ	-3027
বর্গ	-3028
▁আলু	-3029
▁কথা	-3030
▁জয়	-3031
▁পেন্সিলের	-3032
্ধ	-3033
ূপে	-3034
ason	-3035
▁একে	-3036
▁গান	-3037
▁বসে	-3038
ক্ষিক	-3039
▁টুকর	-3040
▁equal	-3041
▁পরিশো	-3042
মুজ	-3043
▁ab	-3044
▁আদ	-3045
ific	-3046
▁start	-3047
▁আইসক্রিম	-3048
96	-3049
্যক	-3050
▁2:	-3051
একটি	-3052
▁মনে	-3053
স্তার	-3054
▁ক্রমে	-3055
▁length	-3056
▁98	-3057
▁চো	-3058
▁ডোনা	-3059
▁সঙ্গ	-3060
▁সমন্বয়	-3061
▁তম	-3062
জির	-3063
িনা	-3064
^{20	-3065
১০০০	-3066
▁\\]	-3067
▁man	-3068
▁তরমুজ	-3069
▁অংশগ্রহণকারী	-3070
এক	-3071
৭২	-3072
্লি	-3073
▁ang	-3074
▁প্যাক	-3075
▁মানের	-3076
▁গুণনীয়	-3077
লক	-3078
ace	-3079
মির	-3080
শ্ব	-3081
্লো	-3082
▁720	-3083
▁ছোটো	-3084
▁বাচ্চা	-3085
▁সংলগ্ন	-3086
{15	-3087
রূপ	-3088
▁ঘট	-3089
ally	-3090
▁তোলা	-3091
▁সালে	-3092
▁পক্ষকে	-3093
্পি	-3094
▁টু	-3095
fter	-3096
▁Now	-3097
}{12}	-3098
▁পৃষ্ঠার	-3099
▁আপেক্ষিক	-3100
▁সংখ্যায়	-3101
আপ	-3102
▁$15	-3103
▁বির	-3104
▁simpl	-3105
র্ণ	-3106
▁টিউ	-3107
▁কতটা	-3108
▁দৃশ্য	-3109
▁নিকেল	-3110
▁বর্গাকার	-3111
গত	-3112
▁.	-3113
^{1	-3114
ডিও	-3115
▁কফি	-3116
ছাড়া	-3117
▁পনির	-3118
▁কাজটি	-3119
ধার	-3120
▁৪২	-3121
দিনে	-3122
▁আটটি	-3123
▁বিশেষ	-3124
▁যাচাই	-3125
▁টুকরোর	-3126
▁রবিবার	-3127
▁ক্ষেত্রফলের	-3128
▁পূর্ণসংখ্যায়	-3129
গি	-3130
বেগ	-3131
১৬০	-3132
▁রস	-3133
▁চোখ	-3134
বিজ্ঞ	-3135
▁রুটি	-3136
▁সত্য	-3137
▁other	-3138
▁যোগদান	-3139
▁Calculate	-3140
▁পরীক্ষায়	-3141
▁Fr	-3142
রামি	-3143
্রাস	-3144
▁col	-3145
▁মোল	-3146
▁খালি	-3147
ubstit	-3148
▁ফলাফলের	-3149
▁মিষ্টির	-3150
cm	-3151
ফিন	-3152
বিলে	-3153
সনের	-3154
টার্ন	-3155
▁টপিং	-3156
▁কাপড়	-3157
▁মায়ের	-3158
▁নিয়েছে	-3159
বাদ	-3160
োরি	-3161
▁&\	-3162
▁বব	-3163
ৌলিক	-3164
▁মিঃ	-3165
▁পার্ক	-3166
▁পরিমাণের	-3167
--	-3168
low	-3169
০০০০	-3170
▁ভেত	-3171
▁only	-3172
▁কার্	-3173
▁Total	-3174
▁Result	-3175
\):	-3176
_{\	-3177
প্ত	-3178
ater	-3179
▁পূর্ব	-3180
▁circle	-3181
▁বিদ্যাল	-3182
▁সঠিকভাবে	-3183
▁বাস্কেটবল	-3184
▁conditions	-3185
$:	-3186
3.	-3187
}{4	-3188
▁দেন	-3189
ন্টের	-3190
▁সোডা	-3191
▁আইটেম	-3192
র্থ	-3193
প্রা	-3194
▁নিজে	-3195
▁কার্ট	-3196
▁কমলালে	-3197
▁চকোলেট	-3198
▁জোড়ার	-3199
▁প্রবেশ	-3200
▁ছাত্রকে	-3201
▁up	-3202
▁use	-3203
য়মূল্য	-3204
▁পরিশোধ	-3205
▁বেগুনি	-3206
ds	-3207
▁:	-3208
ize	-3209
▁te	-3210
▁ভূ	-3211
▁যৌগ	-3212
▁উপাদ	-3213
▁উল্ট	-3214
▁এটিকে	-3215
সেকেন্ড	-3216
▁triangle	-3217
▁প্যাটার্ন	-3218
72	-3219
urn	-3220
্যায়	-3221
▁ব্রে	-3222
▁১৪টি	-3223
▁২০০০	-3224
সপ্তাহ	-3225
▁এছাড়া	-3226
▁টেবিলে	-3227
▁3^2	-3228
মৌলিক	-3229
▁সঞ্চ	-3230
▁multipl	-3231
▁পেয়েছেন	-3232
20}	-3233
ice	-3234
▁৫৫	-3235
▁10$	-3236
▁পিছ	-3237
▁শতকরা	-3238
65	-3239
GCD	-3240
▁tra	-3241
▁মূলত	-3242
▁check	-3243
▁স্থানীয়	-3244
▁81	-3245
}{8}	-3246
▁আপনি	-3247
▁দূরে	-3248
▁শিশুর	-3249
asoning	-3250
ুরে	-3251
ানার	-3252
▁ভর্	-3253
▁যান	-3254
▁same	-3255
▁সকালে	-3256
▁প্যাকেটে	-3257
▁লাইব্রের	-3258
rightarrow	-3259
▁78	-3260
▁10.	-3261
▁সরা	-3262
▁____	-3263
▁১৮টি	-3264
▁পরিধি	-3265
▁অনুমান	-3266
▁গতিবেগ	-3267
▁নিচ্ছি	-3268
▁স্যান্ডউইচ	-3269
▁খেলোয়াড়ের	-3270
ূন	-3271
bab	-3272
৭টি	-3273
^{2}	-3274
র্শন	-3275
ুনের	-3276
ূনতম	-3277
▁$$\	-3278
▁$8$	-3279
ollow	-3280
কেলের	-3281
ায়িত	-3282
{1}{4}	-3283
▁কতবার	-3284
▁মাসিক	-3285
▁বিশিষ্ট	-3286
▁৬৫	-3287
▁(10	-3288
▁11,	-3289
▁আকৃ	-3290
▁টিন	-3291
ative	-3292
েষ্টা	-3293
▁দ্রু	-3294
{1}{3}	-3295
▁কাটার	-3296
▁পয়সা	-3297
▁স্লাইস	-3298
▁সমান্তর	-3299
▁প্রত্যেকের	-3300
55	-3301
▁6)	-3302
▁he	-3303
▁শা	-3304
▁জ্ব	-3305
▁শর্	-3306
▁আকার	-3307
▁রোপণ	-3308
▁করবেন	-3309
▁স্কুপ	-3310
▁তুলেছে	-3311
\(	-3312
ধা	-3313
টিং	-3314
reak	-3315
▁চিপ	-3316
▁চেক	-3317
▁হোম	-3318
চতুর্	-3319
▁২৫টি	-3320
▁করেছি	-3321
▁বাবার	-3322
▁এছাড়াও	-3323
▁সময়কাল	-3324
▁গুণনীয়ক	-3325
▁প্রতিবেশ	-3326
▁দ্বিগুণের	-3327
pec	-3328
৮০০	-3329
▁আমি	-3330
▁পাশ	-3331
▁আড়ু	-3332
▁means	-3333
▁অ্যালি	-3334
▁পরিবেশ	-3335
▁বিন্যাসের	-3336
ary	-3337
মুন	-3338
োটি	-3339
▁গোষ্ঠ	-3340
▁বিনিম	-3341
▁ললিপপ	-3342
তল	-3343
cap	-3344
▁খো	-3345
▁৭২	-3346
▁105	-3347
▁এটা	-3348
▁জেলি	-3349
▁ইংরেজি	-3350
▁পিরামি	-3351
▁বাড়িতে	-3352
▁consider	-3353
▁solution	-3354
▁খেয়েছিল	-3355
22	-3356
▁$10$	-3357
▁গাজর	-3358
▁মাংস	-3359
▁follow	-3360
▁চারগুণ	-3361
ure	-3362
▁$1$	-3363
▁তাক	-3364
▁১৬০	-3365
▁১০০টি	-3366
▁largest	-3367
6)	-3368
200	-3369
▁41	-3370
▁ঘো	-3371
▁২৯	-3372
▁লুক	-3373
সমীকরণ	-3374
▁কয়েন	-3375
▁চেষ্টা	-3376
▁পদক্ষেপ	-3377
95	-3378
▁km	-3379
▁144	-3380
▁স্তর	-3381
bability	-3382
▁প্যালিনড্র	-3383
বাকি	-3384
▁(1,	-3385
▁its	-3386
▁আলি	-3387
▁গাম	-3388
▁ন্য	-3389
▁many	-3390
▁নীচের	-3391
▁যথেষ্ট	-3392
▁সাইকেল	-3393
নিং	-3394
১টি	-3395
▁43	-3396
▁তল	-3397
9999	-3398
▁(1/	-3399
শার্ট	-3400
▁break	-3401
▁আঙ্গু	-3402
▁মূলধন	-3403
▁পরিমাণে	-3404
▁মুদ্রার	-3405
্পে	-3406
▁আঁ	-3407
লব্ধ	-3408
্যের	-3409
▁নেন	-3410
▁2000	-3411
▁ন্যূনতম	-3412
ারী	-3413
very	-3414
▁বাগানে	-3415
▁অঙ্কগুলির	-3416
cc	-3417
use	-3418
দার	-3419
রাল	-3420
লেক্স	-3421
▁অষ্ট	-3422
▁প্লে	-3423
▁টুকরা	-3424
▁মেয়ের	-3425
দ্দ	-3426
▁1.5	-3427
▁10,	-3428
▁চুল	-3429
২৬	-3430
_1,	-3431
▁In	-3432
▁Re	-3433
মাংশ	-3434
▁160	-3435
ান্তে	-3436
▁এভাবে	-3437
▁সংখ্যাটিকে	-3438
▁শিক্ষার্থীর	-3439
▁চও	-3440
}{1}	-3441
োয়া	-3442
▁তলা	-3443
▁দৈনিক	-3444
▁মেরির	-3445
ৃশ	-3446
▁sc	-3447
▁পথ	-3448
▁৩৪	-3449
ours	-3450
ান্ড	-3451
▁13,	-3452
▁\[2	-3453
▁জের	-3454
▁ওয়ে	-3455
▁জেমস	-3456
▁দর্শ	-3457
▁সিনে	-3458
▁ভর্তি	-3459
▁যৌগিক	-3460
▁রাখার	-3461
▁গণিতের	-3462
▁সাজাতে	-3463
▁minimum	-3464
▁ব্যক্তিকে	-3465
92	-3466
ভীর	-3467
▁den	-3468
▁ষষ্ঠ	-3469
utions	-3470
▁তৈরির	-3471
▁একত্রে	-3472
▁লোকদের	-3473
প্রাথমিক	-3474
উন	-3475
িখ	-3476
িজ	-3477
)\)	-3478
▁85	-3479
▁৮৫	-3480
}{7}	-3481
▁\(5	-3482
▁bec	-3483
▁পেনি	-3484
attern	-3485
▁সংজ্ঞ	-3486
▁অনুশীলন	-3487
84	-3488
ys	-3489
িতার	-3490
▁Sol	-3491
▁উপলব্ধ	-3492
▁দৌড়ায়	-3493
মো	-3494
ving	-3495
ায়া	-3496
▁Each	-3497
▁down	-3498
▁কচ্ছ	-3499
▁every	-3500
▁চওড়া	-3501
▁দ্রুত	-3502
▁মালিক	-3503
মেল	-3504
▁8$	-3505
▁রক	-3506
উন্ট	-3507
▁পোক	-3508
▁স্য	-3509
▁**\(	-3510
▁অতিথি	-3511
▁পানীয়	-3512
▁একইভাবে	-3513
▁নম্বরের	-3514
▁ভ্রমণের	-3515
সর	-3516
য্য	-3517
▁108	-3518
▁set	-3519
▁জুন	-3520
▁বুঝ	-3521
since	-3522
▁বাসে	-3523
▁ল্যা	-3524
▁১১টি	-3525
▁অপরের	-3526
▁এককের	-3527
▁অ্যান্ড	-3528
▁চালিয়ে	-3529
▁শার্টের	-3530
▁হারিয়ে	-3531
▁পর্যবেক্ষণ	-3532
▁সীমাবদ্ধতা	-3533
10}	-3534
\\]	-3535
▁53	-3536
▁cl	-3537
▁গজ	-3538
ানির	-3539
▁$9$	-3540
▁টিম	-3541
▁ওভার	-3542
▁চিঠি	-3543
ামাকড়	-3544
▁গ্লাস	-3545
▁নিজের	-3546
▁কার্যক	-3547
▁প্যালিনড্রোম	-3548
পতি	-3549
▁3:	-3550
▁BC	-3551
▁রোল	-3552
▁sides	-3553
▁কেকের	-3554
▁দরকার	-3555
▁সাতটি	-3556
▁গোলাপের	-3557
days	-3558
▁mod	-3559
▁sho	-3560
▁১৩টি	-3561
▁সঞ্চয়	-3562
▁লাইব্রেরিতে	-3563
8)	-3564
st	-3565
ote	-3566
▁(6	-3567
▁মহ	-3568
ক্ষা	-3569
▁Pro	-3570
▁নমুন	-3571
▁সবগুলো	-3572
so	-3573
^2$	-3574
ছাই	-3575
মুখ	-3576
▁রাই	-3577
▁২৪০	-3578
▁ডাইম	-3579
য়ারের	-3580
▁স্বাদ	-3581
▁পাওয়ার	-3582
▁সদস্যের	-3583
▁গুণিতকের	-3584
_6	-3585
দশ	-3586
.\]	-3587
্কা	-3588
▁pe	-3589
▁210	-3590
▁1200	-3591
▁স্টে	-3592
▁১৬টি	-3593
▁gives	-3594
ক্রিয়া	-3595
▁পোকামাকড়	-3596
▁আয়তক্ষেত্রাকার	-3597
%।	-3598
))	-3599
-2)	-3600
িয়	-3601
▁wr	-3602
fect	-3603
ামের	-3604
▁800	-3605
বার্ট	-3606
▁বাদে	-3607
▁কোণের	-3608
▁খরগোশ	-3609
▁আরেকটি	-3610
+1	-3611
৯৬	-3612
তায়	-3613
দিকে	-3614
শনের	-3615
▁মেশ	-3616
▁সরব	-3617
▁রঙিন	-3618
▁দশকের	-3619
▁অঙ্কগুলি	-3620
85	-3621
enc	-3622
তিত	-3623
▁পণ	-3624
্রমিক	-3625
▁গাছে	-3626
▁পরস্প	-3627
▁মুখের	-3628
▁উত্তরটি	-3629
ঘাত	-3630
▁ডল	-3631
▁gre	-3632
▁how	-3633
▁চাম	-3634
▁পর্ব	-3635
▁সমান্তরাল	-3636
বুর	-3637
লিয়া	-3638
▁চক্র	-3639
▁পাশা	-3640
▁ফ্রে	-3641
▁ট্যাব	-3642
▁দামের	-3643
▁ব্রাউ	-3644
▁রাস্তা	-3645
▁বিজ্ঞান	-3646
▁শ্রেণীতে	-3647
▁ব্যক্তিদের	-3648
^5	-3649
▁%	-3650
50$	-3651
▁চিন্তা	-3652
▁combinations	-3653
৫৫	-3654
লাল	-3655
▁কৃ	-3656
▁mon	-3657
▁জার	-3658
▁মোম	-3659
▁বস্তা	-3660
▁চারপাশে	-3661
arr	-3662
▁৫৬	-3663
▁জমা	-3664
▁তাস	-3665
▁বরা	-3666
ভূমিক	-3667
▁ক্ষম	-3668
▁চার্জ	-3669
▁বেসবল	-3670
▁ভেতরে	-3671
.4	-3672
-1}	-3673
▁1/	-3674
▁৫৪	-3675
clus	-3676
▁$60	-3677
▁12$	-3678
▁box	-3679
▁চাচ	-3680
বেলের	-3681
▁four	-3682
▁ফেরত	-3683
▁দুটির	-3684
▁স্তম্	-3685
▁স্থির	-3686
▁বৃদ্ধির	-3687
▁ব্যাগের	-3688
গণ	-3689
▁58	-3690
ীমার	-3691
▁অফি	-3692
িয়ার	-3693
▁চাকা	-3694
তন্ত্র	-3695
▁কুকির	-3696
▁ছিলেন	-3697
▁ডোনাট	-3698
▁বাইরে	-3699
+2	-3700
and	-3701
কেন	-3702
▁999	-3703
▁তাপ	-3704
itive	-3705
▁more	-3706
▁করছি	-3707
▁অ্যাল	-3708
▁আকারে	-3709
▁সংগ্র	-3710
▁স্যাম	-3711
বিশিষ্ট	-3712
▁remaining	-3713
)=	-3714
urs	-3715
▁৬৪	-3716
▁def	-3717
▁\(10	-3718
▁শিয়া	-3719
▁হ্রাস	-3720
ত্বপূর্ণ	-3721
▁সদস্যদের	-3722
cho	-3723
not	-3724
য়ং	-3725
▁2^2	-3726
▁Sum	-3727
entify	-3728
ড়িয়ে	-3729
▁units	-3730
▁সমকোণ	-3731
▁সৈন্য	-3732
▁হ্যাম	-3733
▁পদ্ধতির	-3734
▁condition	-3735
67	-3736
৪২	-3737
খান	-3738
▁৩১	-3739
লিভি	-3740
িনার	-3741
▁end	-3742
▁সাব	-3743
ecuti	-3744
▁গুরু	-3745
▁দণ্ড	-3746
▁ভ্যা	-3747
▁মেরি	-3748
▁সদৃশ	-3749
}{100}	-3750
▁তলায়	-3751
▁বাছাই	-3752
▁বিরতি	-3753
▁মিলিত	-3754
ecutive	-3755
▁do	-3756
▁অক	-3757
▁900	-3758
▁ল্যাপ	-3759
▁সমবাহু	-3760
▁Numbers	-3761
▁সংগ্রহে	-3762
▁তাপমাত্র	-3763
▁স্বতন্ত্র	-3764
▁পূর্ববর্তী	-3765
mol	-3766
▁51	-3767
▁88	-3768
▁==	-3769
ould	-3770
▁ভেঙ	-3771
▁সন্	-3772
▁২৫০	-3773
erson	-3774
ণিতিক	-3775
▁also	-3776
▁দৌড়ে	-3777
▁বুঝতে	-3778
▁প্রধান	-3779
▁বরাদ্দ	-3780
▁determine	-3781
.2	-3782
ib	-3783
▁হর	-3784
▁mar	-3785
▁would	-3786
▁পড়ার	-3787
বিজ্ঞান	-3788
৫৪	-3789
খার	-3790
▁পত	-3791
ন্সি	-3792
স্টে	-3793
▁ভুট	-3794
▁রেক	-3795
চ্ছেন	-3796
▁2016	-3797
▁টাইপ	-3798
▁পরিপ	-3799
▁সাহা	-3800
▁পাখির	-3801
▁সরবরা	-3802
▁ঝুড়িতে	-3803
৬৪	-3804
-3)	-3805
ack	-3806
করণ	-3807
মাল	-3808
হরণ	-3809
াতে	-3810
্টর	-3811
▁৪৪	-3812
eter	-3813
▁126	-3814
▁আসল	-3815
লেটের	-3816
্যস্ত	-3817
▁লেবু	-3818
▁First	-3819
▁বাড়ির	-3820
triangle	-3821
)^	-3822
্যু	-3823
কেলে	-3824
১২০০	-3825
▁ret	-3826
▁গভীর	-3827
▁balls	-3828
▁month	-3829
▁times	-3830
▁সরবরাহ	-3831
▁মারিয়া	-3832
nderstanding	-3833
_0	-3834
ive	-3835
িল্প	-3836
্যাশ	-3837
▁(2,	-3838
▁খরচের	-3839
▁ঘূর্ণ	-3840
▁ময়দা	-3841
▁সংখ্যাগুলোর	-3842
বেন	-3843
▁62	-3844
▁৳২	-3845
▁12,	-3846
▁পের	-3847
▁0.20	-3848
▁নৌকা	-3849
▁অসমতা	-3850
implify	-3851
▁choose	-3852
▁পাঁচজন	-3853
▁বৃহত্তর	-3854
▁positive	-3855
ne	-3856
দু	-3857
{14	-3858
/100	-3859
ছানা	-3860
▁add	-3861
য়নের	-3862
▁$12$	-3863
▁math	-3864
▁পাশের	-3865
▁রাস্তার	-3866
alculation	-3867
▁গুরুত্বপূর্ণ	-3868
দী	-3869
ভাগ	-3870
pres	-3871
reas	-3872
সেমি	-3873
▁2^3	-3874
▁অপে	-3875
ন্সের	-3876
ভাপতি	-3877
যোগ্য	-3878
▁চাবি	-3879
▁কার্পে	-3880
▁জায়গা	-3881
▁আইটেমের	-3882
▁সাধারণত	-3883
▁সাহায্য	-3884
ik	-3885
আউ	-3886
তিন	-3887
▁68	-3888
▁ছক	-3889
▁কোষ	-3890
▁চালা	-3891
▁৮০টি	-3892
▁angle	-3893
▁trans	-3894
▁অবদান	-3895
▁দিকের	-3896
▁মানুষের	-3897
▁পুরুষদের	-3898
.8	-3899
ll	-3900
▁?	-3901
র্ম	-3902
▁par	-3903
▁আলো	-3904
▁return	-3905
▁satisfy	-3906
!$	-3907
৮৪	-3908
সেস	-3909
▁9$	-3910
▁Ver	-3911
▁lea	-3912
▁ইনিং	-3913
▁বক্ত	-3914
▁ইয়ার	-3915
▁মেশিন	-3916
▁পুনর্বিন	-3917
ip	-3918
টর	-3919
মাস	-3920
্রী	-3921
▁79	-3922
▁im	-3923
▁আব	-3924
ning	-3925
▁140	-3926
▁reg	-3927
▁গেল	-3928
▁সাপ	-3929
িতায়	-3930
▁বালতি	-3931
▁পায়ের	-3932
▁বিষয়ে	-3933
▁তৃতীয়াংশ	-3934
▁কোয়ার্টার	-3935
▁পপ	-3936
ance	-3937
ause	-3938
ular	-3939
▁$7$	-3940
▁১৪০	-3941
দাহরণ	-3942
▁কেটে	-3943
▁চামচ	-3944
▁পনের	-3945
▁বসতে	-3946
▁২৪টি	-3947
▁যেকোন	-3948
▁হয়নি	-3949
▁person	-3950
▁ক্ষেত্রের	-3951
7)	-3952
out	-3953
ফার	-3954
্টা	-3955
prime	-3956
▁অঞ্চ	-3957
▁থালা	-3958
▁কমলার	-3959
▁ভিডিও	-3960
▁উভয়ের	-3961
▁স্ট্রি	-3962
▁divisor	-3963
▁প্রার্থ	-3964
ification	-3965
টিক	-3966
ধাপ	-3967
▁95	-3968
ঙ্কে	-3969
ায়ক	-3970
▁দশক	-3971
▁মাথা	-3972
▁প্যান	-3973
▁শর্তটি	-3974
▁perfect	-3975
▁চালানোর	-3976
▁তুলেছিল	-3977
▁প্রশিক্ষ	-3978
▁consecutive	-3979
▁probability	-3980
▁প্রতিযোগিতায়	-3981
ফো	-3982
৫৬	-3983
▁67	-3984
▁শেল	-3985
▁0.10	-3986
▁2017	-3987
▁2019	-3988
▁ভেঙে	-3989
▁দর্শক	-3990
▁রাতের	-3991
▁সালের	-3992
▁অবস্থিত	-3993
▁দুপুরের	-3994
▁মধ্যবর্তী	-3995
লাম	-3996
▁(0	-3997
▁(8	-3998
▁7$	-3999
▁8)	-4000
স্টি	-4001
▁শাক	-4002
▁after	-4003
▁কর্মীর	-4004
▁pattern	-4005
▁তিনজনের	-4006
▁পার্শ্ব	-4007
▁সম্পর্কে	-4008
.00	-4009
adi	-4010
▁ফাই	-4011
ধারিত	-4012
▁কেনে	-4013
▁ছাগল	-4014
▁রাতে	-4015
▁কম্পি	-4016
▁তারিখ	-4017
▁পাতার	-4018
▁বিস্ত	-4019
▁অ্যালব	-4020
▁উপাদান	-4021
▁গিয়েছিল	-4022
\}	-4023
রী	-4024
২৩	-4025
rea	-4026
রির	-4027
চ্ছা	-4028
▁199	-4029
▁\\(	-4030
▁পেই	-4031
ments	-4032
▁$20$	-4033
▁ইতিহা	-4034
▁বিস্ক	-4035
▁ব্যাক	-4036
▁transl	-4037
▁কম্পিউ	-4038
▁প্যাকেজ	-4039
▁ইতিমধ্যেই	-4040
+3	-4041
টিই	-4042
▁77	-4043
▁1\)	-4044
▁ঘাস	-4045
▁2015	-4046
▁less	-4047
▁পরিদ	-4048
▁পুতুল	-4049
aligned	-4050
▁inters	-4051
▁অক্ষরের	-4052
▁বিস্কুট	-4053
▁অনুভূমিক	-4054
▁খেলোয়াড়দের	-4055
সির	-4056
▁92	-4057
▁দাগ	-4058
▁হাঁ	-4059
▁সকাল	-4060
▁খাওয়	-4061
▁মিসেস	-4062
Calculate	-4063
▁নির্ধারিত	-4064
ag	-4065
ঠা	-4066
neg	-4067
{11	-4068
সান	-4069
▁$0	-4070
▁10)	-4071
▁inc	-4072
▁নিজ	-4073
জারের	-4074
▁কাঠের	-4075
▁সরলরে	-4076
ization	-4077
▁repres	-4078
▁বিভাগে	-4079
▁Substit	-4080
▁প্রকল্প	-4081
▁solutions	-4082
tr	-4083
ish	-4084
cess	-4085
▁0.4	-4086
▁ঘুম	-4087
▁স্ন	-4088
▁১২০০	-4089
verage	-4090
▁প্লাস	-4091
▁বৃষ্টি	-4092
▁শিয়াও	-4093
▁এমনভাবে	-4094
▁কয়েকটি	-4095
▁ভিত্তিতে	-4096
▁ষড়ভুজের	-4097
▁পূর্ণবর্গ	-4098
ভর	-4099
সী	-4100
৯৫	-4101
ant	-4102
জয়	-4103
▁৩৩	-4104
▁হান	-4105
ংয়ের	-4106
▁কমিক	-4107
▁গর্ত	-4108
▁বেড়া	-4109
▁খামারে	-4110
▁বহুভুজ	-4111
▁স্বাদের	-4112
.25	-4113
িকা	-4114
▁টেক	-4115
▁মাঠ	-4116
▁পরপর	-4117
▁বেগে	-4118
▁পিটার	-4119
▁পদগুলো	-4120
▁পার্কে	-4121
চতুর্থাংশ	-4122
0}	-4123
=1}	-4124
ost	-4125
▁CP	-4126
!}{2	-4127
clud	-4128
ople	-4129
}{9}	-4130
িটের	-4131
িলার	-4132
▁20$	-4133
▁\(6	-4134
▁দাদ	-4135
▁ভাষা	-4136
▁place	-4137
▁দুবার	-4138
▁denote	-4139
▁should	-4140
▁একাধিক	-4141
▁দেখানো	-4142
▁মার্বেলের	-4143
ls	-4144
me	-4145
ফা	-4146
ugh	-4147
বৃহ	-4148
ামে	-4149
▁আণ	-4150
▁বক	-4151
▁(0.	-4152
্যন্ত	-4153
▁কোর্	-4154
▁মাইক	-4155
▁আণবিক	-4156
▁দুইটি	-4157
▁পোশাকের	-4158
▁বিস্তৃত	-4159
▁কিলোগ্রাম	-4160
77	-4161
ইট	-4162
ৈধ	-4163
রুম	-4164
শনে	-4165
ীকে	-4166
▁AD	-4167
▁How	-4168
▁কোচ	-4169
▁ধরণ	-4170
▁ভাল	-4171
ন্ডির	-4172
ন্দের	-4173
▁Code	-4174
▁ভালো	-4175
▁সপ্ত	-4176
{3}{2}	-4177
তৃতীয়	-4178
▁ভাগফল	-4179
▁মোমবা	-4180
▁জ্যামি	-4181
▁গুণফলের	-4182
▁পুরুষের	-4183
▁দূরত্বের	-4184
ূচ	-4185
োপ	-4186
▁৫২	-4187
▁৳৩	-4188
Find	-4189
গারে	-4190
জনের	-4191
বার্	-4192
▁কমে	-4193
cdots	-4194
দিনের	-4195
▁প্রে	-4196
▁কচ্ছপ	-4197
▁স্তূপ	-4198
negative	-4199
▁অর্ধেকের	-4200
▁চতুর্ভুজ	-4201
20$	-4202
লিত	-4203
সরি	-4204
▁lo	-4205
▁15$	-4206
▁17,	-4207
▁টমের	-4208
▁বলতে	-4209
{2}{3}	-4210
▁exact	-4211
▁খুঁজছি	-4212
▁গোলকের	-4213
▁পরিবেশন	-4214
▁পিজ্জার	-4215
ুস	-4216
log	-4217
por	-4218
{16	-4219
্সি	-4220
▁CD	-4221
▁৩৮	-4222
sing	-4223
▁ens	-4224
▁exp	-4225
▁কাই	-4226
▁মিস	-4227
▁আমের	-4228
▁কাজে	-4229
▁সংশো	-4230
▁সোনা	-4231
clusion	-4232
▁ক্ষমতা	-4233
▁ব্যবধি	-4234
▁শ্রমিক	-4235
▁সরাসরি	-4236
▁উচ্চতার	-4237
▁পরিবর্তিত	-4238
▁খেয়েছিলেন	-4239
ংহ	-4240
val	-4241
য়ো	-4242
▁57	-4243
▁kn	-4244
▁নব	-4245
itial	-4246
choose	-4247
স্ট্রি	-4248
▁সক্ষম	-4249
▁people	-4250
▁সিনেমা	-4251
▁সংগ্রহের	-4252
ick	-4253
ite	-4254
ues	-4255
র্ট	-4256
▁76	-4257
্লেট	-4258
▁এলি	-4259
▁কেন	-4260
▁পুক	-4261
▁মরি	-4262
▁####	-4263
▁পাকা	-4264
▁বাল্ব	-4265
▁বিভাগ	-4266
dentify	-4267
ওয়ার্ক	-4268
▁অ্যামি	-4269
▁প্যান্ট	-4270
▁মহিলাদের	-4271
",	-4272
43	-4273
9)	-4274
}\	-4275
▁৬৬	-4276
▁0.8	-4277
▁but	-4278
▁side	-4279
▁করিম	-4280
▁নয়টি	-4281
▁পানির	-4282
ossible	-4283
ার্টমেন্ট	-4284
▁তালিকাভুক্ত	-4285
পরি	-4286
▁87	-4287
▁শো	-4288
atur	-4289
▁$11	-4290
▁জর্	-4291
▁ধরুন	-4292
▁লিখে	-4293
বিদ্যা	-4294
▁মিটারে	-4295
▁because	-4296
▁বিষয়ের	-4297
▁কমলালেবু	-4298
23	-4299
98	-4300
rite	-4301
utes	-4302
ত্যা	-4303
ায়ন	-4304
▁দাঁ	-4305
্যারি	-4306
▁From	-4307
▁খাবে	-4308
▁hours	-4309
▁মাফিন	-4310
▁অপেক্ষা	-4311
▁গাড়িতে	-4312
তর	-4313
৬৫	-4314
orm	-4315
tra	-4316
িকো	-4317
ীকৃত	-4318
▁সান	-4319
▁সিল	-4320
range	-4321
▁taka	-4322
{3}{4}	-4323
▁পূর্বে	-4324
▁,	-4325
থির	-4326
▁2\	-4327
▁97	-4328
▁ro	-4329
▁কু	-4330
▁লী	-4331
6666	-4332
▁wor	-4333
▁কৃষ	-4334
▁অনুপ	-4335
▁ন্যা	-4336
▁যতটা	-4337
▁বাগান	-4338
▁পরিদর্শন	-4339
▁বৃত্তাকার	-4340
▁উদ	-4341
▁লব	-4342
▁৮৪	-4343
▁জাদ	-4344
▁ফোন	-4345
্যারে	-4346
▁stud	-4347
▁অনুর	-4348
▁আনার	-4349
▁শঙ্ক	-4350
্যাক্স	-4351
▁কমিটি	-4352
▁সোনার	-4353
▁কর্মীদের	-4354
▁কম্পিউটার	-4355
_7	-4356
▁112	-4357
▁135	-4358
▁Com	-4359
▁app	-4360
▁ভরা	-4361
ল্যাপ	-4362
▁জর্ড	-4363
▁বানর	-4364
ড়িয়া	-4365
▁জেসিক	-4366
▁প্লেট	-4367
▁মার্চ	-4368
▁সর্বদা	-4369
▁বিনিময়	-4370
▁chocolate	-4371
▁সংখ্যাটির	-4372
(3	-4373
_2,	-4374
োরা	-4375
▁-1	-4376
▁ধু	-4377
▁ধো	-4378
ever	-4379
১০টি	-4380
▁**$	-4381
▁Out	-4382
▁জার্	-4383
▁ত্রু	-4384
▁সমতল	-4385
▁স্বে	-4386
▁চাচাত	-4387
reasing	-4388
▁নির্ভর	-4389
▁সমকোণী	-4390
▁However	-4391
▁সংজ্ঞায়িত	-4392
ek	-4393
ণে	-4394
ৃহ	-4395
ire	-4396
জেন	-4397
্রো	-4398
▁SP	-4399
ivis	-4400
র্না	-4401
^{201	-4402
▁চিনি	-4403
▁দেখি	-4404
▁পণ্য	-4405
▁point	-4406
▁টাইলের	-4407
▁মাত্রা	-4408
▁শ্রেণী	-4409
▁অভ্যন্ত	-4410
▁আয়তনের	-4411
▁গোলাকার	-4412
▁সপ্তাহান্তে	-4413
ges	-4414
▁91	-4415
▁kg	-4416
math	-4417
সময়	-4418
▁(3,	-4419
▁1.0	-4420
▁ABC	-4421
▁রঙে	-4422
▁3600	-4423
▁লেগে	-4424
▁since	-4425
▁দুধের	-4426
▁শাকসব	-4427
▁Verification	-4428
!}{3	-4429
থ্যা	-4430
পন্ন	-4431
}{10}	-4432
▁pair	-4433
▁they	-4434
▁নেবে	-4435
▁ড্রাই	-4436
▁সকলের	-4437
▁চালায়	-4438
▁বাদামী	-4439
▁নির্মাণ	-4440
▁প্রস্তু	-4441
▁Reasoning	-4442
▁তাপমাত্রা	-4443
▁প্রক্রিয়া	-4444
{5}	-4445
▁0$	-4446
▁0.6	-4447
▁খণ্ড	-4448
চ্ছাসে	-4449
মিটারে	-4450
▁ছেড়ে	-4451
▁বিজয়	-4452
▁ধারাটি	-4453
▁distrib	-4454
▁বহুভুজের	-4455
▁জিনিসপত্র	-4456
▁রূপান্তরিত	-4457
ষে	-4458
বছর	-4459
শেল	-4460
▁73	-4461
▁bl	-4462
3333	-4463
ound	-4464
বন্ধ	-4465
▁0.2	-4466
▁2.5	-4467
▁met	-4468
▁ফেল	-4469
▁ব্যাচ	-4470
▁শতকের	-4471
বিন্দুর	-4472
▁বসিয়ে	-4473
▁ভাইবোন	-4474
▁টেবিলের	-4475
▁স্যামের	-4476
▁প্রতিবার	-4477
ial	-4478
ome	-4479
২৫০	-4480
port	-4481
ুকের	-4482
▁পাল	-4483
▁next	-4484
▁ভাগে	-4485
▁ট্রিপ	-4486
▁পেপার	-4487
▁মাকড়	-4488
▁কতক্ষণ	-4489
▁নিম্নরূপ	-4490
▁ক্যান্ডির	-4491
▁পয়েন্টের	-4492
%,	-4493
48	-4494
৪৪	-4495
.5$	-4496
/3)	-4497
ove	-4498
জিত	-4499
▁89	-4500
▁হো	-4501
াসের	-4502
▁15,	-4503
▁220	-4504
▁চিজ	-4505
▁আসার	-4506
▁ছবির	-4507
▁কুকিজ	-4508
▁পাত্রে	-4509
Identify	-4510
▁ফ্যাক্টর	-4511
▁বিন্দুতে	-4512
▁স্বেচ্ছাসে	-4513
_8	-4514
500	-4515
80$	-4516
^{\	-4517
থের	-4518
শির	-4519
{100	-4520
২০০০	-4521
▁101	-4522
▁আসা	-4523
▁এতে	-4524
্লম্ব	-4525
▁team	-4526
▁পরিব	-4527
▁সেটে	-4528
্যানের	-4529
▁তুলনা	-4530
▁পৌঁছা	-4531
▁ভাগের	-4532
▁states	-4533
▁ক্যালক	-4534
▁greater	-4535
▁পছন্দের	-4536
▁বিভাগের	-4537
{4}	-4538
হিত	-4539
্টে	-4540
▁3!	-4541
▁Ne	-4542
▁হট	-4543
ases	-4544
গণিত	-4545
্ডার	-4546
▁\(7	-4547
▁mph	-4548
▁who	-4549
▁জরি	-4550
array	-4551
▁$15$	-4552
▁জীবন	-4553
▁ফিতা	-4554
▁বর্ণ	-4555
▁রেসি	-4556
▁ডলারে	-4557
▁প্রিজ	-4558
শিষ্ট্য	-4559
▁উদাহরণ	-4560
▁পরস্পর	-4561
▁ক্যালকু	-4562
▁দৌড়াতে	-4563
▁Simplify	-4564
▁সন্তানের	-4565
▁প্রত্যেকটি	-4566
▁ফ্যাক্টোরি	-4567
▁হোমওয়ার্ক	-4568
56	-4569
ry	-4570
সক	-4571
ous	-4572
pha	-4573
অর্	-4574
সেজ	-4575
▁4:	-4576
▁no	-4577
▁শট	-4578
▁৩৭	-4579
▁৯৬	-4580
ator	-4581
iles	-4582
জায়	-4583
িকার	-4584
▁কুম	-4585
▁চাক	-4586
▁রোগ	-4587
alpha	-4588
বৃদ্ধ	-4589
▁ঘটনা	-4590
▁দলটি	-4591
▁১৭টি	-4592
▁বিশ্র	-4593
▁সমানু	-4594
▁স্তরে	-4595
▁২০০টি	-4596
▁জিতেছে	-4597
▁বিক্রির	-4598
▁বিন্যাশ	-4599
র্নামেন্ট	-4600
40$	-4601
{30	-4602
গাম	-4603
ধির	-4604
▁টন	-4605
▁fru	-4606
▁কুই	-4607
▁দ্র	-4608
লিটার	-4609
▁conf	-4610
▁ডায়	-4611
▁Output	-4612
▁ত্রুটি	-4613
▁পড়েছে	-4614
▁ব্লকের	-4615
▁কোম্পানি	-4616
▁হ্যামবার্	-4617
▁টুর্নামেন্ট	-4618
িম	-4619
পাশ	-4620
ফির	-4621
▁59	-4622
tain	-4623
▁130	-4624
▁row	-4625
▁জনি	-4626
▁ডাই	-4627
Total	-4628
ction	-4629
▁ইমেল	-4630
▁Final	-4631
▁write	-4632
▁এমিলি	-4633
▁ব্যবস	-4634
▁মাঝের	-4635
▁import	-4636
▁বোঝায়	-4637
▁সম্প্র	-4638
▁exactly	-4639
▁পেয়েছিলেন	-4640
সহ	-4641
জেট	-4642
াকৃ	-4643
▁Wh	-4644
▁৮৮	-4645
▁\(8	-4646
▁সহগ	-4647
ithme	-4648
▁বার্	-4649
▁মৌসু	-4650
▁৩৬টি	-4651
▁অন্তর	-4652
▁ডাক্ত	-4653
▁রাবার	-4654
টেরিয়া	-4655
▁satisf	-4656
▁কর্ণের	-4657
▁রেকর্ড	-4658
ithmetic	-4659
▁minutes	-4660
▁নমুনায়	-4661
▁বিক্রয়মূল্য	-4662
78	-4663
৩৪	-4664
(20	-4665
gcd	-4666
৩৬০	-4667
▁61	-4668
▁৳৫	-4669
্লেখ	-4670
▁11.	-4671
▁৳১০	-4672
▁0.25	-4673
▁কনফি	-4674
▁ব্লু	-4675
ক্ষণের	-4676
▁সারাহ	-4677
▁leaves	-4678
▁গাণিতিক	-4679
▁দেখেছেন	-4680
▁ওভারল্যাপ	-4681
▁প্যাকেটের	-4682
▁স্বেচ্ছাসেবক	-4683
▁জিম	-4684
▁মণি	-4685
▁৪৫০	-4686
uting	-4687
ক্ষের	-4688
ন্ডার	-4689
▁play	-4690
▁আসলে	-4691
▁গ্রি	-4692
ক্ষিতে	-4693
▁power	-4694
▁এগুলো	-4695
▁উৎপন্ন	-4696
▁কমিয়ে	-4697
▁ক্যাফে	-4698
▁সমুদ্র	-4699
▁সূত্রে	-4700
▁average	-4701
▁অ্যালিস	-4702
▁বিন্দুর	-4703
▁কর্মচারী	-4704
▁প্যানকেক	-4705
▁অ্যালেক্স	-4706
▁অ্যাপার্টমেন্ট	-4707
নিস	-4708
▁বর	-4709
ম্বর	-4710
▁123	-4711
▁উদ্	-4712
▁রহি	-4713
▁অধ্য	-4714
▁পৌঁছ	-4715
▁বাতি	-4716
▁বোঝা	-4717
▁লিলি	-4718
▁শহরে	-4719
▁ঘোড়া	-4720
▁আকৃতির	-4721
▁বিকেলে	-4722
▁রসায়ন	-4723
▁পরিপ্রে	-4724
▁students	-4725
▁কনফিগারে	-4726
▁পরিবর্তে	-4727
বন	-4728
ten	-4729
}}{	-4730
আপে	-4731
▁am	-4732
ubtr	-4733
▁cor	-4734
▁জেন	-4735
▁বসা	-4736
tions	-4737
বাহিত	-4738
▁rect	-4739
▁পরিচ	-4740
{1}{6}	-4741
▁আলমার	-4742
▁গণনার	-4743
▁পর্যট	-4744
▁হারের	-4745
লেক্সের	-4746
▁ঘণ্টার	-4747
▁ছাত্ররা	-4748
▁ভিত্তির	-4749
▁মোমবাতি	-4750
▁সূত্রটি	-4751
▁চিড়িয়া	-4752
▁বৈশিষ্ট্য	-4753
▁পরিপ্রেক্ষিতে	-4754
yc	-4755
one	-4756
{40	-4757
ংকে	-4758
য়র	-4759
িকি	-4760
▁(7	-4761
লিভার	-4762
শ্রয়	-4763
unning	-4764
কাউন্ট	-4765
্যাশিত	-4766
▁ওয়ান	-4767
▁ছুড়ে	-4768
▁বোতাম	-4769
▁শহরের	-4770
▁সপ্তম	-4771
▁উল্লেখ	-4772
▁পার্কিং	-4773
▁পৌঁছাতে	-4774
▁ভাইবোনের	-4775
▁অনুপস্থিত	-4776
অন	-4777
ফট	-4778
ied	-4779
ulo	-4780
▁9)	-4781
▁$14	-4782
▁$16	-4783
▁4.5	-4784
▁450	-4785
▁you	-4786
▁সহজ	-4787
বৃত্ত	-4788
▁ডাউন	-4789
▁ওয়ার	-4790
▁শিল্প	-4791
▁meters	-4792
▁অভিজ্ঞ	-4793
▁একদিনে	-4794
▁ছাত্রী	-4795
▁পদার্থ	-4796
▁arithmetic	-4797
ুরি	-4798
১৪০	-4799
▁7)	-4800
▁gr	-4801
▁225	-4802
▁ক্ল	-4803
▁টার	-4804
}{2}$	-4805
াত্মক	-4806
▁1500	-4807
▁\\[\	-4808
▁বিবৃ	-4809
▁খুঁজুন	-4810
▁উল্লম্ব	-4811
▁চেয়ারের	-4812
▁ক্যালকুলেট	-4813
▁ফ্যাক্টোরিয়াল	-4814
}$.	-4815
কিন	-4816
শটি	-4817
▁3(	-4818
▁Sh	-4819
▁op	-4820
alle	-4821
ions	-4822
}}{\	-4823
▁inv	-4824
▁আরো	-4825
▁দড়ি	-4826
▁আপনার	-4827
▁ঘূর্ণন	-4828
▁বেলুনের	-4829
▁স্কোরের	-4830
▁পরিসীমার	-4831
▁ছাত্রছাত্র	-4832
▁factorization	-4833
21	-4834
BC	-4835
াব	-4836
abc	-4837
ike	-4838
atch	-4839
দুটি	-4840
ব্রা	-4841
▁19,	-4842
adius	-4843
স্থাপ	-4844
▁সবাই	-4845
▁হাতে	-4846
▁৫০০০	-4847
▁মাইকের	-4848
▁সেখানে	-4849
▁ট্যাঙ্ক	-4850
▁পিরামিডের	-4851
এই	-4852
জিন	-4853
ধীন	-4854
▁পী	-4855
মাতে	-4856
মুখী	-4857
▁(0,	-4858
▁480	-4859
▁দিল	-4860
▁পশু	-4861
▁৳২০	-4862
▁appl	-4863
▁গ্যা	-4864
▁জেনি	-4865
▁যেমন	-4866
অর্থাৎ	-4867
যন্ত্র	-4868
▁ছায়া	-4869
▁স্যুট	-4870
▁একমাত্র	-4871
▁স্থানান্তর	-4872
▁পর্যবেক্ষণের	-4873
(10	-4874
ব্যব	-4875
▁$50	-4876
▁132	-4877
▁24$	-4878
▁\[3	-4879
▁\[4	-4880
▁পাব	-4881
eries	-4882
▁left	-4883
▁pick	-4884
▁ক্লো	-4885
▁জাহা	-4886
▁টায়ার	-4887
▁ভুট্টা	-4888
alculating	-4889
▁নিয়েছিলেন	-4890
57	-4891
ইল	-4892
cup	-4893
{1,	-4894
লোড	-4895
১২৫	-4896
▁যু	-4897
▁৮৬	-4898
১২টি	-4899
▁$30	-4900
▁350	-4901
▁আউট	-4902
▁them	-4903
▁মিলা	-4904
▁steps	-4905
▁থাকেন	-4906
▁সারার	-4907
▁মাংসের	-4908
▁বাগানের	-4909
▁বিতরণের	-4910
▁ক্রেয়নের	-4911
ীষ্	-4912
▁-2	-4913
▁৪৯	-4914
airs	-4915
heck	-4916
পঞ্চ	-4917
রায়	-4918
▁128	-4919
▁3\)	-4920
▁কাক	-4921
▁কেউ	-4922
▁চতু	-4923
▁রাজ	-4924
_{10}	-4925
▁$100	-4926
▁high	-4927
▁বেড়	-4928
▁স্টক	-4929
সাইকেল	-4930
▁ক্যাল	-4931
▁ধরেছে	-4932
▁নিচের	-4933
▁বাদ্য	-4934
▁বিশ্ব	-4935
▁যাত্রী	-4936
▁divisors	-4937
▁নিয়েছিল	-4938
▁মারিয়ার	-4939
▁বাদ্যযন্ত্র	-4940
▁শীর্ষবিন্দুর	-4941
.$$	-4942
▁৩৯	-4943
^{3}	-4944
atio	-4945
inct	-4946
uary	-4947
ব্রু	-4948
▁গৃহ	-4949
▁লগি	-4950
ন্যাস	-4951
imeter	-4952
{4}{3}	-4953
িনিয়র	-4954
▁কয়েক	-4955
▁ছক্কা	-4956
▁পরিমা	-4957
▁খেলেছে	-4958
▁মিথ্যা	-4959
▁লগিষ্ঠ	-4960
▁সঙ্গীত	-4961
▁রাউন্ডে	-4962
▁প্রকারের	-4963
▁চতুর্ভুজের	-4964
)(	-4965
কম	-4966
কর	-4967
ূর	-4968
ide	-4969
irm	-4970
{13	-4971
বাস	-4972
▁ডঃ	-4973
ন্টে	-4974
র্ডে	-4975
্দের	-4976
২০টি	-4977
▁(20	-4978
▁30$	-4979
▁খাদ	-4980
▁পাজ	-4981
▁পেন	-4982
▁মেষ	-4983
▁রেখ	-4984
▁লিপ	-4985
=1}^{	-4986
▁Sund	-4987
▁over	-4988
▁টিমের	-4989
▁স্কিট	-4990
unction	-4991
▁ক্র্যা	-4992
▁গভীরতা	-4993
▁দুইবার	-4994
▁স্ত্রী	-4995
▁স্পর্শ	-4996
▁শ্রেণির	-4997
▁সমস্যায়	-4998
▁কেন্দ্রীয়	-4999
▁সংমিশ্রণের	-5000
।)	-5001
দল	-5002
sin	-5003
সেট	-5004
▁86	-5005
▁সী	-5006
▁৳৪	-5007
ices	-5008
নিলা	-5009
পাশি	-5010
ুমান	-5011
▁$25	-5012
▁(1)	-5013
▁168	-5014
▁$30$	-5015
▁ছুটি	-5016
number	-5017
ণাত্মক	-5018
প্রায়	-5019
▁ছয়জন	-5020
▁ট্রিপে	-5021
ব্রুয়ার	-5022
▁confirm	-5023
▁অধ্যায়	-5024
▁যাত্রার	-5025
▁শাকসবজি	-5026
▁স্থায়ী	-5027
▁ধারণক্ষম	-5028
▁satisfies	-5029
^6	-5030
২৯	-5031
600	-5032
60}	-5033
oly	-5034
}{6	-5035
নাল	-5036
লকা	-5037
bles	-5038
ড়ের	-5039
দ্বি	-5040
নতুন	-5041
▁$13	-5042
▁$24	-5043
▁12.	-5044
▁16,	-5045
▁23,	-5046
▁\(9	-5047
▁know	-5048
▁rece	-5049
▁বলটি	-5050
▁জুড়ে	-5051
▁ট্যাগ	-5052
▁পরমাণ	-5053
▁পোস্ট	-5054
Finding	-5055
▁ensure	-5056
▁formed	-5057
▁এসেছিল	-5058
▁ক্রমের	-5059
▁মধ্যমা	-5060
▁ম্যাচে	-5061
▁শব্দের	-5062
▁স্তরের	-5063
▁জ্যাকের	-5064
▁distinct	-5065
▁expressed	-5066
{-	-5067
৭৬	-5068
।**	-5069
র্য	-5070
▁এম	-5071
▁৪৩	-5072
▁৳১	-5073
arts	-5074
atic	-5075
rect	-5076
ঞ্জে	-5077
্টের	-5078
▁162	-5079
▁অংক	-5080
▁দৈব	-5081
বর্জন	-5082
▁Here	-5083
▁বর্ষ	-5084
বৃদ্ধি	-5085
য়ামের	-5086
▁দেখার	-5087
▁ক্লাবে	-5088
▁চিত্রে	-5089
▁ক্লাবের	-5090
▁দ্বিঘাত	-5091
▁ব্যান্ড	-5092
▁সিনিয়র	-5093
▁প্রোগ্রাম	-5094
▁হারিয়েছে	-5095
▁সমীকরণগুলি	-5096
/3	-5097
ats	-5098
eng	-5099
lcm	-5100
নাস	-5101
বন্	-5102
ভিং	-5103
্বে	-5104
lish	-5105
মিকে	-5106
▁তেল	-5107
▁শাম	-5108
▁হেক	-5109
▁৩৬০	-5110
কালের	-5111
য়ারে	-5112
ুয়ার	-5113
▁চলতে	-5114
▁বসার	-5115
▁মূর্	-5116
▁লাঠি	-5117
খানায়	-5118
▁রাখেন	-5119
▁সময়স	-5120
▁different	-5121
৩৮	-5122
(3)	-5123
^2}	-5124
▁ty	-5125
ব্যা	-5126
মূলক	-5127
৬৬৬৬	-5128
▁$18	-5129
▁102	-5130
▁কলে	-5131
▁জংক	-5132
▁হেন	-5133
বোর্ড	-5134
▁এপ্র	-5135
▁নারী	-5136
▁সকলে	-5137
▁১৫০০	-5138
▁৪৫টি	-5139
▁Thurs	-5140
▁জ্বাল	-5141
▁ফেলার	-5142
▁ব্যাট	-5143
▁সংযোগ	-5144
▁বিবৃতি	-5145
▁উভয়পাশ	-5146
▁ক্যানের	-5147
▁ম্যাচের	-5148
▁রান্নাঘ	-5149
▁পরিমাণকে	-5150
▁ব্যবস্থাপ	-5151
$-	-5152
("	-5153
+4	-5154
xy	-5155
৮৫	-5156
ঠির	-5157
ব্র	-5158
হীন	-5159
াইড	-5160
অথবা	-5161
প্রশ	-5162
▁0.3	-5163
▁12)	-5164
▁মাশ	-5165
▁যাই	-5166
▁হটড	-5167
hline	-5168
▁plan	-5169
▁গ্লা	-5170
▁ডিভি	-5171
▁পিঠা	-5172
▁মালা	-5173
▁সিংহ	-5174
{5}{2}	-5175
▁color	-5176
▁expon	-5177
▁পাবেন	-5178
▁জেমসের	-5179
▁নিয়োগ	-5180
▁arrange	-5181
▁দেখেছিল	-5182
▁ট্যাবলেট	-5183
▁পাশাপাশি	-5184
▁বিন্যস্ত	-5185
▁equations	-5186
▁জনসংখ্যার	-5187
{24	-5188
এবং	-5189
থার	-5190
▁5:	-5191
▁এগ	-5192
▁৪৬	-5193
able	-5194
ilar	-5195
কর্ম	-5196
রূপে	-5197
▁$40	-5198
▁111	-5199
▁Eng	-5200
▁des	-5201
শূন্য	-5202
ৃত্তে	-5203
▁ফুটে	-5204
imilar	-5205
প্রশ্ন	-5206
স্বরূপ	-5207
▁পতাকা	-5208
▁output	-5209
▁প্রভাব	-5210
▁সেগুলো	-5211
▁Running	-5212
▁উত্তরের	-5213
▁খরগোশের	-5214
▁আমাদেরকে	-5215
▁পুরষ্কার	-5216
▁অবস্থানের	-5217
▁প্রতিবেশী	-5218
▁combination	-5219
}$$	-5220
ডেল	-5221
▁0)	-5222
▁82	-5223
▁83	-5224
▁৬৩	-5225
তলের	-5226
তাবল	-5227
▁175	-5228
▁2\)	-5229
▁শহর	-5230
▁৩৫০	-5231
}{15}	-5232
▁1800	-5233
▁like	-5234
▁spec	-5235
▁নীচে	-5236
▁বিলি	-5237
▁class	-5238
▁ঝুড়ি	-5239
▁ডলারের	-5240
▁মহিলার	-5241
▁English	-5242
▁পুনরায়	-5243
▁Solution	-5244
▁ট্যাঙ্কে	-5245
▁পেস্ট্রি	-5246
▁ভ্যানিলা	-5247
.,	-5248
মজ	-5249
eta	-5250
nes	-5251
লিশ	-5252
▁qu	-5253
▁নখ	-5254
▁0.1	-5255
▁14,	-5256
▁বেত	-5257
▁১৩০	-5258
ences	-5259
▁comp	-5260
▁frac	-5261
▁খোলা	-5262
▁ঘুরে	-5263
▁রবিন	-5264
▁wrapp	-5265
▁এলাকা	-5266
▁বেকার	-5267
ubtract	-5268
▁fruits	-5269
▁বিজয়ী	-5270
▁জেলিবিন	-5271
▁প্রস্তা	-5272
▁দৌড়ানোর	-5273
▁নোটবুকের	-5274
▁বিন্যাশের	-5275
▁ক্রয়মূল্য	-5276
▁পরিস্থিতিতে	-5277
9.	-5278
তুর	-5279
ীনা	-5280
▁4-	-5281
ম্যা	-5282
াতের	-5283
▁16$	-5284
▁থাম	-5285
/100)	-5286
মিনিট	-5287
মিলিত	-5288
▁অনুক	-5289
▁জেরি	-5290
ভুক্তি	-5291
▁invol	-5292
▁কাটতে	-5293
▁ধারণা	-5294
▁পিছনে	-5295
▁বীজের	-5296
▁ব্রেস	-5297
▁রকমের	-5298
▁স্টিক	-5299
তিপূর্ণ	-5300
▁includ	-5301
▁modulo	-5302
▁ছাগলের	-5303
▁পাঠানো	-5304
▁marbles	-5305
▁Possible	-5306
▁কার্পেটের	-5307
▁হ্যামবার্গার	-5308
জু	-5309
দন	-5310
der	-5311
বৈধ	-5312
রীণ	-5313
সম্	-5314
৪৮০	-5315
▁(9	-5316
▁74	-5317
▁৫৮	-5318
000$	-5319
কদের	-5320
কেটে	-5321
▁20)	-5322
▁320	-5323
▁num	-5324
▁গুন	-5325
▁ডিজ	-5326
▁ফার	-5327
▁মিট	-5328
▁শুর	-5329
qquad	-5330
দানের	-5331
▁ধরতে	-5332
▁ধ্রু	-5333
▁পত্র	-5334
▁মুছে	-5335
▁আকর্ষ	-5336
▁বস্তু	-5337
▁বৃত্তে	-5338
\_\_\_\_	-5339
▁দৈবভাবে	-5340
▁পৃষ্ঠের	-5341
▁স্বাধীন	-5342
▁expression	-5343
▁understand	-5344
▁ত্রিভুজাকার	-5345
*(	-5346
0)	-5347
po	-5348
^3$	-5349
_1$	-5350
ird	-5351
ষ্ক	-5352
হান	-5353
▁4(	-5354
▁Rs	-5355
▁bo	-5356
▁ইভ	-5357
erse	-5358
ying	-5359
ওয়ে	-5360
▁216	-5361
▁cyc	-5362
▁অনা	-5363
▁পিন	-5364
াকাছি	-5365
▁time	-5366
▁করের	-5367
▁চেরি	-5368
▁তোলে	-5369
▁দম্প	-5370
▁নেমে	-5371
▁স্পে	-5372
{1}{8}	-5373
▁ratio	-5374
▁years	-5375
▁তারের	-5376
▁মানটি	-5377
▁মোজার	-5378
▁কেনাকা	-5379
▁মার্কের	-5380
▁অঙ্কগুলো	-5381
▁কাছাকাছি	-5382
▁নাশপাতির	-5383
▁পূরণকারী	-5384
▁সম্পর্কিত	-5385
▁স্ট্যান্ড	-5386
eri	-5387
ঁচু	-5388
হির	-5389
▁ফু	-5390
Case	-5391
}{0.	-5392
বলের	-5393
▁5^2	-5394
▁red	-5395
▁উঠে	-5396
▁জড়	-5397
▁পীচ	-5398
▁week	-5399
▁টিভি	-5400
▁উত্তল	-5401
▁ভূমিক	-5402
প্তাহিক	-5403
▁চাচাতো	-5404
▁সরিয়ে	-5405
▁স্কিটল	-5406
▁ইঞ্চিতে	-5407
▁intersec	-5408
▁অবস্থানে	-5409
▁বর্গমিটার	-5410
▁সাপ্তাহিক	-5411
▁ব্যাসার্ধের	-5412
7.	-5413
শত	-5414
৯৮	-5415
60$	-5416
কতে	-5417
দুই	-5418
পাঠ	-5419
▁//	-5420
▁দখ	-5421
Area	-5422
নারি	-5423
৬০০০	-5424
▁195	-5425
▁এনে	-5426
▁কবু	-5427
▁জন্	-5428
▁বেন	-5429
▁মেঝ	-5430
Count	-5431
্যানে	-5432
▁0.40	-5433
▁poly	-5434
▁sold	-5435
▁৩৫টি	-5436
যেখানে	-5437
াকৃতিক	-5438
িকোয়ে	-5439
▁আকৃতি	-5440
▁উপপাদ	-5441
▁কোয়া	-5442
▁গ্রেম	-5443
▁নোটের	-5444
▁বসানো	-5445
▁হালকা	-5446
▁প্রকার	-5447
▁বারোটি	-5448
▁ব্রায়	-5449
▁রবার্ট	-5450
▁constra	-5451
▁বাদামের	-5452
▁বাচ্চাদের	-5453
▁ফেব্রুয়ার	-5454
চি	-5455
্সট	-5456
▁হন	-5457
▁৫৭	-5458
▁৬৮	-5459
পাতে	-5460
রাবর	-5461
▁0.7	-5462
▁13.	-5463
▁take	-5464
▁আঁকা	-5465
▁বইটি	-5466
মাণবিক	-5467
▁ক্যার	-5468
▁তাসের	-5469
▁বরাবর	-5470
ibility	-5471
▁গ্রীষ্	-5472
▁চালানো	-5473
▁ছাড়াই	-5474
▁পরিবহন	-5475
▁স্পষ্ট	-5476
▁হাইড্র	-5477
▁coprime	-5478
▁সময়সূচ	-5479
▁জন্মদিনে	-5480
▁প্রশ্নটি	-5481
▁শিক্ষকের	-5482
▁জন্মগ্রহণ	-5483
▁প্রাকৃতিক	-5484
▁পুনর্বিন্যাস	-5485
\)-	-5486
}{7	-5487
ares	-5488
জ্ঞা	-5489
্নার	-5490
▁15.	-5491
▁tri	-5492
▁৯০০	-5493
ednes	-5494
ither	-5495
}{20}	-5496
▁উঁচু	-5497
▁এদের	-5498
▁চলছে	-5499
▁দেবে	-5500
▁বেলা	-5501
▁মারা	-5502
iginal	-5503
্রান্ত	-5504
▁আয়ের	-5505
▁শুরুর	-5506
▁ধোয়ার	-5507
▁বিক্রে	-5508
▁highest	-5509
▁ক্রিস্ট	-5510
▁অ্যালবাম	-5511
▁পদগুলিকে	-5512
▁পারমাণবিক	-5513
▁পদক্ষেপগুলি	-5514
▁ব্যাকটেরিয়া	-5515
_9	-5516
}.	-5517
+1}	-5518
+2)	-5519
800	-5520
Sum	-5521
ari	-5522
form	-5523
ংকের	-5524
খানা	-5525
সাগু	-5526
ুনার	-5527
ুরের	-5528
▁104	-5529
▁dec	-5530
▁জমি	-5531
▁জিন	-5532
▁ডেভ	-5533
▁দখল	-5534
▁পিক	-5535
▁পুল	-5536
▁১১০	-5537
imize	-5538
▁অনেক	-5539
▁ছানা	-5540
▁প্লা	-5541
ত্যাদি	-5542
▁আসনের	-5543
▁জুতার	-5544
▁রুটির	-5545
▁রোলার	-5546
▁শঙ্কু	-5547
কারীদের	-5548
▁একটিতে	-5549
▁সভাপতি	-5550
▁অধ্যয়ন	-5551
▁ব্যাঙের	-5552
▁জ্যামিতিক	-5553
▁বৃষ্টিপাত	-5554
(2)	-5555
ric	-5556
▁৪১	-5557
িকিৎ	-5558
্ডিং	-5559
৪০০০	-5560
৮০০০	-5561
▁mid	-5562
▁তাঁ	-5563
▁লোড	-5564
itten	-5565
rough	-5566
জার্ট	-5567
▁requ	-5568
▁জানে	-5569
▁জারে	-5570
▁৪৮টি	-5571
▁উল্টে	-5572
▁এসেছে	-5573
▁ক্লাব	-5574
▁খেলতে	-5575
▁জয়ের	-5576
▁height	-5577
▁starts	-5578
▁অনুরূপ	-5579
▁সামনের	-5580
▁হেক্টর	-5581
▁finding	-5582
▁follows	-5583
▁আমন্ত্র	-5584
▁ইত্যাদি	-5585
▁উপপাদ্য	-5586
▁যোগফলকে	-5587
▁ল্যাম্প	-5588
▁শর্তাবল	-5589
▁প্রস্তাব	-5590
▁ব্লুবেরি	-5591
▁কোম্পানির	-5592
▁প্রত্যাশিত	-5593
▁Substituting	-5594
▁শিক্ষার্থীদের	-5595
26	-5596
97	-5597
পো	-5598
োশ	-5599
/2)	-5600
50}	-5601
টোর	-5602
ফলে	-5603
ল্ট	-5604
▁৯৫	-5605
সঙ্গ	-5606
▁mak	-5607
▁পদে	-5608
▁ফাঁ	-5609
▁ভাঙ	-5610
▁সিট	-5611
-2)!}	-5612
▁ABCD	-5613
▁উন্ন	-5614
▁এটাও	-5615
▁দামে	-5616
▁কোর্স	-5617
▁তুলতে	-5618
▁বিকেল	-5619
▁সিন্ড	-5620
▁অভিন্ন	-5621
▁পরিমাপ	-5622
▁ফ্ল্যা	-5623
▁মাঝারি	-5624
▁মেলানো	-5625
▁মেলায়	-5626
▁যতক্ষণ	-5627
▁simplif	-5628
▁through	-5629
▁উপন্যাস	-5630
▁মাকড়সা	-5631
▁মিলিলিটার	-5632
ok	-5633
let	-5634
{60	-5635
জিক	-5636
ফিশ	-5637
৯০০	-5638
crib	-5639
ters	-5640
ড়তে	-5641
ত্তর	-5642
্রিজ	-5643
১৫টি	-5644
▁5\)	-5645
▁Val	-5646
▁zer	-5647
▁কখন	-5648
▁টিপ	-5649
▁ভাজ	-5650
▁হ্র	-5651
total	-5652
য়ারা	-5653
▁Mond	-5654
▁\(20	-5655
▁ফ্রা	-5656
▁লুসি	-5657
▁খাদ্য	-5658
▁জড়িত	-5659
▁পৌঁছে	-5660
▁শিবির	-5661
▁অভিভাব	-5662
▁চালাতে	-5663
▁তিনবার	-5664
▁বেতনের	-5665
▁যুক্তি	-5666
▁স্তম্ভ	-5667
▁ডাক্তার	-5668
▁মিলিয়ন	-5669
Determine	-5670
▁translate	-5671
yz	-5672
)!}	-5673
25}	-5674
neq	-5675
টাই	-5676
ভূত	-5677
▁93	-5678
_{3}	-5679
ধমান	-5680
▁কান	-5681
▁বলি	-5682
▁১৪৪	-5683
}{2}\	-5684
মালের	-5685
রুমের	-5686
াপনের	-5687
▁কলার	-5688
▁ডেভি	-5689
▁মিনি	-5690
▁10000	-5691
▁Divis	-5692
▁order	-5693
▁গানের	-5694
▁১২০টি	-5695
▁series	-5696
▁ভ্রমণে	-5697
▁রাশিটি	-5698
▁স্তূপে	-5699
▁paralle	-5700
▁অনুপাতে	-5701
▁বন্ধুরা	-5702
▁খাওয়ানোর	-5703
▁বিদ্যালয়ে	-5704
হিন	-5705
েরা	-5706
▁br	-5707
▁ইট	-5708
▁টো	-5709
▁270	-5710
▁কপি	-5711
▁দশম	-5712
▁স্ল	-5713
quare	-5714
ট্রিক	-5715
পাতিক	-5716
▁টাইলস	-5717
▁তোলার	-5718
▁নিজেই	-5719
▁লিঙ্গ	-5720
▁সুপার	-5721
লিয়েছে	-5722
▁চার্লি	-5723
▁জোয়ান	-5724
▁টিউলিপ	-5725
▁পড়াশো	-5726
▁পিছনের	-5727
▁সেগুলি	-5728
▁ইয়ার্ড	-5729
▁বর্গমূল	-5730
▁বেড়েছে	-5731
▁রেখেছিল	-5732
▁সমষ্টির	-5733
▁অনুপাতের	-5734
▁মিশ্রণের	-5735
▁অভ্যন্তরীণ	-5736
pt	-5737
ঘন	-5738
ets	-5739
max	-5740
চেল	-5741
মিং	-5742
▁2}	-5743
▁৯৯	-5744
▁$0$	-5745
▁(12	-5746
▁403	-5747
▁কাঁ	-5748
▁খান	-5749
▁গাপ	-5750
▁চাষ	-5751
▁বুন	-5752
▁১০৫	-5753
▁\(12	-5754
▁ইউরো	-5755
▁কাটে	-5756
▁ফাইল	-5757
▁অনুমো	-5758
▁গতকাল	-5759
▁জেকের	-5760
▁ড্যান	-5761
▁ভালুক	-5762
▁লাইনে	-5763
▁সরঞ্জ	-5764
▁সহপাঠ	-5765
▁divide	-5766
▁মানগুলো	-5767
▁প্রিজমের	-5768
▁কমলালেবুর	-5769
▁বিক্রয়ের	-5770
▁কনফিগারেশন	-5771
▁ক্যালকুলেটর	-5772
em	-5773
gr	-5774
০১	-5775
625	-5776
ABC	-5777
তীত	-5778
দিত	-5779
▁৮৩	-5780
পাতা	-5781
বৃহৎ	-5782
ানুস	-5783
▁(4,	-5784
▁18,	-5785
▁\)-	-5786
▁age	-5787
▁আধা	-5788
▁হিল	-5789
▁repe	-5790
▁গেলে	-5791
▁চারা	-5792
▁ফেলা	-5793
▁বানা	-5794
▁সন্ধ	-5795
▁অধ্যা	-5796
▁ক্রয়	-5797
▁পাঠ্য	-5798
▁বাসের	-5799
▁বোর্ড	-5800
▁সংস্থ	-5801
▁সন্তু	-5802
▁হাজার	-5803
ানুসারে	-5804
্যান্ডে	-5805
▁খেলনার	-5806
▁মৌসুমে	-5807
▁যন্ত্র	-5808
00000000	-5809
▁বিল্ডিং	-5810
িয়েছিলেন	-5811
▁বিকল্পের	-5812
▁reasoning	-5813
▁কুকুরছানা	-5814
▁অন্তর্ভুক্তি	-5815
-2	-5816
চা	-5817
পদ	-5818
মত	-5819
▁ঠ	-5820
fic	-5821
শমা	-5822
▁৬৭	-5823
▁৭৮	-5824
2857	-5825
omet	-5826
১৫০০	-5827
▁(2)	-5828
▁145	-5829
▁15)	-5830
▁4\)	-5831
▁cel	-5832
▁নিল	-5833
▁নেট	-5834
▁হাস	-5835
তুল্য	-5836
▁ঘড়ি	-5837
▁হটডগ	-5838
স্তায়	-5839
▁টেনিস	-5840
▁পড়েন	-5841
▁মার্থ	-5842
▁এগিয়ে	-5843
পঞ্চমাংশ	-5844
▁seconds	-5845
▁উপহারের	-5846
▁পিরামিড	-5847
▁অনুষ্ঠানে	-5848
▁তুলেছিলেন	-5849
▁calculated	-5850
!)	-5851
=1	-5852
=2	-5853
৭৮	-5854
999	-5855
ord	-5856
ube	-5857
{18	-5858
রাফ	-5859
েলে	-5860
৪৫০	-5861
▁-3	-5862
▁Ex	-5863
িত্র	-5864
▁7.5	-5865
▁rel	-5866
▁টির	-5867
▁ত্র	-5868
eomet	-5869
কেকের	-5870
চিত্র	-5871
্রেরি	-5872
▁$25$	-5873
▁চীনা	-5874
▁ডেসি	-5875
▁দরজা	-5876
▁২২টি	-5877
▁২৮টি	-5878
angles	-5879
▁কক্ষে	-5880
▁Wednes	-5881
▁______	-5882
▁আঙ্গুর	-5883
▁কীভাবে	-5884
▁গাজরের	-5885
▁পার্টি	-5886
▁ব্যতীত	-5887
▁squares	-5888
▁পঞ্চভুজ	-5889
▁সম্মিলিত	-5890
▁লাইব্রেরি	-5891
▁জীববিজ্ঞান	-5892
▁সঙ্গতিপূর্ণ	-5893
4.	-5894
=3	-5895
AC	-5896
rm	-5897
\}$	-5898
iqu	-5899
ual	-5900
কেস	-5901
নীল	-5902
লিং	-5903
৭০০	-5904
▁AC	-5905
▁খন	-5906
▁৬২	-5907
imes	-5908
ines	-5909
mong	-5910
rees	-5911
▁$17	-5912
▁2^{	-5913
▁\[1	-5914
▁amu	-5915
▁একর	-5916
▁বাঘ	-5917
▁ভাষ	-5918
dfrac	-5919
▁$16$	-5920
▁tile	-5921
▁নাতি	-5922
!}{2!(	-5923
atural	-5924
▁জিলের	-5925
▁ভোটের	-5926
▁সোডার	-5927
▁অতিথির	-5928
▁একজনকে	-5929
▁মাইলের	-5930
▁প্লেটের	-5931
▁ত্রিভুজে	-5932
▁সন্তুষ্ট	-5933
▁প্রতিদিনের	-5934
op	-5935
2.5	-5936
}{5	-5937
গান	-5938
রাই	-5939
রিক	-5940
োনি	-5941
্টো	-5942
▁ft	-5943
▁ইন	-5944
▁মশ	-5945
▁৭৯	-5946
urre	-5947
াকির	-5948
৬০টি	-5949
▁আনা	-5950
▁চেস	-5951
▁পথে	-5952
▁যমজ	-5953
▁সাল	-5954
▁হোক	-5955
Final	-5956
সুস্থ	-5957
▁When	-5958
▁case	-5959
▁does	-5960
▁তাঁর	-5961
▁মাহি	-5962
mathrm	-5963
▁tiles	-5964
▁কমাতে	-5965
▁কাপের	-5966
▁শামুক	-5967
▁আকর্ষণ	-5968
▁পাচ্ছি	-5969
▁ফেলেছে	-5970
▁স্যালি	-5971
▁নিজেদের	-5972
▁সরলরেখা	-5973
▁wrappers	-5974
▁কোয়ার্ট	-5975
▁বিভাজ্যতা	-5976
▁ব্র্যান্ড	-5977
▁বাহুবিশিষ্ট	-5978
/4	-5979
dj	-5980
নী	-5981
পু	-5982
oun	-5983
pro	-5984
tem	-5985
বিশ	-5986
সমা	-5987
▁-4	-5988
▁3-	-5989
▁৮১	-5990
টারে	-5991
স্যা	-5992
▁রুপ	-5993
স্থান	-5994
▁0.05	-5995
▁0.30	-5996
▁Next	-5997
▁line	-5998
▁pass	-5999
▁জেনে	-6000
▁১৯টি	-6001
▁৩২টি	-6002
{1}{5}	-6003
▁অ্যাক	-6004
▁এগুলি	-6005
▁চালান	-6006
▁ডার্ট	-6007
▁পায়ে	-6008
ব্যবহার	-6009
▁জন্মের	-6010
▁ধরেছিল	-6011
▁পুকুরে	-6012
▁বার্তা	-6013
▁natural	-6014
▁ক্রিকেট	-6015
▁ডেজার্ট	-6016
▁বেরিয়ে	-6017
▁সরলীকৃত	-6018
▁fraction	-6019
▁অ্যামিবা	-6020
▁উৎপাদকের	-6021
▁প্রার্থী	-6022
▁সোমবারের	-6023
▁distribute	-6024
▁অ্যান্ড্রু	-6025
.7	-6026
68	-6027
গন	-6028
৪৯	-6029
৫২	-6030
40}	-6031
uly	-6032
{7}	-6033
ভিত	-6034
▁দই	-6035
▁৫৩	-6036
োলের	-6037
৩০টি	-6038
▁18$	-6039
▁202	-6040
▁3$,	-6041
▁bir	-6042
▁আটা	-6043
▁ডিস	-6044
▁সংর	-6045
{1}{1	-6046
ড়ায়	-6047
▁0.60	-6048
▁জুলি	-6049
▁দুটো	-6050
ateral	-6051
{4}{2}	-6052
ভিত্তি	-6053
▁আদমের	-6054
▁করছিল	-6055
▁গাছটি	-6056
▁ন্যাপ	-6057
স্টারের	-6058
▁within	-6059
▁অঙ্কিত	-6060
ilateral	-6061
সেকেন্ডে	-6062
▁কার্যকর	-6063
▁ধাপগুলি	-6064
▁সমতুল্য	-6065
▁স্ট্রিং	-6066
onclusion	-6067
▁কার্যকলা	-6068
▁multiples	-6069
▁সমানুপাতিক	-6070
▁Calculation	-6071
.3	-6072
bs	-6073
ex	-6074
লী	-6075
!\)	-6076
কোন	-6077
▁SI	-6078
▁নক	-6079
!}{4	-6080
সীমা	-6081
▁$1,	-6082
▁0.9	-6083
▁2$,	-6084
▁20%	-6085
▁256	-6086
▁420	-6087
▁\[(	-6088
▁our	-6089
▁কোড	-6090
▁তুষ	-6091
▁ভরে	-6092
▁শার	-6093
quadr	-6094
র্ডের	-6095
হুয়া	-6096
ায়ার	-6097
▁1.25	-6098
▁3000	-6099
▁8000	-6100
▁blue	-6101
▁open	-6102
▁আটজন	-6103
▁গতির	-6104
▁বালি	-6105
▁মৌমা	-6106
▁৳১০০	-6107
Number	-6108
ুমানিক	-6109
▁quadr	-6110
▁জাকির	-6111
▁টিনের	-6112
▁বিলের	-6113
▁ভাইকে	-6114
▁মেসেজ	-6115
▁সংস্ক	-6116
▁সেতুর	-6117
▁appear	-6118
▁apples	-6119
▁অর্থের	-6120
▁দম্পতি	-6121
▁written	-6122
▁ট্রাকের	-6123
▁ব্রাউনি	-6124
▁সাশ্রয়	-6125
▁distance	-6126
▁প্রস্থের	-6127
▁শ্রেণিতে	-6128
▁প্রতিনিধি	-6129
▁ফ্রিকোয়ে	-6130
▁Simplifying	-6131
৬৭	-6132
inc	-6133
{36	-6134
▁আঙ	-6135
▁পল	-6136
▁শর	-6137
_{2}	-6138
arge	-6139
ased	-6140
ique	-6141
ways	-6142
সম্প	-6143
▁1$,	-6144
▁280	-6145
▁lcm	-6146
▁খুব	-6147
▁ঘুর	-6148
▁আসনে	-6149
▁বেরি	-6150
▁যেসব	-6151
▁সার্	-6152
▁৩০০০	-6153
square	-6154
সিয়াম	-6155
▁Multi	-6156
▁\):**	-6157
▁কেসের	-6158
▁গড়ের	-6159
▁গেমের	-6160
▁চিকিৎ	-6161
▁চিনির	-6162
▁শক্তি	-6163
▁সংবাদ	-6164
▁অসুস্থ	-6165
▁ইতিহাস	-6166
▁টেক্সট	-6167
▁বয়স্ক	-6168
▁বাইরের	-6169
▁মূল্যে	-6170
▁ডেলিভার	-6171
▁পেয়েছি	-6172
▁ফিরিয়ে	-6173
▁প্যান্টের	-6174
▁সেন্টিমিটারে	-6175
▁স্ট্যান্ডার্ড	-6176
▁চিড়িয়াখানায়	-6177
_3,	-6178
ard	-6179
gon	-6180
গ্ন	-6181
দ্র	-6182
ুটে	-6183
▁(-	-6184
▁2!	-6185
▁69	-6186
▁ওই	-6187
▁থা	-6188
▁শূ	-6189
ঙ্গে	-6190
▁155	-6191
▁Add	-6192
▁res	-6193
▁ভলি	-6194
▁$60$	-6195
▁0.75	-6196
▁1001	-6197
▁cont	-6198
▁দ্রব	-6199
▁ভাতা	-6200
result	-6201
{5}{3}	-6202
সম্ভাব	-6203
▁180^\	-6204
▁ধারের	-6205
▁ভেড়া	-6206
▁সামনে	-6207
▁সামান	-6208
▁সূর্য	-6209
▁either	-6210
▁primes	-6211
▁আলেক্স	-6212
▁দেখায়	-6213
▁পনিরের	-6214
▁ক্যাম্প	-6215
▁চিত্রের	-6216
▁মিশ্রিত	-6217
▁অনুমোদিত	-6218
▁জানুয়ার	-6219
▁শর্তাবলী	-6220
▁অনুষ্ঠানের	-6221
▁প্রত্যেকেই	-6222
সো	-6223
৬৩	-6224
)\]	-6225
\\)	-6226
_2$	-6227
মাঝ	-6228
োরে	-6229
▁৪৭	-6230
omes	-6231
pend	-6232
step	-6233
ন্ডো	-6234
মানা	-6235
ীর্ণ	-6236
▁(\(	-6237
▁117	-6238
▁198	-6239
▁এমি	-6240
▁রুম	-6241
▁লেন	-6242
কারীর	-6243
ান্ডা	-6244
▁back	-6245
▁আসতে	-6246
▁ফাংশ	-6247
▁মারু	-6248
▁মুখে	-6249
▁রিবন	-6250
▁সেতু	-6251
▁broth	-6252
▁উদ্ভি	-6253
▁গামবল	-6254
▁মোবাই	-6255
▁লেবুর	-6256
বর্ধমান	-6257
▁angles	-6258
▁proper	-6259
▁পরিচাল	-6260
▁পরিচিত	-6261
▁ভূমিকা	-6262
▁সবসময়	-6263
▁ইউনিটের	-6264
▁ইনিংসের	-6265
▁দৌড়েছে	-6266
▁প্রবন্ধ	-6267
▁বার্গার	-6268
▁বিজ্ঞাপন	-6269
▁গিয়েছিলেন	-6270
▁বিনিয়োগের	-6271
▁মঙ্গলবারের	-6272
.9	-6273
৫৮	-6274
(1)	-6275
:",	-6276
{50	-6277
{6}	-6278
ছোট	-6279
াদশ	-6280
▁\_	-6281
▁ওট	-6282
▁গি	-6283
iers	-6284
orem	-6285
tive	-6286
সিডে	-6287
▁1/2	-6288
▁20,	-6289
▁ডাল	-6290
▁বয়	-6291
▁হরি	-6292
-3)!}	-6293
▁(100	-6294
▁ক্রস	-6295
▁চশমা	-6296
▁ভারী	-6297
▁যিনি	-6298
▁৬০০০	-6299
গুলোতে	-6300
▁pages	-6301
▁score	-6302
▁অঞ্চল	-6303
▁জুলাই	-6304
▁বারের	-6305
▁মুখোশ	-6306
▁স্যুপ	-6307
▁radius	-6308
▁টমেটোর	-6309
▁ডিভিডি	-6310
▁প্ল্যা	-6311
▁রেখাংশ	-6312
▁সংশোধন	-6313
▁তরমুজের	-6314
▁বিশ্রাম	-6315
▁মেয়েকে	-6316
▁involves	-6317
▁আনুমানিক	-6318
▁following	-6319
▁ট্যাঙ্কের	-6320
খি	-6321
৩৯	-6322
▁]	-6323
.67	-6324
6$।	-6325
^2)	-6326
ars	-6327
cos	-6328
ins	-6329
সিড	-6330
▁fe	-6331
▁নর	-6332
roup	-6333
প্যা	-6334
ারাপ	-6335
িন্ড	-6336
▁$2^	-6337
▁700	-6338
▁\(0	-6339
▁আদম	-6340
▁আনে	-6341
▁কিউ	-6342
▁টুথ	-6343
▁পাস	-6344
কর্তা	-6345
পাশের	-6346
▁$(1,	-6347
▁তলের	-6348
▁দক্ষ	-6349
▁বৃহৎ	-6350
▁মেঝে	-6351
▁হাড়	-6352
output	-6353
▁match	-6354
▁price	-6355
▁third	-6356
▁অষ্টম	-6357
▁গঠনের	-6358
▁চুলের	-6359
বৃত্তের	-6360
▁Sunday	-6361
▁এপ্রিল	-6362
▁গোলাপী	-6363
▁পর্যটক	-6364
,000,000	-6365
▁গোষ্ঠীর	-6366
▁ডাউনলোড	-6367
▁position	-6368
▁শর্তগুলি	-6369
▁সর্ববৃহৎ	-6370
▁প্রান্তের	-6371
▁ভগ্নাংশটি	-6372
▁চক্রবৃদ্ধি	-6373
▁সমীকরণটিকে	-6374
০৫	-6375
.50	-6376
_2)	-6377
▁$=	-6378
▁94	-6379
▁mo	-6380
▁তি	-6381
মনের	-6382
াক্ত	-6383
৩০০০	-6384
▁নথি	-6385
▁বর্	-6386
▁বেশ	-6387
▁$11$	-6388
▁2024	-6389
▁stic	-6390
▁কম্ব	-6391
▁২৩টি	-6392
ড়ানোর	-6393
সভাপতি	-6394
▁গণিতে	-6395
▁ভিতরে	-6396
▁গাপ্পি	-6397
▁দুজনের	-6398
▁মিশ্রণ	-6399
▁initial	-6400
▁পাইয়ের	-6401
▁বীজগণিত	-6402
▁ব্যাংকে	-6403
▁পদ্ধতিতে	-6404
▁পৃষ্ঠায়	-6405
▁পৌঁছানোর	-6406
▁স্টিকারের	-6407
▁calculation	-6408
▁constraints	-6409
▁ক্রমবর্ধমান	-6410
▁টুর্নামেন্টে	-6411
(4	-6412
Th	-6413
ym	-6414
1$।	-6415
min	-6416
raw	-6417
নেট	-6418
মিল	-6419
িনে	-6420
▁71	-6421
▁৫১	-6422
▁৯২	-6423
alyz	-6424
ener	-6425
কিছু	-6426
রুমে	-6427
্রুর	-6428
▁201	-6429
▁204	-6430
▁252	-6431
▁30,	-6432
▁36$	-6433
▁gcd	-6434
▁occ	-6435
▁যেন	-6436
▁সফল	-6437
▁৪৮০	-6438
atest	-6439
count	-6440
ক্ষেপ	-6441
চ্ছাদ	-6442
ন্দ্র	-6443
সারিত	-6444
▁0.15	-6445
▁চিপস	-6446
▁ফ্লো	-6447
▁বিরো	-6448
▁সবজি	-6449
▁৪০০০	-6450
্যায়ন	-6451
▁অংশটি	-6452
▁খারাপ	-6453
▁রাজ্য	-6454
▁সুযোগ	-6455
িয়েছেন	-6456
▁গণনাটি	-6457
▁টেলিভি	-6458
▁পরমাণু	-6459
▁প্রমাণ	-6460
▁লেগেছে	-6461
▁সামগ্র	-6462
▁Solving	-6463
▁process	-6464
▁কাপড়ের	-6465
▁সংবাদপত্র	-6466
▁পার্থক্যের	-6467
▁বিদ্যালয়ের	-6468
?"	-6469
ডু	-6470
ৈখ	-6471
10$	-6472
10)	-6473
বাক	-6474
▁0:	-6475
▁gu	-6476
▁চৌ	-6477
▁ডু	-6478
ABCD	-6479
কেজি	-6480
ার্স	-6481
ৈখিক	-6482
▁540	-6483
▁adj	-6484
▁কিছ	-6485
▁লুই	-6486
ভিনের	-6487
▁perm	-6488
▁shir	-6489
▁some	-6490
▁sums	-6491
▁গল্প	-6492
▁ডানা	-6493
▁দ্বী	-6494
▁প্রচ	-6495
▁মাঠে	-6496
▁সিডি	-6497
▁১৮০০	-6498
▁অপারে	-6499
▁আগ্রহ	-6500
▁একটির	-6501
▁ম্যাক	-6502
▁কার্লো	-6503
▁কোনটিই	-6504
▁দশমিকে	-6505
▁choices	-6506
▁regions	-6507
▁ওয়ার্ক	-6508
▁জেসিকার	-6509
▁দোকানের	-6510
▁পড়েছেন	-6511
▁হাজারের	-6512
শুধুমাত্র	-6513
▁অভিজ্ঞতা	-6514
▁গ্রেমলিন	-6515
▁দৃশ্যমান	-6516
▁perimeter	-6517
▁rectangle	-6518
▁মঙ্গলবারে	-6519
ah	-6520
wh	-6521
গল	-6522
(1,	-6523
(5,	-6524
4$।	-6525
alf	-6526
{25	-6527
গোল	-6528
ভাই	-6529
সর্	-6530
সীম	-6531
ূসর	-6532
▁কব	-6533
^2\)	-6534
_{4}	-6535
ties	-6536
্ডের	-6537
▁13$	-6538
▁192	-6539
▁অধি	-6540
▁খনন	-6541
▁নভে	-6542
▁নার	-6543
▁পদক	-6544
▁সুই	-6545
ugust	-6546
}{60}	-6547
কেটের	-6548
মানের	-6549
যোগফল	-6550
রুদ্ধ	-6551
▁$24$	-6552
▁Cons	-6553
▁\(15	-6554
▁hand	-6555
▁মাখন	-6556
▁সিরি	-6557
▁সেটি	-6558
▁$100$	-6559
▁Hence	-6560
▁above	-6561
▁গ্রেড	-6562
▁চাকার	-6563
▁পপকর্	-6564
▁বাটার	-6565
▁বাস্ত	-6566
▁মাথার	-6567
▁Common	-6568
▁ইনিংসে	-6569
▁কার্টন	-6570
▁খাবারে	-6571
▁তথ্যের	-6572
▁যেকোনও	-6573
▁require	-6574
▁উদ্যানে	-6575
▁উপযুক্ত	-6576
▁চকলেটের	-6577
▁ট্রেনটি	-6578
▁প্রতিসম	-6579
▁বিবাহিত	-6580
▁soldiers	-6581
▁প্রতিযোগিতা	-6582
▁ফ্রিকোয়েন্সি	-6583
+6	-6584
DE	-6585
vi	-6586
৩৭	-6587
(3,	-6588
মাই	-6589
সকল	-6590
াইন	-6591
▁Pr	-6592
▁eq	-6593
▁go	-6594
▁কঠ	-6595
পার্	-6596
স্যু	-6597
ারেল	-6598
▁432	-6599
▁840	-6600
▁9\)	-6601
▁ele	-6602
▁আবে	-6603
▁আলী	-6604
▁ইরে	-6605
▁মটর	-6606
কালীন	-6607
য়ালে	-6608
োকারে	-6609
▁গালি	-6610
▁বাইক	-6611
▁রসিক	-6612
▁২১টি	-6613
▁৯০টি	-6614
!}{3!(	-6615
▁Check	-6616
▁right	-6617
▁state	-6618
▁চালের	-6619
▁সমগ্র	-6620
শার্টের	-6621
িয়েছিল	-6622
▁জর্ডান	-6623
▁ব্যর্থ	-6624
▁সিস্টে	-6625
▁describ	-6626
▁জুলিয়া	-6627
▁পিটারের	-6628
▁আমন্ত্রণ	-6629
▁কর্মকর্তা	-6630
▁ক্র্যাকার	-6631
▁দৃশ্যকল্প	-6632
▁প্রশিক্ষণ	-6633
▁পরীক্ষার্থ	-6634
-3	-6635
৯২	-6636
25$	-6637
ভিন	-6638
লকে	-6639
১০৮	-6640
▁DE	-6641
▁জগ	-6642
▁টব	-6643
খ্যা	-6644
ত্রি	-6645
ীভূত	-6646
ৃত্য	-6647
▁156	-6648
▁\[6	-6649
▁আশা	-6650
▁১৯৮	-6651
ভারের	-6652
▁$14$	-6653
▁100$	-6654
▁1024	-6655
▁জাদু	-6656
▁বক্স	-6657
▁লিখা	-6658
{8}{3}	-6659
ক্রিয়	-6660
ঞ্জস্য	-6661
▁After	-6662
▁উপকরণ	-6663
▁কবুতর	-6664
▁কার্ব	-6665
▁গায়ক	-6666
▁ছুটির	-6667
▁বজায়	-6668
▁বোনাস	-6669
▁লাভের	-6670
▁লোককে	-6671
পয়েন্ট	-6672
▁করিমের	-6673
▁গ্যারে	-6674
▁দায়িত	-6675
▁দেখেছে	-6676
▁জোড়ায়	-6677
▁দেওয়াল	-6678
▁সেন্টের	-6679
▁হাসপাতা	-6680
▁টেলিভিশন	-6681
▁ব্রেসলেট	-6682
▁কর্মচারীর	-6683
▁পুনর্ব্যবহার	-6684
টপ	-6685
৬৮	-6686
(4,	-6687
কুক	-6688
মনে	-6689
▁4!	-6690
▁৳০	-6691
^{1}	-6692
ঁড়ে	-6693
বর্ষ	-6694
স্তি	-6695
িনাট	-6696
ীড়া	-6697
▁pre	-6698
▁আবি	-6699
▁আর্	-6700
▁করল	-6701
▁জুস	-6702
▁ডেই	-6703
▁পুশ	-6704
▁বাথ	-6705
▁রেফ	-6706
▁রোজ	-6707
▁সংগ	-6708
▁৩২০	-6709
▁৳১২	-6710
▁৳৩০	-6711
তিনটি	-6712
ম্যান	-6713
ানিতে	-6714
▁2500	-6715
▁July	-6716
▁আনতে	-6717
▁কলাম	-6718
▁গুলি	-6719
▁ড্রা	-6720
▁রাশে	-6721
ামূল্য	-6722
▁ক্রেট	-6723
▁ঘড়ির	-6724
▁ঘাতের	-6725
▁চোখের	-6726
▁তাকের	-6727
▁পারবো	-6728
▁বাক্য	-6729
▁মেরাম	-6730
▁শিকার	-6731
▁স্টপে	-6732
▁জার্সি	-6733
▁দিচ্ছি	-6734
▁নমুনার	-6735
▁বয়সকে	-6736
▁বোর্ডে	-6737
▁ব্র্যা	-6738
▁ভাজকের	-6739
দ্বিবাহু	-6740
বিশ্লেষণ	-6741
▁অ্যান্ট	-6742
▁এলাকায়	-6743
▁ক্রীড়া	-6744
▁চারজনের	-6745
▁দশমিকের	-6746
▁পেয়ারা	-6747
▁সংশোধিত	-6748
▁function	-6749
▁গ্রাহকের	-6750
▁ন্যান্সি	-6751
▁পড়াশোনা	-6752
▁শেয়ারের	-6753
▁বিদ্যালয়	-6754
▁সামঞ্জস্য	-6755
▁প্রতিবেশীর	-6756
াফ	-6757
7.5	-6758
hip	-6759
ume	-6760
}$।	-6761
}^2	-6762
গতি	-6763
বিষ	-6764
াংশ	-6765
ীনে	-6766
্কি	-6767
▁এড	-6768
▁ঝা	-6769
iend	-6770
read	-6771
ন্সে	-6772
▁$45	-6773
▁(15	-6774
▁(3/	-6775
▁115	-6776
▁29,	-6777
▁ঘটে	-6778
▁নিন	-6779
▁হতো	-6780
▁হেঁ	-6781
efine	-6782
ities	-6783
স্তুর	-6784
▁$40$	-6785
▁Frid	-6786
▁\[10	-6787
▁জর্জ	-6788
▁ডেটা	-6789
▁পালন	-6790
▁পাহা	-6791
▁ফার্	-6792
▁ফ্রি	-6793
রিয়ান	-6794
▁among	-6795
▁lines	-6796
▁স্বাম	-6797
ামূল্যে	-6798
▁Factor	-6799
▁unique	-6800
▁আচ্ছাদ	-6801
▁একবারে	-6802
▁গোষ্ঠী	-6803
▁টাইলার	-6804
▁বানাতে	-6805
▁হারানো	-6806
▁কার্পেট	-6807
▁পরিবারে	-6808
▁পাঁচগুণ	-6809
▁ব্যাটসম	-6810
▁সরঞ্জাম	-6811
▁স্ট্রাই	-6812
▁উপাদানের	-6813
▁জন্মদিনের	-6814
▁বিজ্ঞানের	-6815
▁differences	-6816
▁উদাহরণস্বরূপ	-6817
▁প্রত্যেকটিতে	-6818
:1	-6819
আর	-6820
টন	-6821
15)	-6822
মতি	-6823
▁ক্	-6824
▁৳৮	-6825
বর্ণ	-6826
১৮০০	-6827
▁$19	-6828
▁31,	-6829
▁she	-6830
▁ইভে	-6831
▁ঘোর	-6832
▁দেব	-6833
▁নবম	-6834
▁হেড	-6835
ingle	-6836
গারের	-6837
▁$13$	-6838
▁$18$	-6839
▁$36$	-6840
▁0.50	-6841
▁cent	-6842
▁আরেক	-6843
▁পেরে	-6844
▁(1000	-6845
▁boxes	-6846
▁twice	-6847
▁গ্রাফ	-6848
▁জেনের	-6849
▁ড্রাম	-6850
▁পপসিক	-6851
▁পিনাট	-6852
▁পেট্র	-6853
পার্শ্ব	-6854
▁geomet	-6855
▁larger	-6856
▁sticks	-6857
▁মাশরুম	-6858
▁মূর্তি	-6859
▁smaller	-6860
▁জ্যাকেট	-6861
▁পেইন্টি	-6862
▁সমন্বিত	-6863
▁Thursday	-6864
▁ক্ষতিগ্র	-6865
▁প্রস্তুত	-6866
▁ব্যায়াম	-6867
▁ব্রোকারে	-6868
▁সম্ভাবনার	-6869
▁পুনর্বিন্যস্ত	-6870
)!	-6871
2$।	-6872
400	-6873
{0}	-6874
ৃতি	-6875
১৪৪	-6876
cent	-6877
গায়	-6878
জানা	-6879
ধিতে	-6880
প্টে	-6881
▁$36	-6882
▁21,	-6883
▁6\)	-6884
▁log	-6885
▁জোর	-6886
▁সিও	-6887
▁হুই	-6888
ার্টে	-6889
▁1600	-6890
▁5000	-6891
▁ধূসর	-6892
▁পোকা	-6893
▁মাটি	-6894
▁মিনা	-6895
anuary	-6896
tively	-6897
ডিয়াম	-6898
স্তোরা	-6899
▁cycle	-6900
▁ফেরার	-6901
▁বয়সে	-6902
▁রানের	-6903
▁সোয়ে	-6904
▁receiv	-6905
▁আয়োজন	-6906
▁গ্রামে	-6907
▁জিজ্ঞা	-6908
▁পপকর্ন	-6909
▁ম্যানে	-6910
▁লাগানো	-6911
▁সময়কে	-6912
অতিরিক্ত	-6913
▁compute	-6914
▁ধারাটির	-6915
▁সংরক্ষণ	-6916
▁specific	-6917
▁represent	-6918
▁অ্যাকাউন্ট	-6919
▁বিনামূল্যে	-6920
▁সমদ্বিবাহু	-6921
৫৭	-6922
ওনা	-6923
সোম	-6924
▁5(	-6925
▁জী	-6926
দত্ত	-6927
▁10^	-6928
▁25,	-6929
▁পাউ	-6930
▁ভিক	-6931
vious	-6932
টারের	-6933
বিষ্য	-6934
িয়েল	-6935
▁type	-6936
▁কৃষক	-6937
▁পিতা	-6938
▁বাজে	-6939
▁মুনা	-6940
▁শেখা	-6941
▁৪র্থ	-6942
কোয়ার	-6943
▁অধীনে	-6944
▁কামাল	-6945
▁গিটার	-6946
▁গুণের	-6947
▁রাশির	-6948
▁রৈখিক	-6949
স্তোরাঁ	-6950
▁implies	-6951
▁গাড়িটি	-6952
▁ট্যাক্স	-6953
▁ট্র্যাক	-6954
▁ফ্রাঙ্ক	-6955
▁অন্যদিকে	-6956
▁খাওয়ানো	-6957
▁জিজ্ঞাসা	-6958
▁নথিভুক্ত	-6959
▁positions	-6960
▁পঞ্চভুজের	-6961
▁রেস্তোরাঁ	-6962
▁প্রতিস্থাপ	-6963
▁intersection	-6964
+5	-6965
SP	-6966
br	-6967
সল	-6968
িও	-6969
িদ	-6970
৩১	-6971
.75	-6972
\))	-6973
ram	-6974
জাত	-6975
টিও	-6976
▁Na	-6977
▁দো	-6978
▁৮২	-6979
▁৮৭	-6980
▁৳৬	-6981
year	-6982
উভয়	-6983
নিকে	-6984
মিতে	-6985
াকতে	-6986
ারেন	-6987
২৪টি	-6988
▁60$	-6989
▁ind	-6990
▁ইসা	-6991
▁বহি	-6992
▁শলগ	-6993
enari	-6994
olume	-6995
▁$50$	-6996
▁2018	-6997
▁জামি	-6998
▁দত্ত	-6999
▁ববের	-7000
▁সামি	-7001
বিজোড়	-7002
শিয়ান	-7003
▁birth	-7004
▁একদিন	-7005
▁তুষার	-7006
▁ফ্রাই	-7007
▁মটরশু	-7008
▁সাতজন	-7009
▁সেলাই	-7010
▁ম্যাগা	-7011
▁যেগুলি	-7012
▁শিক্ষা	-7013
▁Problem	-7014
▁জংকুকের	-7015
▁বক্তব্য	-7016
ubstitute	-7017
▁starting	-7018
▁ইতিহাসের	-7019
▁জায়গায়	-7020
▁বিক্রেতা	-7021
▁স্তম্ভের	-7022
▁ব্যবসায়ী	-7023
▁ব্যবস্থার	-7024
▁মূল্যায়ন	-7025
▁কোম্পানিতে	-7026
▁বিকল্পগুলি	-7027
▁সম্ভাব্যতা	-7028
▁পোকামাকড়ের	-7029
)*	-7030
71	-7031
79	-7032
ষী	-7033
৪৩	-7034
als	-7035
mid	-7036
টুক	-7037
বাল	-7038
নির্	-7039
ুড়ি	-7040
▁11$	-7041
▁24,	-7042
▁=<<	-7043
▁\))	-7044
▁new	-7045
▁sym	-7046
▁কোট	-7047
▁লটে	-7048
▁১৩৫	-7049
divis	-7050
{1000	-7051
তাদের	-7052
বাক্স	-7053
▁Then	-7054
▁draw	-7055
▁বাসা	-7056
▁মরিচ	-7057
▁রাখি	-7058
▁লিজা	-7059
▁শটের	-7060
▁৭৫টি	-7061
{2}{5}	-7062
িংয়ের	-7063
▁Count	-7064
▁_____	-7065
▁whose	-7066
▁ক্রিস	-7067
▁গুটির	-7068
▁চাকরি	-7069
▁বেড়ে	-7070
▁শর্তে	-7071
colates	-7072
{1}{12}	-7073
প্রদত্ত	-7074
▁friend	-7075
▁দণ্ডের	-7076
▁ধারায়	-7077
▁নিজস্ব	-7078
▁পর্বের	-7079
▁বসানোর	-7080
▁মার্টি	-7081
▁কুকুরটি	-7082
▁টুকরোতে	-7083
▁দৌড়বিদ	-7084
▁simplify	-7085
▁আচ্ছাদিত	-7086
▁ওজনযুক্ত	-7087
▁গোষ্ঠীতে	-7088
▁জোয়ানের	-7089
▁ড্রয়ারে	-7090
▁তিনগুণের	-7091
▁পঞ্চমাংশ	-7092
▁পার্টিতে	-7093
▁triangles	-7094
▁ডেসিমিটার	-7095
▁পৃষ্ঠতলের	-7096
▁প্রত্যেককে	-7097
▁ক্যালসিয়াম	-7098
▁ক্রমানুসারে	-7099
▁অতিরিক্তভাবে	-7100
+0	-7101
AD	-7102
333	-7103
oti	-7104
{9}	-7105
সাম	-7106
▁+=	-7107
▁5!	-7108
▁নন	-7109
):**	-7110
জিতে	-7111
ধানে	-7112
রাশি	-7113
▁$26	-7114
▁(6,	-7115
▁এলা	-7116
▁জেফ	-7117
▁১১২	-7118
▁৳৪০	-7119
বাহিক	-7120
▁exam	-7121
▁list	-7122
▁tang	-7123
▁পদটি	-7124
▁পুরা	-7125
▁প্রয	-7126
▁বারো	-7127
▁মুদি	-7128
▁মোটর	-7129
▁রহিম	-7130
▁সাইন	-7131
▁cases	-7132
▁অক্টো	-7133
▁অক্সি	-7134
▁চিকেন	-7135
▁জোহান	-7136
▁ফেলতে	-7137
▁বিলির	-7138
▁১৫০টি	-7139
▁রেখেছে	-7140
▁সংজ্ঞা	-7141
▁হারায়	-7142
▁হ্যারি	-7143
ondition	-7144
▁জিনিসের	-7145
▁পোস্টার	-7146
▁প্রশ্নে	-7147
▁বাইনারি	-7148
▁বিপরীতে	-7149
▁ডেলিভারি	-7150
▁প্রান্তে	-7151
▁যোগদানের	-7152
▁statement	-7153
▁ধারাবাহিক	-7154
▁Substitute	-7155
▁translates	-7156
▁অ্যান্ড্রুর	-7157
▁পূর্ণসংখ্যাটি	-7158
"।	-7159
(5	-7160
29	-7161
ie	-7162
চল	-7163
বই	-7164
শী	-7165
10,	-7166
30}	-7167
▁An	-7168
▁Po	-7169
▁আগ	-7170
00}{	-7171
fici	-7172
বিভা	-7173
▁(11	-7174
▁0\)	-7175
▁143	-7176
▁25$	-7177
▁990	-7178
▁\[5	-7179
▁কলি	-7180
▁ডেক	-7181
▁ফরা	-7182
▁ফিট	-7183
▁সাঁ	-7184
▁৳৫০	-7185
মেয়ে	-7186
লিনের	-7187
▁$(2,	-7188
▁0.80	-7189
▁Area	-7190
▁Dist	-7191
▁Find	-7192
▁base	-7193
▁clos	-7194
▁most	-7195
▁poss	-7196
▁অগ্ন	-7197
▁আলুর	-7198
▁ড্যা	-7199
▁ব্রা	-7200
▁রাজি	-7201
▁শলগম	-7202
▁স্বর	-7203
সাধারণ	-7204
▁found	-7205
▁words	-7206
▁ওয়াই	-7207
▁ধাপের	-7208
▁ফাংশন	-7209
▁শুকনো	-7210
▁হাতের	-7211
ilities	-7212
লিভিয়া	-7213
▁August	-7214
▁Define	-7215
▁উইন্ডো	-7216
▁উদ্ভিদ	-7217
▁দৌড়ের	-7218
▁ধ্রুবক	-7219
▁পপসিকল	-7220
▁বাজারে	-7221
▁মুনাফা	-7222
▁রেসিপি	-7223
▁divides	-7224
▁চিত্রটি	-7225
▁প্রতিফল	-7226
▁মার্কার	-7227
▁অনুপাতটি	-7228
▁দোকানদার	-7229
▁পাউন্ডের	-7230
▁প্রদর্শন	-7231
▁ব্যবসায়	-7232
▁দেওয়ালের	-7233
▁ম্যানেজার	-7234
▁\_\_\_\_\_	-7235
▁ধারণক্ষমতা	-7236
▁পরিবর্তনের	-7237
▁বিকল্পগুলির	-7238
38	-7239
ba	-7240
ee	-7241
ইউ	-7242
Sol	-7243
_2}	-7244
ককে	-7245
ডোর	-7246
্সে	-7247
▁2-	-7248
▁St	-7249
▁গল	-7250
▁৮৯	-7251
agon	-7252
ated	-7253
{120	-7254
পক্ষ	-7255
ভাষী	-7256
িয়র	-7257
৪০টি	-7258
৫০০০	-7259
▁106	-7260
▁see	-7261
▁way	-7262
▁কেট	-7263
▁গরি	-7264
▁বেথ	-7265
ছানার	-7266
্বলিত	-7267
▁2400	-7268
▁look	-7269
▁গুলো	-7270
▁পারো	-7271
▁মডেল	-7272
▁রেবে	-7273
লিকায়	-7274
লিয়াম	-7275
▁based	-7276
▁group	-7277
▁দুর্গ	-7278
▁সরাতে	-7279
▁cannot	-7280
▁এমিলির	-7281
▁পুরাতন	-7282
▁বাস্তব	-7283
▁সেন্টে	-7284
▁January	-7285
▁তাদেরকে	-7286
▁তোয়ালে	-7287
▁সোমবারে	-7288
▁হারানোর	-7289
▁আঙ্গুরের	-7290
▁উত্তীর্ণ	-7291
▁পরস্পরের	-7292
▁চালিয়েছে	-7293
▁simplifies	-7294
▁সংখ্যাগুলিকে	-7295
▁স্যান্ডউইচের	-7296
▁শীর্ষবিন্দুতে	-7297
▁অংশগ্রহণকারীদের	-7298
bf	-7299
ডো	-7300
পন	-7301
)^3	-7302
ain	-7303
{80	-7304
রার	-7305
▁${	-7306
▁$|	-7307
▁অম	-7308
▁রত	-7309
----	-7310
ceil	-7311
ided	-7312
নিকা	-7313
ফর্ম	-7314
যেমন	-7315
লিতে	-7316
২৪০০	-7317
▁2^4	-7318
▁40%	-7319
▁750	-7320
▁cre	-7321
▁চাপ	-7322
▁জাপ	-7323
▁ধীর	-7324
▁পুড	-7325
▁স্ম	-7326
▁১২৫	-7327
▁৭৫০	-7328
▁৳১৫	-7329
cases	-7330
}{11}	-7331
▁12.5	-7332
▁once	-7333
▁sele	-7334
▁আরোহ	-7335
▁ইটের	-7336
▁উড়ে	-7337
▁করলো	-7338
▁পারা	-7339
icular	-7340
{7}{4}	-7341
▁adjac	-7342
▁assum	-7343
▁jerse	-7344
▁এয়ার	-7345
▁খেলবে	-7346
▁জাদুক	-7347
▁জাদুঘ	-7348
▁নৃত্য	-7349
▁পিন্ট	-7350
▁মারুফ	-7351
▁খেলাধু	-7352
▁ড্রাইভ	-7353
▁পদগুলি	-7354
▁পাতায়	-7355
▁ভবিষ্য	-7356
▁মিলায়	-7357
▁শেয়ার	-7358
equation	-7359
▁circles	-7360
▁players	-7361
▁প্রতিজন	-7362
▁বাল্বের	-7363
▁যাচ্ছেন	-7364
▁subtract	-7365
▁আলমারিতে	-7366
pendicular	-7367
▁geometric	-7368
▁intersect	-7369
▁কেনাকাটার	-7370
▁দৈর্ঘ্যকে	-7371
▁ব্যবহারের	-7372
Calculating	-7373
▁নির্ধারণের	-7374
▁প্রত্যেকটির	-7375
to	-7376
চক	-7377
fty	-7378
গুন	-7379
ঠার	-7380
ুনে	-7381
▁ঘু	-7382
indr	-7383
mber	-7384
ঞ্জন	-7385
োজেন	-7386
▁$(1	-7387
▁$3!	-7388
▁$90	-7389
▁121	-7390
▁365	-7391
▁জেক	-7392
▁তের	-7393
▁থলে	-7394
▁রকম	-7395
infty	-7396
উত্তর	-7397
গ্রাম	-7398
দিকের	-7399
▁6000	-7400
▁কভার	-7401
▁কাঠি	-7402
▁জয়ী	-7403
▁জুটি	-7404
▁ফিতে	-7405
alindr	-7406
esults	-7407
points	-7408
স্টারে	-7409
▁teams	-7410
▁কেনেন	-7411
▁ঘাসের	-7412
▁দত্তক	-7413
▁প্রাচ	-7414
▁ফুটের	-7415
▁মাটির	-7416
▁সাপের	-7417
▁ছেলেকে	-7418
▁প্রকৃত	-7419
▁বানরের	-7420
▁ব্যাংক	-7421
▁মোবাইল	-7422
▁লাইনআপ	-7423
▁স্বয়ং	-7424
▁Process	-7425
▁polygon	-7426
▁চার্লির	-7427
▁জন্মদিন	-7428
▁দোকানটি	-7429
▁ফলাফলটি	-7430
▁সম্বলিত	-7431
formation	-7432
▁উপস্থাপন	-7433
▁দায়িত্ব	-7434
▁ধারণকারী	-7435
▁বাকিগুলি	-7436
▁অধ্যায়ের	-7437
▁শিবিরার্থ	-7438
▁নম্বরযুক্ত	-7439
▁পার্শ্ববর্তী	-7440
/5	-7441
2.	-7442
46	-7443
নু	-7444
(2,	-7445
8$।	-7446
^1$	-7447
ile	-7448
res	-7449
the	-7450
{19	-7451
গড়	-7452
দিক	-7453
১১০	-7454
৩২০	-7455
▁বদ	-7456
▁রং	-7457
augh	-7458
from	-7459
জেশন	-7460
ড়াই	-7461
ত্তি	-7462
য়র্	-7463
সারণ	-7464
▁40$	-7465
▁seg	-7466
▁জেড	-7467
▁ভের	-7468
anges	-7469
ccord	-7470
নিহিত	-7471
পুস্ত	-7472
রোক্ত	-7473
▁$21$	-7474
▁চতুষ	-7475
▁দেশে	-7476
▁নাইট	-7477
▁পথের	-7478
▁লন্ড	-7479
logram	-7480
{5}{6}	-7481
▁কতগুণ	-7482
▁কন্যা	-7483
▁বুশেল	-7484
▁permut	-7485
▁respec	-7486
▁কক্ষের	-7487
▁তৈরিতে	-7488
▁বাকিরা	-7489
▁বানানো	-7490
▁শর্তের	-7491
▁সম্মেল	-7492
▁স্ল্যা	-7493
ccording	-7494
সম্ভাব্য	-7495
▁উপরোক্ত	-7496
▁ভুলভাবে	-7497
▁মিটারের	-7498
▁মেলানোর	-7499
▁রবিবারে	-7500
▁লিঙ্গের	-7501
▁ল্যাপের	-7502
▁সর্বমোট	-7503
▁সিস্টেম	-7504
▁স্ন্যাক	-7505
▁previous	-7506
▁অক্সিজেন	-7507
▁আলেক্সের	-7508
▁কেন্দ্রে	-7509
▁তালিকায়	-7510
▁ক্লাসরুমে	-7511
▁ব্যক্তিগত	-7512
▁আইসক্রিমের	-7513
▁ক্ষতিগ্রস্ত	-7514
▁প্রক্রিয়াটি	-7515
▁স্বয়ংক্রিয়	-7516
},	-7517
^{2	-7518
গেট	-7519
বান	-7520
বাম	-7521
▁Ra	-7522
অ্যা	-7523
খায়	-7524
হস্য	-7525
্রোম	-7526
৩৬০০	-7527
▁196	-7528
▁312	-7529
▁45$	-7530
▁625	-7531
▁rot	-7532
▁কিশ	-7533
▁টেপ	-7534
▁পিট	-7535
▁শিখ	-7536
00000	-7537
ounds	-7538
স্টের	-7539
াইডের	-7540
▁0.00	-7541
▁hour	-7542
▁work	-7543
▁আঘাত	-7544
▁এক্স	-7545
▁কক্ষ	-7546
▁চড়ে	-7547
▁পাজল	-7548
▁বীমা	-7549
▁রত্ন	-7550
▁লিসা	-7551
egrees	-7552
{8}{2}	-7553
ওয়ালা	-7554
ম্যালো	-7555
▁\(2\)	-7556
▁উপসেট	-7557
▁কোনটি	-7558
▁জেরির	-7559
▁পক্ষে	-7560
▁পুত্র	-7561
▁ফরাসি	-7562
▁বাজার	-7563
▁বিমান	-7564
▁ম্যাট	-7565
▁যৌগের	-7566
▁রাচেল	-7567
▁লসাগু	-7568
▁সকলেই	-7569
▁সাহিত	-7570
mainder	-7571
▁single	-7572
▁আমেরিক	-7573
▁পনেরটি	-7574
▁বাজায়	-7575
▁ময়দার	-7576
▁মাইকেল	-7577
▁যতগুলি	-7578
▁রসিকতা	-7579
▁লাগাতে	-7580
▁appears	-7581
▁correct	-7582
▁scenari	-7583
▁similar	-7584
▁চিকিৎসা	-7585
▁ব্যবধির	-7586
▁ভুট্টার	-7587
ationship	-7588
▁উপসংহারে	-7589
▁ক্রিস্টো	-7590
▁ন্যাপকিন	-7591
▁হাইড্রোক	-7592
▁অষ্টভুজের	-7593
▁ম্যাগাজিন	-7594
▁ছায়াযুক্ত	-7595
▁পাঠ্যপুস্ত	-7596
▁perpendicular	-7597
৪৬	-7598
৫১	-7599
৭৪	-7600
(5)	-7601
-2}	-7602
bul	-7603
umn	-7604
ved	-7605
দূর	-7606
ফিল	-7607
ফোন	-7608
ীরে	-7609
২১০	-7610
▁tr	-7611
▁বহ	-7612
▁রন	-7613
▁৫ম	-7614
কর্ত	-7615
মাকে	-7616
সারি	-7617
াক্ষ	-7618
৯৯৯৯	-7619
▁$35	-7620
▁133	-7621
▁170	-7622
▁25%	-7623
▁প্ল	-7624
▁বাঁ	-7625
▁বাব	-7626
▁৭০০	-7627
^{10}	-7628
alary	-7629
alyze	-7630
erior	-7631
omial	-7632
ready	-7633
চ্ছিল	-7634
প্যাক	-7635
য়ামে	-7636
▁$120	-7637
▁$180	-7638
▁$19$	-7639
▁0.90	-7640
▁আশ্র	-7641
▁জেনা	-7642
▁টানা	-7643
▁ডাবা	-7644
▁নষ্ট	-7645
▁পলের	-7646
▁প্রজ	-7647
▁ভাঙা	-7648
▁রাইড	-7649
▁শর্ট	-7650
▁হাইক	-7651
285714	-7652
চতুর্থ	-7653
সোমবার	-7654
▁অংকের	-7655
▁অফিসে	-7656
▁উল্টো	-7657
▁গ্রিড	-7658
▁ঘটনার	-7659
▁জিরাফ	-7660
▁টোকেন	-7661
▁দৌড়া	-7662
▁নৌকার	-7663
▁ফিতার	-7664
▁বসাতে	-7665
▁বাজেট	-7666
▁বোনকে	-7667
▁লাঠির	-7668
▁লেমনে	-7669
▁৩০০টি	-7670
▁before	-7671
▁কৃষকের	-7672
▁জানালা	-7673
▁মেলানি	-7674
▁contain	-7675
▁results	-7676
▁গ্লাসের	-7677
▁ব্যাচের	-7678
▁ম্যাক্স	-7679
▁স্টার্ট	-7680
▁elements	-7681
▁টুকরোটির	-7682
▁মাধ্যমিক	-7683
▁আলাদাভাবে	-7684
▁দিনগুলিতে	-7685
▁সেকেন্ডের	-7686
▁মধ্যবিন্দু	-7687
▁স্থানান্তরিত	-7688
86	-7689
দৈ	-7690
ফর	-7691
হল	-7692
{90	-7693
}{8	-7694
আরও	-7695
একক	-7696
রাপ	-7697
হাই	-7698
৭৫০	-7699
▁((	-7700
▁আত	-7701
▁নদ	-7702
!}{5	-7703
ards	-7704
ting	-7705
লিখন	-7706
ামাঝ	-7707
িতের	-7708
২৫টি	-7709
▁32$	-7710
▁6\]	-7711
▁পজি	-7712
▁পটি	-7713
জিনের	-7714
ঞ্চের	-7715
বাহের	-7716
▁এটির	-7717
▁গেছি	-7718
▁তোতা	-7719
▁দলকে	-7720
▁বসাই	-7721
▁বাতা	-7722
▁বিশা	-7723
▁লকার	-7724
▁হরিণ	-7725
▁৩৬০০	-7726
change	-7727
{6}{2}	-7728
্যারির	-7729
▁দেখবো	-7730
▁সান্দ	-7731
itional	-7732
ওয়ার্ড	-7733
চ্ছিন্ন	-7734
ষ্কারের	-7735
▁always	-7736
▁colors	-7737
▁ঘুমায়	-7738
▁চুক্তি	-7739
▁সবকিছু	-7740
▁classes	-7741
▁degrees	-7742
▁উৎপাদিত	-7743
▁জার্মান	-7744
▁ট্র্যাপ	-7745
▁পাউন্ডে	-7746
▁মাঝামাঝ	-7747
▁সহমৌলিক	-7748
ifference	-7749
▁maximize	-7750
▁original	-7751
▁এসেছিলেন	-7752
▁পেইন্টিং	-7753
▁প্রভাবিত	-7754
▁শিক্ষককে	-7755
▁exponents	-7756
▁গ্রাহকদের	-7757
▁ত্রিভুজটি	-7758
▁নির্বাচনে	-7759
▁পুনর্লিখন	-7760
▁পরিস্থিতির	-7761
▁respectively	-7762
▁ছাত্রছাত্রীর	-7763
73	-7764
83	-7765
ছো	-7766
80}	-7767
আউট	-7768
ডিট	-7769
ভেন	-7770
যদি	-7771
ুটা	-7772
১৩৫	-7773
২২০	-7774
▁di	-7775
▁উত	-7776
▁চর	-7777
▁ভব	-7778
▁যো	-7779
1111	-7780
_1\)	-7781
inci	-7782
ming	-7783
য়নক	-7784
▁(30	-7785
▁345	-7786
▁512	-7787
▁ask	-7788
▁গবে	-7789
▁ফিল	-7790
▁সেল	-7791
য়াকে	-7792
▁1\),	-7793
▁oper	-7794
▁zero	-7795
▁অপরি	-7796
▁অফিস	-7797
▁এটিও	-7798
▁পরিণ	-7799
▁ভুলে	-7800
▁রাফি	-7801
▁শূকর	-7802
▁স্লট	-7803
▁২৭টি	-7804
▁৭০টি	-7805
▁৭২টি	-7806
bullet	-7807
plying	-7808
urrent	-7809
ান্ডার	-7810
▁cells	-7811
▁takes	-7812
▁আবেদন	-7813
▁উইকেট	-7814
▁বাতির	-7815
▁ভিক্ট	-7816
▁মাইলে	-7817
▁মাঠের	-7818
▁মার্শ	-7819
▁লেনদে	-7820
▁স্টাফ	-7821
ব্যক্তি	-7822
সবচেয়ে	-7823
সিডেন্ট	-7824
▁region	-7825
▁অনুমতি	-7826
▁টিস্যু	-7827
▁দেয়াল	-7828
▁বিদ্যু	-7829
▁রাজস্ব	-7830
▁লাইনের	-7831
▁স্প্যা	-7832
Counting	-7833
▁include	-7834
▁কুকিজের	-7835
▁টাওয়ার	-7836
▁পত্রিকা	-7837
ibilities	-7838
▁অনুষ্ঠিত	-7839
▁জ্বালানি	-7840
▁দূরত্বকে	-7841
▁পরিচালনা	-7842
▁পানীয়ের	-7843
▁প্রসারিত	-7844
▁রাস্তায়	-7845
▁সমন্বয়ে	-7846
▁সম্পত্তি	-7847
▁সোডিয়াম	-7848
▁সোয়েটার	-7849
▁describes	-7850
▁ডিসকাউন্ট	-7851
▁বিচ্ছিন্ন	-7852
▁রেখেছিলেন	-7853
▁ল্যাম্পের	-7854
▁সমস্যাটির	-7855
▁increasing	-7856
▁অ্যালেক্সের	-7857
▁পদার্থবিদ্যা	-7858
▁parallelogram	-7859
Cl	-7860
গর	-7861
স্	-7862
ুধ	-7863
.33	-7864
ape	-7865
ডির	-7866
পাই	-7867
সূচ	-7868
১০৫	-7869
২৭০	-7870
▁MP	-7871
▁মূ	-7872
▁লগ	-7873
▁৭১	-7874
beta	-7875
idth	-7876
ifth	-7877
মেলো	-7878
য়াস	-7879
৩৩৩৩	-7880
▁136	-7881
▁14$	-7882
▁190	-7883
▁230	-7884
▁28,	-7885
▁3.5	-7886
▁36,	-7887
▁3^3	-7888
▁50$	-7889
▁8\)	-7890
▁bin	-7891
▁rec	-7892
▁কাল	-7893
▁পিস	-7894
ented	-7895
}{3}$	-7896
বিড়া	-7897
শিল্প	-7898
শ্চিম	-7899
২০০০০	-7900
▁$17$	-7901
▁120$	-7902
▁cube	-7903
▁গুণক	-7904
▁টাইম	-7905
▁নামে	-7906
▁ফেলি	-7907
ভিয়ার	-7908
▁Satur	-7909
▁floor	-7910
▁আড়ুর	-7911
▁কাচের	-7912
▁জুনের	-7913
▁পনেরো	-7914
▁শয়নক	-7915
▁শেষের	-7916
▁সাজাই	-7917
▁সৈকতে	-7918
+1)}{2}	-7919
{10}{2}	-7920
বিদ্যাল	-7921
▁10,000	-7922
▁কুমড়া	-7923
▁ক্রেতা	-7924
▁গরিষ্ঠ	-7925
▁ছুটিতে	-7926
▁পণ্যের	-7927
▁যেগুলো	-7928
▁without	-7929
▁অনুক্রম	-7930
▁আলবার্ট	-7931
▁নামিয়ে	-7932
▁লিটারের	-7933
▁শনিবারে	-7934
▁স্টিভের	-7935
বিজ্ঞানের	-7936
▁required	-7937
▁কোরিয়ান	-7938
▁মাঝামাঝি	-7939
▁সময়কালে	-7940
▁সারিবদ্ধ	-7941
▁প্যালিন্ড	-7942
▁প্রতিক্রিয়া	-7943
of	-7944
sh	-7945
দৃ	-7946
মর	-7947
3$।	-7948
ash	-7949
ols	-7950
{17	-7951
গোর	-7952
ারু	-7953
১১২	-7954
▁৬১	-7955
1,1,	-7956
omin	-7957
osen	-7958
pond	-7959
অঙ্ক	-7960
ন্তে	-7961
▁$21	-7962
▁10%	-7963
▁124	-7964
▁165	-7965
▁22,	-7966
▁3$.	-7967
▁330	-7968
▁5$,	-7969
▁Day	-7970
▁str	-7971
▁অলি	-7972
▁কাচ	-7973
▁কুল	-7974
▁মনো	-7975
▁শিফ	-7976
▁সংয	-7977
▁সভা	-7978
▁৭২০	-7979
▁100)	-7980
▁Tues	-7981
▁prov	-7982
▁what	-7983
▁অজ্ঞ	-7984
▁ইচ্ছ	-7985
▁খুলে	-7986
▁জমির	-7987
▁তামি	-7988
▁পকেট	-7989
▁ব্রি	-7990
▁রোপন	-7991
▁সামা	-7992
▁স্মি	-7993
gether	-7994
য়ালের	-7995
▁(2/3)	-7996
▁\(100	-7997
▁being	-7998
▁কালাম	-7999
▁ঘনত্ব	-8000
▁জিসান	-8001
▁পঞ্চা	-8002
▁বসন্ত	-8003
▁মিয়া	-8004
▁মুখটি	-8005
▁যোগ্য	-8006
▁লিলির	-8007
centage	-8008
inciple	-8009
respond	-8010
▁assume	-8011
▁chosen	-8012
▁পাঠায়	-8013
▁পিতামা	-8014
▁পেইন্ট	-8015
▁বইটিতে	-8016
▁লাফালা	-8017
▁সম্পাদ	-8018
▁lengths	-8019
▁পূর্বের	-8020
▁মিশ্রণে	-8021
▁স্কুপের	-8022
▁dividing	-8023
▁multiply	-8024
▁পদক্ষেপে	-8025
▁বাকিগুলো	-8026
▁মাইকেলের	-8027
▁নিম্নরূপে	-8028
▁ব্রোকারেজ	-8029
▁ভগ্নাংশের	-8030
▁সমন্বয়ের	-8031
▁প্যাটার্নটি	-8032
▁স্ট্যাম্পের	-8033
61	-8034
(6,	-8035
aul	-8036
loc	-8037
}$,	-8038
জিট	-8039
ধরে	-8040
নিজ	-8041
পদী	-8042
পুট	-8043
মলা	-8044
লিম	-8045
ষুধ	-8046
িজি	-8047
োটে	-8048
▁টস	-8049
▁হু	-8050
▁৫৯	-8051
....	-8052
alls	-8053
{11}	-8054
{180	-8055
}{20	-8056
গামী	-8057
তাকে	-8058
সেলে	-8059
▁(3)	-8060
▁(5,	-8061
▁118	-8062
▁127	-8063
▁now	-8064
▁জলা	-8065
▁হকি	-8066
▁হিপ	-8067
▁২১০	-8068
▁৳৬০	-8069
!}{3!	-8070
pairs	-8071
}{16}	-8072
কাহিন	-8073
কোণের	-8074
সেটের	-8075
১০০০০	-8076
▁$45$	-8077
▁10\)	-8078
▁five	-8079
▁half	-8080
▁ওষুধ	-8081
▁ড্রি	-8082
▁তলার	-8083
▁বহিঃ	-8084
▁মিলন	-8085
▁মেনে	-8086
▁মেলি	-8087
▁যেটি	-8088
▁সেলে	-8089
effici	-8090
▁$120$	-8091
▁অঙ্কন	-8092
▁ট্যাক	-8093
▁দুজনে	-8094
▁পুলিশ	-8095
▁বইটির	-8096
▁ভাগ্য	-8097
গাণিতিক	-8098
▁comple	-8099
▁কাঁটার	-8100
▁জেসনের	-8101
▁ডাকটিক	-8102
▁বিছানা	-8103
▁বেড়ার	-8104
▁মৌমাছি	-8105
▁যতগুলো	-8106
▁সীমানা	-8107
▁হান্না	-8108
▁হেনরির	-8109
99999999	-8110
▁অ্যাকশন	-8111
▁কচ্ছপের	-8112
▁জুনিয়র	-8113
▁দিনগুলি	-8114
▁লেগেছিল	-8115
▁together	-8116
▁অ্যাঞ্জে	-8117
▁উইলিয়াম	-8118
▁ধরেছিলেন	-8119
▁সমীকরণকে	-8120
▁Wednesdays	-8121
▁possibilities	-8122
▁প্যালিন্ড্রোম	-8123
ঁজ	-8124
োড	-8125
্ঞ	-8126
14)	-8127
omb	-8128
til	-8129
এটি	-8130
ষণা	-8131
৩৫০	-8132
▁6।	-8133
▁7:	-8134
▁ধন	-8135
▁২ক	-8136
^2$,	-8137
_{5}	-8138
ined	-8139
ling	-8140
peed	-8141
ভয়ে	-8142
েরিস	-8143
্রির	-8144
▁1.2	-8145
▁134	-8146
▁255	-8147
▁27$	-8148
▁288	-8149
▁504	-8150
▁উৎস	-8151
▁জলে	-8152
▁জ্ঞ	-8153
▁নিঃ	-8154
▁মৃত	-8155
▁লেক	-8156
▁১০৮	-8157
▁১৭০	-8158
idual	-8159
small	-8160
undre	-8161
ভেনের	-8162
স্থলে	-8163
▁100,	-8164
▁mean	-8165
▁অবৈধ	-8166
▁উদ্ধ	-8167
▁কাটি	-8168
▁চয়ন	-8169
▁চুরি	-8170
▁ছিলো	-8171
▁জনাব	-8172
▁জরিপ	-8173
▁জারি	-8174
▁দশজন	-8175
▁নিলে	-8176
▁ফ্যা	-8177
▁বামন	-8178
▁সেরা	-8179
▁২৬টি	-8180
কাহিনী	-8181
ছাত্রী	-8182
রুদ্ধে	-8183
্যাকের	-8184
▁\(3\)	-8185
▁\(4\)	-8186
▁black	-8187
▁reach	-8188
▁অজানা	-8189
▁গ্যাস	-8190
▁ছিদ্র	-8191
▁ডেস্ক	-8192
▁নামের	-8193
▁পরিণত	-8194
▁রহস্য	-8195
▁হেঁটে	-8196
দৈর্ঘ্য	-8197
িয়েলের	-8198
▁minute	-8199
▁ক্যালে	-8200
▁জাপানি	-8201
▁দ্বাদশ	-8202
▁পয়সার	-8203
▁প্রতীক	-8204
▁মিলানো	-8205
▁রহিমের	-8206
▁কমিটিতে	-8207
▁কয়েনের	-8208
▁ড্যানের	-8209
▁নভেম্বর	-8210
▁বাকিদের	-8211
্যান্ডেলি	-8212
▁অবস্থায়	-8213
▁উল্লেখিত	-8214
▁দৌড়েছিল	-8215
▁বিরুদ্ধে	-8216
কোয়ারিয়া	-8217
▁স্যান্ডির	-8218
▁correspond	-8219
▁properties	-8220
▁বিশ্ববিদ্যাল	-8221
▁অ্যাকোয়ারিয়া	-8222
%)	-8223
-9	-8224
/6	-8225
62	-8226
^8	-8227
ps	-8228
৯৪	-8229
0.5	-8230
12,	-8231
2),	-8232
oid	-8233
ৃতা	-8234
▁pi	-8235
▁কৌ	-8236
▁লন	-8237
▁৭৪	-8238
ঘর্ষ	-8239
দণ্ড	-8240
পাখি	-8241
বেশে	-8242
রেখা	-8243
লিপি	-8244
ল্যা	-8245
সমিন	-8246
ান্স	-8247
▁$28	-8248
▁1/3	-8249
▁203	-8250
▁2^1	-8251
▁864	-8252
▁90$	-8253
▁Cho	-8254
▁জসি	-8255
▁বনে	-8256
▁বুক	-8257
▁ভার	-8258
▁রাঙ	-8259
▁২য়	-8260
বন্ধু	-8261
হানের	-8262
▁$35$	-8263
▁অধিক	-8264
▁কর্ত	-8265
▁কলেজ	-8266
▁দানা	-8267
▁ধর্ম	-8268
▁বিনে	-8269
▁বেনি	-8270
▁ব্রু	-8271
▁রম্ব	-8272
▁সেবা	-8273
▁হাঁট	-8274
▁৮০০০	-8275
প্রাইম	-8276
মিয়াল	-8277
্যাপ্ত	-8278
▁needs	-8279
▁কতদিন	-8280
▁ট্রাউ	-8281
▁তেলের	-8282
▁পোর্ট	-8283
▁মিনার	-8284
▁স্টার	-8285
প্রাপ্ত	-8286
▁contin	-8287
▁ইরেজার	-8288
▁এড়াতে	-8289
▁খণ্ডের	-8290
▁টার্কি	-8291
▁ব্যস্ত	-8292
▁মার্থা	-8293
▁already	-8294
▁letters	-8295
▁অভিভাবক	-8296
▁কারখানা	-8297
▁তুলেছেন	-8298
▁দৌড়ানো	-8299
▁বক্তৃতা	-8300
▁লাগানোর	-8301
▁additional	-8302
▁ড্যান্ডেলি	-8303
▁ব্রায়ানের	-8304
▁represented	-8305
▁কর্মচারীদের	-8306
▁মার্শম্যালো	-8307
▁relationship	-8308
▁সম্পূর্ণভাবে	-8309
',	-8310
জং	-8311
ণা	-8312
েপ	-8313
▁!	-8314
(4)	-8315
-4)	-8316
ils	-8317
জিং	-8318
তোম	-8319
ফিক	-8320
সেল	-8321
▁5।	-8322
▁Al	-8323
▁Pl	-8324
▁id	-8325
abcd	-8326
ক্ষক	-8327
জাবে	-8328
পুরি	-8329
বাসে	-8330
বাহন	-8331
য়েন	-8332
িন্দ	-8333
▁(40	-8334
▁0\]	-8335
▁37,	-8336
▁Equ	-8337
▁sem	-8338
▁নেক	-8339
▁লবণ	-8340
▁১৬৫	-8341
!}{4!	-8342
round	-8343
ystem	-8344
য়স্থ	-8345
িজয়ে	-8346
▁\]\\	-8347
▁coun	-8348
▁give	-8349
▁make	-8350
▁কবির	-8351
▁কাপে	-8352
▁জশের	-8353
▁পাইন	-8354
▁লেখে	-8355
▁লেগো	-8356
▁শস্য	-8357
▁হ্রদ	-8358
eneral	-8359
▁1,000	-8360
▁খামের	-8361
▁ঘনকটি	-8362
▁জাহাজ	-8363
▁তরবার	-8364
▁পুরনো	-8365
▁বান্ড	-8366
▁বিশটি	-8367
▁বোতলে	-8368
▁মাহির	-8369
▁রানার	-8370
▁রিয়া	-8371
▁রেসিপ	-8372
▁সঙ্গে	-8373
▁হাতির	-8374
▁হার্ড	-8375
▁১০০০০	-8376
▁৪০০টি	-8377
-1)}{2}	-8378
numbers	-8379
▁giving	-8380
▁marble	-8381
▁কার্ডে	-8382
▁গর্তের	-8383
▁ট্রেতে	-8384
▁দৃষ্টি	-8385
▁বাজানো	-8386
▁ভাষায়	-8387
▁সহকারী	-8388
▁সাঁতার	-8389
নোমিয়াল	-8390
▁becomes	-8391
▁palindr	-8392
▁planted	-8393
▁পরিকল্প	-8394
▁ফ্ল্যাট	-8395
▁ব্রেন্ড	-8396
▁যোগফলটি	-8397
▁লাইনআপে	-8398
▁সামান্ত	-8399
ক্ষেত্রফল	-8400
▁কোণগুলির	-8401
▁খেয়েছেন	-8402
▁জ্যামিতি	-8403
▁পুরোপুরি	-8404
▁ব্যাখ্যা	-8405
▁সাইকেলের	-8406
▁আশ্রয়স্থ	-8407
▁বিশ্রামের	-8408
▁সমস্যাটিতে	-8409
▁সম্পূর্ণরূপে	-8410
+8	-8411
SI	-8412
\$	-8413
bc	-8414
12)	-8415
320	-8416
_1}	-8417
ale	-8418
ডেট	-8419
তলা	-8420
ভিক	-8421
সকে	-8422
▁-\	-8423
▁Fe	-8424
▁ru	-8425
▁sl	-8426
▁ছো	-8427
▁ডক	-8428
00$।	-8429
ক্লি	-8430
বাচক	-8431
য়েল	-8432
সঠিক	-8433
ান্ট	-8434
োপটা	-8435
্রেড	-8436
▁122	-8437
▁28$	-8438
▁375	-8439
▁455	-8440
▁5.5	-8441
▁ins	-8442
▁কাউ	-8443
▁গ্ল	-8444
▁তরল	-8445
▁দেশ	-8446
▁মহা	-8447
▁মিশ	-8448
▁রাত	-8449
▁১০৪	-8450
▁১২৬	-8451
hours	-8452
করণের	-8453
কেননা	-8454
ড়ানো	-8455
বস্তু	-8456
মঙ্গল	-8457
রাসের	-8458
সিয়া	-8459
্যারা	-8460
▁$27$	-8461
▁100%	-8462
▁tens	-8463
▁ইঞ্জ	-8464
▁কঠিন	-8465
▁ছাপা	-8466
▁টিনা	-8467
▁নাটা	-8468
▁রাকি	-8469
▁লাবি	-8470
▁সসেজ	-8471
▁স্কি	-8472
▁৪২টি	-8473
▁৫৬টি	-8474
{7}{2}	-8475
িনায়ক	-8476
▁ওয়াট	-8477
▁করেনি	-8478
▁ডিজিট	-8479
▁ডেইজি	-8480
▁থিয়ে	-8481
▁দেখেন	-8482
▁নিবন্	-8483
▁পরিষে	-8484
▁পর্যা	-8485
▁ফেরিস	-8486
▁বাধ্য	-8487
▁সম্মত	-8488
▁৫০০টি	-8489
undreds	-8490
▁needed	-8491
▁দ্বীপে	-8492
▁প্রিয়	-8493
▁বস্তুর	-8494
▁সম্ভবত	-8495
66666666	-8496
▁Mondays	-8497
▁jerseys	-8498
▁উপস্থাপ	-8499
▁গ্রীষ্ম	-8500
▁শতাংশের	-8501
▁সম্প্রদ	-8502
▁স্যালির	-8503
▁brothers	-8504
▁অ্যালার্	-8505
▁আয়তাকার	-8506
▁প্রতিষ্ঠ	-8507
▁প্রবেশের	-8508
▁যাত্রায়	-8509
▁সন্নিহিত	-8510
▁According	-8511
▁আকর্ষণীয়	-8512
▁সন্তানদের	-8513
▁বিজ্ঞাপনের	-8514
▁সংখ্যাগুলোকে	-8515
CP	-8516
Ex	-8517
\,	-8518
লস	-8519
৭৭	-8520
৮৮	-8521
125	-8522
{99	-8523
}\\	-8524
উইং	-8525
জনা	-8526
লিট	-8527
হোক	-8528
১৩০	-8529
২৮০	-8530
▁'1	-8531
▁xy	-8532
▁ডগ	-8533
▁নগ	-8534
▁মণ	-8535
▁শৈ	-8536
irls	-8537
থায়	-8538
১৬০০	-8539
১৮টি	-8540
▁$99	-8541
▁113	-8542
▁260	-8543
▁366	-8544
▁41,	-8545
▁fit	-8546
▁আদি	-8547
▁আসি	-8548
▁গরম	-8549
▁টুই	-8550
▁পরম	-8551
▁মেক	-8552
▁যথা	-8553
▁রিং	-8554
▁লুব	-8555
▁হাম	-8556
▁হের	-8557
Divis	-8558
গারিদ	-8559
নিষ্ঠ	-8560
ব্রাশ	-8561
মার্ক	-8562
১২০০০	-8563
৩০০০০	-8564
▁1440	-8565
▁4500	-8566
▁boys	-8567
▁iter	-8568
▁room	-8569
▁ইউনি	-8570
▁ইম্প	-8571
▁কেউই	-8572
▁খামে	-8573
▁গুনে	-8574
▁জগিং	-8575
▁বহুপ	-8576
▁রিলে	-8577
▁রূপে	-8578
▁শ্রী	-8579
▁৫২টি	-8580
স্ত্রি	-8581
্লিষ্ট	-8582
▁(1/3)	-8583
▁12345	-8584
▁অপাকা	-8585
▁চিউইং	-8586
▁ডিগ্র	-8587
▁পকেটে	-8588
▁ফাঁকা	-8589
▁ফিগার	-8590
▁বরফের	-8591
▁বিশাল	-8592
▁রুবেল	-8593
▁Values	-8594
▁altern	-8595
▁pounds	-8596
▁অঞ্চলে	-8597
▁কলামের	-8598
▁কিছুটা	-8599
▁ক্ষতির	-8600
▁দিচ্ছে	-8601
▁প্রজাপ	-8602
▁যাইহোক	-8603
▁সবগুলি	-8604
▁সহপাঠী	-8605
▁সেপ্টে	-8606
▁স্টোরে	-8607
▁matches	-8608
▁উল্টানো	-8609
▁পড়েছিল	-8610
▁পাত্রের	-8611
▁বিবেচিত	-8612
▁মার্কিন	-8613
▁ম্যাটের	-8614
▁সার্ভিং	-8615
▁confirms	-8616
▁scenario	-8617
▁কর্মকর্ত	-8618
▁খাওয়াতে	-8619
▁জর্ডানের	-8620
▁বুধবারের	-8621
▁সময়সূচী	-8622
▁উভয়পাশকে	-8623
▁সন্ধ্যায়	-8624
▁substitute	-8625
▁স্বাধীনভাবে	-8626
(8	-8627
74	-8628
ix	-8629
ণী	-8630
+3)	-8631
.01	-8632
0.0	-8633
9$।	-8634
aph	-8635
dle	-8636
for	-8637
gru	-8638
কাপ	-8639
মিত	-8640
▁->	-8641
▁Ap	-8642
▁cr	-8643
▁অফ	-8644
▁গন	-8645
▁৭৬	-8646
igma	-8647
item	-8648
}}{1	-8649
ইনের	-8650
ট্রি	-8651
থাগো	-8652
মার্	-8653
সবুজ	-8654
▁(7,	-8655
▁1/4	-8656
▁114	-8657
▁35$	-8658
▁650	-8659
▁7^2	-8660
▁\[7	-8661
▁জিত	-8662
▁টোক	-8663
▁ডেল	-8664
▁নাই	-8665
▁মিউ	-8666
▁সংশ	-8667
▁২৭০	-8668
!}{2!	-8669
আউন্স	-8670
জোড়া	-8671
ফিনের	-8672
য়ায়	-8673
স্কার	-8674
হেড্র	-8675
▁$2^3	-8676
▁1050	-8677
▁2700	-8678
▁4000	-8679
▁\(11	-8680
▁\[12	-8681
▁subs	-8682
▁অগ্র	-8683
▁অভিয	-8684
▁ইলেক	-8685
▁কোণে	-8686
▁টিউব	-8687
▁ডিসে	-8688
▁ধুতে	-8689
▁পরাম	-8690
▁পাইক	-8691
▁পেলে	-8692
▁মুভি	-8693
▁লঞ্চ	-8694
▁শক্ত	-8695
▁শেখে	-8696
▁১২তম	-8697
▁৩৯টি	-8698
bruary	-8699
▁Digit	-8700
▁daugh	-8701
▁আপডেট	-8702
▁কলামে	-8703
▁জামান	-8704
▁টুপির	-8705
▁ধুয়ে	-8706
▁নুড়ি	-8707
▁রেখার	-8708
▁player	-8709
▁অফিসার	-8710
▁আউন্সে	-8711
▁আলিসার	-8712
▁একপাশে	-8713
▁চরিত্র	-8714
▁ঠান্ডা	-8715
▁মেরামত	-8716
▁শঙ্কুর	-8717
▁শিশুকে	-8718
প্রয়োজন	-8719
▁Similar	-8720
▁passeng	-8721
▁অসমতাটি	-8722
▁র্যান্ড	-8723
▁সিন্ডির	-8724
▁হান্নার	-8725
▁ভাষাভাষী	-8726
▁অঙ্কগুলোর	-8727
▁প্যাকেজের	-8728
▁স্ল্যাবের	-8729
▁considering	-8730
▁বাইনোমিয়াল	-8731
▁প্রয়োজনীয়তা	-8732
()	-8733
);	-8734
3]	-8735
54	-8736
6.	-8737
In	-8738
ুঁ	-8739
ৃদ	-8740
োধ	-8741
্ফ	-8742
**2	-8743
1\)	-8744
7$।	-8745
^3}	-8746
_3)	-8747
ipp	-8748
odd	-8749
old	-8750
ঁচি	-8751
জীব	-8752
বুধ	-8753
ভির	-8754
২২৫	-8755
▁6-	-8756
▁ln	-8757
▁৯৮	-8758
bser	-8759
ক্যা	-8760
ক্ষি	-8761
টারি	-8762
সাদা	-8763
িয়ন	-8764
ীব্র	-8765
▁$80	-8766
▁103	-8767
▁16.	-8768
▁17$	-8769
▁19$	-8770
▁336	-8771
▁করত	-8772
▁নগদ	-8773
▁ফসল	-8774
▁মিং	-8775
▁সিক	-8776
▁হিট	-8777
▁১৫৬	-8778
▁২২৫	-8779
\):**	-8780
_{12}	-8781
izing	-8782
multi	-8783
ত্ত্ব	-8784
বেরির	-8785
সঙ্গত	-8786
▁pens	-8787
▁test	-8788
▁unit	-8789
▁আবির	-8790
▁কিলো	-8791
▁ক্লে	-8792
▁চাচা	-8793
▁জাহি	-8794
▁জেসন	-8795
▁ডানে	-8796
▁পোকে	-8797
▁ভরতে	-8798
▁ভরাট	-8799
▁রুমি	-8800
▁সিওক	-8801
▁৩৩টি	-8802
inders	-8803
ঙ্গুইন	-8804
তিবাচক	-8805
পাউন্ড	-8806
বর্জনা	-8807
সমস্যা	-8808
িয়ায়	-8809
▁Start	-8810
▁while	-8811
▁উইজেট	-8812
▁উভয়ে	-8813
▁কাটেন	-8814
▁কারনে	-8815
▁ঘনককে	-8816
▁জানার	-8817
▁ডিস্ক	-8818
▁দুটোই	-8819
▁বালির	-8820
▁ভলিবল	-8821
▁মধ্যম	-8822
▁রেডিও	-8823
▁সীমার	-8824
▁Combin	-8825
▁Friday	-8826
▁Monday	-8827
▁system	-8828
▁অজ্ঞাত	-8829
▁একজনের	-8830
▁কার্লা	-8831
▁ছাড়াও	-8832
▁টেসেলে	-8833
▁বিভাজন	-8834
▁সকালের	-8835
▁ওয়াটার	-8836
▁গ্যারেজ	-8837
▁গ্রহণের	-8838
▁ট্রিপের	-8839
▁মিলানোর	-8840
▁যানবাহন	-8841
▁শ্রেণীক	-8842
ক্ষেত্রের	-8843
▁Distance	-8844
▁Saturday	-8845
▁ওয়ার্কশ	-8846
▁খেলাধুলা	-8847
▁প্রতিফলন	-8848
▁ভাজকগুলি	-8849
▁স্ট্রাইপ	-8850
▁quadratic	-8851
▁প্রস্তুতি	-8852
▁প্রার্থীর	-8853
▁সংশ্লিষ্ট	-8854
▁ফ্যাক্টরাই	-8855
▁arrangement	-8856
▁পাঠিয়েছিলেন	-8857
)?	-8858
+7	-8859
94	-8860
BA	-8861
বস	-8862
ৌর	-8863
্ণ	-8864
3),	-8865
375	-8866
4\)	-8867
ces	-8868
{32	-8869
ঘের	-8870
জেক	-8871
ফাই	-8872
বোন	-8873
রিন	-8874
সিং	-8875
হের	-8876
িটা	-8877
্টন	-8878
▁3।	-8879
▁BI	-8880
▁av	-8881
▁বন	-8882
▁মজ	-8883
▁১ম	-8884
ency	-8885
gain	-8886
{13}	-8887
নাকে	-8888
ীরের	-8889
▁1),	-8890
▁18.	-8891
▁1\]	-8892
▁405	-8893
▁7\)	-8894
▁80$	-8895
▁আরি	-8896
▁গুদ	-8897
▁নেব	-8898
▁৳২৫	-8899
other	-8900
value	-8901
}{4}$	-8902
গাড়ি	-8903
বিদের	-8904
ব্যাগ	-8905
ভিন্ন	-8906
ম্বার	-8907
শীর্ষ	-8908
▁0.85	-8909
▁5040	-8910
▁comb	-8911
▁আর্ট	-8912
▁আসবে	-8913
▁এমার	-8914
▁জ্বল	-8915
▁ধীরে	-8916
▁বন্ট	-8917
▁বাধা	-8918
▁লাইট	-8919
▁লায়	-8920
▁হারা	-8921
otient	-8922
{6}{3}	-8923
স্থিতি	-8924
ীক্ষ্ণ	-8925
▁cover	-8926
▁inter	-8927
▁large	-8928
▁share	-8929
▁until	-8930
▁ওজনকে	-8931
▁কিনেন	-8932
▁খামার	-8933
▁খেলছে	-8934
▁গ্রেগ	-8935
▁চিঠির	-8936
▁ডেভের	-8937
▁দুর্ঘ	-8938
▁পড়বে	-8939
▁ফিওনা	-8940
▁বেনের	-8941
▁লেখার	-8942
itially	-8943
পরিসীমা	-8944
▁congru	-8945
▁powers	-8946
▁অতিভুজ	-8947
▁কমিটির	-8948
▁কার্বন	-8949
▁জর্জের	-8950
▁বর্ষের	-8951
▁মুখস্থ	-8952
▁সংস্থা	-8953
▁স্টপের	-8954
▁স্থানা	-8955
িন্ডারের	-8956
▁Theorem	-8957
▁Tuesday	-8958
▁আবর্জনা	-8959
▁ডানদিকে	-8960
▁ডায়ানা	-8961
▁ডেভিডের	-8962
▁প্রশস্ত	-8963
▁লন্ড্রি	-8964
▁সদস্যরা	-8965
▁সর্বশেষ	-8966
▁সামাজিক	-8967
▁adjacent	-8968
▁exponent	-8969
▁অনুষ্ঠান	-8970
▁পেঙ্গুইন	-8971
▁সম্মেলনে	-8972
▁প্রকল্পের	-8973
▁বাহুগুলির	-8974
Divisibility	-8975
▁ছাত্রছাত্রী	-8976
▁সীমাবদ্ধতার	-8977
▁permutations	-8978
=\	-8979
Pr	-8980
ey	-8981
wo	-8982
yp	-8983
পৃ	-8984
সই	-8985
হত	-8986
+4)	-8987
201	-8988
Pro	-8989
ade	-8990
কিউ	-8991
টিল	-8992
ফর্	-8993
লাস	-8994
ূরক	-8995
ূলক	-8996
্নে	-8997
▁মত	-8998
▁৯৭	-8999
)!}$	-9000
ante	-9001
eces	-9002
}}{2	-9003
টপিং	-9004
ডুলো	-9005
পূর্	-9006
বাসন	-9007
স্কে	-9008
াকের	-9009
োজ্য	-9010
▁'1'	-9011
▁(25	-9012
▁109	-9013
▁43,	-9014
▁cup	-9015
▁কনস	-9016
▁গর্	-9017
▁চুষ	-9018
▁জাত	-9019
▁নদী	-9020
▁ববি	-9021
▁লেজ	-9022
}{40}	-9023
গানের	-9024
দশমিক	-9025
ব্যাক	-9026
লেনের	-9027
▁$3$।	-9028
▁$360	-9029
▁cand	-9030
▁feet	-9031
▁want	-9032
▁অস্ব	-9033
▁ইয়ো	-9034
▁গনোম	-9035
▁গাইড	-9036
▁জিবি	-9037
▁দুর্	-9038
▁পাইপ	-9039
▁ভাজা	-9040
▁মাঝে	-9041
▁মিমি	-9042
▁সেটা	-9043
▁৩৪টি	-9044
▁৳৪০০	-9045
arante	-9046
orrect	-9047
▁16.00	-9048
▁light	-9049
▁overl	-9050
▁কারার	-9051
▁জন্যও	-9052
▁দাদুর	-9053
▁দিকটি	-9054
▁নিক্ষ	-9055
▁সামির	-9056
▁সেদিন	-9057
বিভাজ্য	-9058
্রিজারে	-9059
▁Adding	-9060
▁অনুকূল	-9061
▁আগ্রহী	-9062
▁কিস্তি	-9063
▁ঘোরানো	-9064
▁ছুঁড়ে	-9065
▁জাতীয়	-9066
▁জেসিকা	-9067
▁তরবারি	-9068
▁নির্বি	-9069
▁ব্যাচে	-9070
▁ভেতরের	-9071
▁সিন্ডি	-9072
মঙ্গলবার	-9073
▁current	-9074
▁receive	-9075
▁অধিবর্ষ	-9076
▁কার্লোস	-9077
▁ছাত্রীর	-9078
▁তীক্ষ্ণ	-9079
▁বৃষ্টির	-9080
▁মাঝখানে	-9081
▁শূন্যের	-9082
থাগোরাসের	-9083
▁February	-9084
▁interior	-9085
▁বাড়িয়ে	-9086
▁স্তরীকৃত	-9087
▁ত্রিভুজকে	-9088
▁দাঁড়িয়ে	-9089
▁পছন্দকারী	-9090
▁বিক্রিয়া	-9091
▁রান্নাঘরে	-9092
▁সরলীকরণের	-9093
▁information	-9094
▁গাণিতিকভাবে	-9095
▁ধারণক্ষমতার	-9096
▁সংখ্যাযুক্ত	-9097
▁\_\_\_\_\_\_	-9098
'$	-9099
-\	-9100
\[	-9101
অব	-9102
এম	-9103
ওর	-9104
চু	-9105
টু	-9106
০৪	-9107
.08	-9108
.99	-9109
/5)	-9110
111	-9111
For	-9112
uce	-9113
{0,	-9114
{48	-9115
ব্দ	-9116
ল্ড	-9117
শুক	-9118
ালে	-9119
ুইং	-9120
১৬৮	-9121
৭২০	-9122
▁5^	-9123
000}	-9124
cend	-9125
}{10	-9126
কারে	-9127
প্রত	-9128
প্রি	-9129
বিতে	-9130
স্কা	-9131
ান্দ	-9132
োরাই	-9133
্রেট	-9134
১৬টি	-9135
▁$(2	-9136
▁186	-9137
▁208	-9138
▁30)	-9139
▁30.	-9140
▁40,	-9141
▁495	-9142
▁কিম	-9143
▁জিল	-9144
▁দরে	-9145
▁নাট	-9146
▁পিৎ	-9147
▁ভান	-9148
▁শাস	-9149
▁হৃদ	-9150
▁১৬৮	-9151
▁৩য়	-9152
Check	-9153
ডারের	-9154
নাক্ত	-9155
▁$(3,	-9156
▁$2$।	-9157
▁1.20	-9158
▁4012	-9159
▁\(1,	-9160
▁cost	-9161
▁ends	-9162
▁part	-9163
▁ques	-9164
▁অবসর	-9165
▁চুইং	-9166
▁পদকে	-9167
▁বাটি	-9168
▁১৬০০	-9169
সমাধান	-9170
▁could	-9171
▁girls	-9172
▁অঙ্কই	-9173
▁আরোহণ	-9174
▁করলেন	-9175
▁কাঠাম	-9176
▁কিশমি	-9177
▁কেজির	-9178
▁চড়তে	-9179
▁জংকুক	-9180
▁টিনার	-9181
▁তামিম	-9182
▁ত্রিশ	-9183
▁নিরাপ	-9184
▁নোয়া	-9185
▁পড়ছে	-9186
▁মিন্ট	-9187
▁মেগান	-9188
▁রূপার	-9189
▁লিজার	-9190
▁শিমলা	-9191
product	-9192
▁select	-9193
▁taking	-9194
▁উভয়কে	-9195
▁গোলাপি	-9196
▁চালাবে	-9197
▁ডাইমের	-9198
▁তিনটির	-9199
▁প্যাটি	-9200
▁রাখবেন	-9201
▁লগারিদ	-9202
প্রতিদিন	-9203
্যারিয়ে	-9204
▁______।	-9205
▁example	-9206
▁looking	-9207
▁অর্জনের	-9208
▁আউন্সের	-9209
▁কার্টুন	-9210
▁চ্যাম্প	-9211
▁প্রদর্শ	-9212
▁মটরশুটি	-9213
▁লিখেছিল	-9214
▁সন্ধ্যা	-9215
▁হিসাবের	-9216
▁greatest	-9217
▁কাপকেকের	-9218
▁ঘূর্ণনের	-9219
▁ব্যবধিতে	-9220
▁ব্যান্ডে	-9221
▁অ্যালবামে	-9222
▁ক্যাফেটের	-9223
▁বিনিময়ের	-9224
▁স্টিভেনের	-9225
প্রয়োজনীয়	-9226
▁Conclusion	-9227
▁সপ্তাহান্ত	-9228
▁অর্ধবৃত্তের	-9229
▁অ্যাকাউন্টে	-9230
▁সিলিন্ডারের	-9231
▁পরীক্ষার্থীর	-9232
▁ড্যান্ডেলিয়ন	-9233
=$	-9234
gs	-9235
ঠন	-9236
/12	-9237
666	-9238
cba	-9239
elf	-9240
{1}	-9241
অনু	-9242
টিভ	-9243
দুপ	-9244
পুন	-9245
্নি	-9246
▁এন	-9247
▁তত	-9248
▁৯১	-9249
^2}{	-9250
elta	-9251
শনার	-9252
হনের	-9253
▁$32	-9254
▁$\\	-9255
▁116	-9256
▁2$.	-9257
▁2/3	-9258
▁27,	-9259
▁3),	-9260
▁30%	-9261
▁435	-9262
▁660	-9263
▁7$,	-9264
▁960	-9265
▁map	-9266
▁অন্	-9267
▁কৌশ	-9268
▁জিহ	-9269
▁টনি	-9270
▁টুল	-9271
▁পলি	-9272
▁বদল	-9273
▁বুট	-9274
▁বেড	-9275
▁মডে	-9276
ducts	-9277
inite	-9278
osing	-9279
theta	-9280
which	-9281
}{24}	-9282
কার্ড	-9283
দৃশ্য	-9284
মূল্য	-9285
্র্যা	-9286
▁2022	-9287
▁20\]	-9288
▁2\),	-9289
▁\(16	-9290
▁inde	-9291
▁আঙুর	-9292
▁একের	-9293
▁কেলি	-9294
▁বেটি	-9295
▁সাপে	-9296
▁সালা	-9297
▁সেশন	-9298
▁সোফি	-9299
▁৳২০০	-9300
isters	-9301
বর্তিত	-9302
য়েলের	-9303
িকভাবে	-9304
▁(1/2)	-9305
▁indiv	-9306
▁shirt	-9307
▁taken	-9308
▁width	-9309
▁আসন্ন	-9310
▁কেলির	-9311
▁ক্লার	-9312
▁চলমান	-9313
▁ট্রাপ	-9314
▁ডলফিন	-9315
▁তারকা	-9316
▁দরজার	-9317
▁পাশকে	-9318
▁প্রিন	-9319
▁ভূগোল	-9320
▁মিটবল	-9321
▁হ্যাট	-9322
তোমধ্যে	-9323
▁pieces	-9324
▁plates	-9325
▁অনুরোধ	-9326
▁আউটপুট	-9327
▁কাটায়	-9328
▁গণনায়	-9329
▁ঘড়িটি	-9330
▁চিপসের	-9331
▁ঝুড়ির	-9332
▁পতাকার	-9333
▁পারেনি	-9334
▁যোগফলে	-9335
▁স্টকের	-9336
33333333	-9337
ominator	-9338
লিভিয়ার	-9339
▁অঞ্চলের	-9340
▁অপারেশন	-9341
▁কুকুরকে	-9342
▁কোয়ালা	-9343
▁ক্রেডিট	-9344
▁জাকিরের	-9345
▁দুইজনের	-9346
▁পরামর্শ	-9347
▁পর্যায়	-9348
▁পেরেছিল	-9349
▁বালতিতে	-9350
▁ব্যঞ্জন	-9351
▁ভেরিয়ে	-9352
▁মানদণ্ড	-9353
▁লিখেছেন	-9354
▁সমাবেশে	-9355
▁সাজিয়ে	-9356
▁coeffici	-9357
▁guarante	-9358
▁প্লাস্টি	-9359
▁ভিক্টোরি	-9360
▁রাউন্ডের	-9361
▁সমাধানটি	-9362
▁সাপেক্ষে	-9363
▁স্তরীভূত	-9364
Conclusion	-9365
▁অঙ্কযুক্ত	-9366
▁পাঠিয়েছে	-9367
▁ব্রেন্ডার	-9368
▁represents	-9369
▁অবশিষ্টাংশ	-9370
পার্শ্বযুক্ত	-9371
▁equilateral	-9372
▁ফেব্রুয়ারি	-9373
▁ফ্যাক্টোরাই	-9374
▁ব্যবহারকারী	-9375
▁প্রতিস্থাপিত	-9376
((	-9377
+9	-9378
91	-9379
PP	-9380
`,	-9381
এস	-9382
হর	-9383
ৎস	-9384
00)	-9385
24}	-9386
ঁচে	-9387
ডান	-9388
ডেক	-9389
র্ক	-9390
শিং	-9391
োজক	-9392
▁ob	-9393
▁sp	-9394
▁সস	-9395
▁৬৯	-9396
)**:	-9397
)}\]	-9398
ants	-9399
lock	-9400
ores	-9401
করের	-9402
কিমি	-9403
ফটিং	-9404
হলুদ	-9405
্রেস	-9406
্লেক	-9407
▁$23	-9408
▁(16	-9409
▁1$.	-9410
▁1)(	-9411
▁149	-9412
▁399	-9413
▁6$।	-9414
▁ice	-9415
▁sim	-9416
▁typ	-9417
▁আন্	-9418
▁ইমে	-9419
▁এলো	-9420
▁জাল	-9421
▁ঝিন	-9422
▁ডুব	-9423
▁পেত	-9424
▁ভাব	-9425
▁রিক	-9426
▁লেখ	-9427
▁শান	-9428
ately	-9429
point	-9430
{2016	-9431
চারের	-9432
ছিলাম	-9433
দিয়া	-9434
পারের	-9435
মাসের	-9436
স্যার	-9437
াবর্ষ	-9438
▁$56$	-9439
▁0.12	-9440
▁1100	-9441
▁2014	-9442
▁2:**	-9443
▁আলোর	-9444
▁এগার	-9445
▁টুলী	-9446
▁ধরণে	-9447
▁নকশা	-9448
▁বাঁচ	-9449
▁মণির	-9450
▁মতোই	-9451
▁রোগী	-9452
▁লাগা	-9453
▁সুমন	-9454
▁স্রো	-9455
▁হাতি	-9456
▁৳৫০০	-9457
_{100}	-9458
▁Pairs	-9459
▁cream	-9460
▁teach	-9461
▁অ্যাথ	-9462
▁আগস্ট	-9463
▁কিনার	-9464
▁চুষকি	-9465
▁ছবিতে	-9466
▁জিমিন	-9467
▁জেতার	-9468
▁ফ্রেম	-9469
▁ফ্লাই	-9470
▁সস্তা	-9471
▁স্পেস	-9472
▁১৮০টি	-9473
angular	-9474
কেন্দ্র	-9475
বর্তমান	-9476
▁ranges	-9477
▁ইভানের	-9478
▁পরিধির	-9479
▁পোকেমন	-9480
▁ফার্মে	-9481
▁ভাড়ার	-9482
▁মৃত্যু	-9483
▁লাফাতে	-9484
▁হাঁটার	-9485
Simplify	-9486
▁meaning	-9487
▁অন্যদের	-9488
▁অষ্টভুজ	-9489
▁অ্যানের	-9490
▁উৎপাদকে	-9491
▁খেলেছিল	-9492
▁চিহুয়া	-9493
▁টাইলসের	-9494
▁পাখিদের	-9495
▁মূর্তির	-9496
▁ললিপপের	-9497
▁লুকিয়ে	-9498
▁স্কার্ট	-9499
▁Function	-9500
▁অধিনায়ক	-9501
▁অ্যান্টি	-9502
▁আবিষ্কার	-9503
▁উচ্চতায়	-9504
▁কুকুরটির	-9505
▁টুথব্রাশ	-9506
▁নিয়েছেন	-9507
▁পর্যাপ্ত	-9508
▁বিন্যাসে	-9509
▁Similarly	-9510
▁জানুয়ারী	-9511
▁ভিন্নভাবে	-9512
▁স্টার্টার	-9513
▁decreasing	-9514
▁অপরিবর্তিত	-9515
▁ক্রীড়াবিদ	-9516
▁নির্বিশেষে	-9517
▁মোটরসাইকেল	-9518
▁রেফ্রিজারে	-9519
▁খেলোয়াড়কে	-9520
▁প্রেসিডেন্ট	-9521
▁ব্যাটসম্যান	-9522
▁হোমওয়ার্কের	-9523
▁শীর্ষবিন্দুকে	-9524
▁প্যালিনড্রোমিক	-9525
BE	-9526
rd	-9527
{0	-9528
/10	-9529
eks	-9530
hot	-9531
}^3	-9532
দশক	-9533
ভিল	-9534
ষেধ	-9535
হুল	-9536
্জি	-9537
্বি	-9538
্যব	-9539
১২৮	-9540
▁5-	-9541
▁6:	-9542
▁BE	-9543
▁bu	-9544
▁মন	-9545
▁৯৩	-9546
homb	-9547
name	-9548
oper	-9549
আপেল	-9550
উচ্চ	-9551
গণনা	-9552
ঙ্গি	-9553
ত্রু	-9554
দলের	-9555
র্বি	-9556
হিদা	-9557
োরের	-9558
৫০টি	-9559
▁154	-9560
▁2$।	-9561
▁20.	-9562
▁243	-9563
▁26,	-9564
▁3$।	-9565
▁80%	-9566
▁8\]	-9567
▁his	-9568
▁nth	-9569
▁try	-9570
▁চলা	-9571
▁টয়	-9572
▁ডের	-9573
▁নাও	-9574
▁নির	-9575
▁পেঁ	-9576
▁রেল	-9577
▁১২৮	-9578
▁১৯৯	-9579
▁২২০	-9580
aults	-9581
{10}$	-9582
}{3}\	-9583
উয়ের	-9584
থানের	-9585
ন্সির	-9586
্সাইড	-9587
▁$80$	-9588
▁1250	-9589
▁1:**	-9590
▁Case	-9591
▁plac	-9592
▁show	-9593
▁আচার	-9594
▁কায়	-9595
▁গমের	-9596
▁জটিল	-9597
▁দানব	-9598
▁দাবি	-9599
▁ধরার	-9600
▁ধোয়	-9601
▁পাবো	-9602
▁পালক	-9603
▁বইতে	-9604
▁বলছে	-9605
▁মাছি	-9606
▁যোগী	-9607
▁৪৯টি	-9608
▁৫৫টি	-9609
)^{10}	-9610
ematic	-9611
hombus	-9612
য়ারার	-9613
য়েনের	-9614
▁40320	-9615
▁ensur	-9616
▁obser	-9617
▁whole	-9618
▁ইসাবে	-9619
▁কোষের	-9620
▁চড়ার	-9621
▁জামিল	-9622
▁জেরিন	-9623
▁ডেভিড	-9624
▁দেশের	-9625
▁ধ্রুব	-9626
▁পেরেক	-9627
▁মডুলো	-9628
▁মুক্ত	-9629
▁রাখবে	-9630
▁লাফের	-9631
▁হিল্ট	-9632
পরবর্তী	-9633
▁vertic	-9634
▁অক্টোব	-9635
▁অধ্যাপ	-9636
▁আশ্রয়	-9637
▁উন্নীত	-9638
▁উভয়েই	-9639
▁কাউন্ট	-9640
▁দুজনেই	-9641
▁পশ্চিম	-9642
▁বহুপদী	-9643
▁ভাইদের	-9644
▁রাঙানো	-9645
▁সিলভার	-9646
atorname	-9647
পার্থক্য	-9648
▁analyze	-9649
▁another	-9650
▁Multiple	-9651
▁midpoint	-9652
▁ইতোমধ্যে	-9653
▁উৎপাদনের	-9654
▁মাকড়সার	-9655
▁শনিবারের	-9656
▁Thursdays	-9657
▁অনুশীলনের	-9658
▁পরিসংখ্যা	-9659
▁হাসপাতালে	-9660
▁পার্শ্বীয়	-9661
operatorname	-9662
▁প্লাস্টিকের	-9663
▁distribution	-9664
▁ক্যাফেটেরিয়ায়	-9665
av	-9666
da	-9667
**,	-9668
_4,	-9669
aka	-9670
edr	-9671
mar	-9672
ush	-9673
}{9	-9674
জেল	-9675
র্ন	-9676
লিও	-9677
শনি	-9678
▁bc	-9679
▁৭৩	-9680
hour	-9681
icks	-9682
imal	-9683
vert	-9684
চিনি	-9685
ধনের	-9686
বকের	-9687
বিকা	-9688
ভারে	-9689
ভ্যা	-9690
্লাউ	-9691
৮০টি	-9692
▁(18	-9693
▁(90	-9694
▁10(	-9695
▁1^2	-9696
▁390	-9697
▁3^1	-9698
▁45,	-9699
▁4\]	-9700
▁56$	-9701
▁560	-9702
▁5\]	-9703
▁60,	-9704
▁9\}	-9705
▁Div	-9706
▁Tam	-9707
▁bis	-9708
▁ধাত	-9709
▁লেট	-9710
▁শশা	-9711
Prime	-9712
edron	-9713
valid	-9714
জুনের	-9715
ঞ্জার	-9716
দারের	-9717
পৃষ্ঠ	-9718
্যমান	-9719
▁$2^2	-9720
▁$32$	-9721
▁10^2	-9722
▁1300	-9723
▁\{1,	-9724
▁gets	-9725
▁rows	-9726
▁কারা	-9727
▁কেসে	-9728
▁গর্ড	-9729
▁গেলো	-9730
▁জলাশ	-9731
▁জাফর	-9732
▁জোসে	-9733
▁তমাল	-9734
▁তানি	-9735
▁থ্রো	-9736
▁মূলা	-9737
▁২০তম	-9738
▁২০২১	-9739
▁৩৭টি	-9740
textbf	-9741
{3}{5}	-9742
}{120}	-9743
দূরত্ব	-9744
▁\(1\)	-9745
▁zeros	-9746
▁অগ্নি	-9747
▁করতেন	-9748
▁ক্লোন	-9749
▁খেলাই	-9750
▁গসাগু	-9751
▁গ্রিন	-9752
▁ছোটতম	-9753
▁ডিলিট	-9754
▁নাবিক	-9755
▁পাম্প	-9756
▁পিৎজা	-9757
▁পুকুর	-9758
▁বৃক্ষ	-9759
▁ভ্যাক	-9760
▁ম্যাথ	-9761
▁শর্টস	-9762
▁স্টিভ	-9763
^{2016}	-9764
ইটবোর্ড	-9765
▁1)}{2}	-9766
▁Points	-9767
▁itself	-9768
▁plants	-9769
▁ইচ্ছুক	-9770
▁তোমাকে	-9771
▁দুর্ঘট	-9772
▁নিজেকে	-9773
▁ফ্লোরে	-9774
▁বিরতির	-9775
▁ব্যবসা	-9776
▁মরিয়ম	-9777
▁লেমনেড	-9778
▁সনাক্ত	-9779
▁অক্ষরটি	-9780
▁গ্যাসের	-9781
▁চেয়ারে	-9782
▁জ্যাকসন	-9783
▁পোর্টফো	-9784
▁বাচ্চার	-9785
▁বিষয়টি	-9786
▁বুধবারে	-9787
▁মৌসুমের	-9788
▁সদস্যকে	-9789
▁সাহিত্য	-9790
▁স্ট্রিপ	-9791
▁হিসাবটি	-9792
▁complete	-9793
▁উভয়পক্ষ	-9794
▁প্রযোজ্য	-9795
▁বলেছিলেন	-9796
▁বিনিময়ে	-9797
▁ভগ্নাংশে	-9798
▁রেসিপিতে	-9799
▁সম্প্রতি	-9800
▁স্যান্ডি	-9801
▁সরলরেখায়	-9802
▁সূর্যমুখী	-9803
পূর্ণসংখ্যা	-9804
▁individual	-9805
▁উৎপাদকগুলি	-9806
▁আশ্রয়স্থলে	-9807
.1	-9808
34	-9809
52	-9810
69	-9811
82	-9812
:}	-9813
=6	-9814
BD	-9815
NO	-9816
Re	-9817
ln	-9818
tg	-9819
রঙ	-9820
৪৭	-9821
)$,	-9822
-5)	-9823
.10	-9824
0),	-9825
5$।	-9826
:\\	-9827
=0}	-9828
ply	-9829
ull	-9830
{21	-9831
গাছ	-9832
জনন	-9833
জুন	-9834
টিশ	-9835
বাব	-9836
▁3}	-9837
▁5%	-9838
▁fl	-9839
▁নো	-9840
▁ভৌ	-9841
)^2}	-9842
-14)	-9843
^{4}	-9844
alys	-9845
case	-9846
ত্তম	-9847
ন্তু	-9848
পাতি	-9849
ফলিত	-9850
মধ্য	-9851
ারম্	-9852
▁141	-9853
▁147	-9854
▁189	-9855
▁2),	-9856
▁380	-9857
▁5^1	-9858
▁5^3	-9859
▁6$,	-9860
▁\[8	-9861
▁\[=	-9862
▁was	-9863
▁দেই	-9864
▁সংক	-9865
▁সুজ	-9866
▁সের	-9867
▁হোস	-9868
▁১১৫	-9869
large	-9870
ouble	-9871
rowth	-9872
}{35}	-9873
ফারের	-9874
বিশেষ	-9875
শুদ্ধ	-9876
▁$200	-9877
▁$26$	-9878
▁$5$,	-9879
▁1)^2	-9880
▁10\]	-9881
▁1260	-9882
▁7000	-9883
▁\[20	-9884
▁goal	-9885
▁আবৃত	-9886
▁আর্থ	-9887
▁জসিম	-9888
▁ডেবি	-9889
▁তাজা	-9890
▁দেবো	-9891
▁পারব	-9892
▁বলার	-9893
▁বেবি	-9894
▁রুমে	-9895
▁রোজি	-9896
▁শ্যা	-9897
▁স্কে	-9898
▁৫৪টি	-9899
alysis	-9900
equent	-9901
{9}{2}	-9902
ন্তব্য	-9903
বিড়াল	-9904
্রাসের	-9905
▁$200$	-9906
▁(1/4)	-9907
▁12000	-9908
▁fifth	-9909
▁incre	-9910
▁weeks	-9911
▁আঁকতে	-9912
▁ওটমিল	-9913
▁ক্রিম	-9914
▁গুচ্ছ	-9915
▁চলচ্চ	-9916
▁ছাড়ে	-9917
▁জেনির	-9918
▁তামার	-9919
▁তুলসী	-9920
▁বন্টন	-9921
▁বাতিল	-9922
▁সেটটি	-9923
clusive	-9924
ল্যান্ড	-9925
ারম্ভিক	-9926
▁equals	-9927
▁আলমারি	-9928
▁কুকিতে	-9929
▁চাবিকা	-9930
▁পরাজিত	-9931
▁রবিনের	-9932
▁সহকর্ম	-9933
▁স্বামী	-9934
▁sisters	-9935
▁অন্যটির	-9936
▁এড়িয়ে	-9937
▁ক্রোয়া	-9938
▁গ্যালনে	-9939
▁জোন্সের	-9940
▁তালিকার	-9941
▁নিঃশেষে	-9942
▁নিকেলের	-9943
▁পরিপূরক	-9944
▁পরিষেবা	-9945
▁প্ল্যান	-9946
▁বান্ডিল	-9947
▁বিশুদ্ধ	-9948
▁ম্যাঙ্গ	-9949
▁ল্যাপটপ	-9950
▁সংস্করণ	-9951
▁সিনেমার	-9952
divisible	-9953
▁Equation	-9954
▁parallel	-9955
▁quotient	-9956
▁simplest	-9957
▁ইংরেজিতে	-9958
▁গুণিতকটি	-9959
▁জাভিয়ার	-9960
▁তালিয়ার	-9961
▁দেখাচ্ছে	-9962
▁পৃথকভাবে	-9963
▁বিদ্যমান	-9964
▁স্যুটকেস	-9965
▁initially	-9966
▁একাধিকবার	-9967
▁শিক্ষকদের	-9968
▁ক্লায়েন্ট	-9969
▁চালিয়েছেন	-9970
▁শিক্ষাবর্ষ	-9971
▁ক্ষেত্রগুলি	-9972
▁ত্রুটিপূর্ণ	-9973
▁সম্পর্কগুলি	-9974
(6	-9975
-4	-9976
ংস	-9977
ভো	-9978
াট	-9979
েন	-9980
+1$	-9981
15,	-9982
154	-9983
3\)	-9984
The	-9985
_1)	-9986
iod	-9987
ong	-9988
phi	-9989
pos	-9990
sol	-9991
uts	-9992
wor	-9993
খুঁ	-9994
চরা	-9995
সরল	-9996
িনী	-9997
োনে	-9998
▁1।	-9999
▁2।	-10000
▁4\	-10001
▁ca	-10002
▁এত	-10003
▁৩ক	-10004
!}{1	-10005
1415	-10006
_2^2	-10007
ceed	-10008
ored	-10009
ডনির	-10010
িষ্ঠ	-10011
ীরার	-10012
্বার	-10013
ৎকার	-10014
৩৬টি	-10015
▁$$2	-10016
▁$27	-10017
▁21$	-10018
▁29.	-10019
▁2^5	-10020
▁4$.	-10021
▁48$	-10022
▁49,	-10023
▁50%	-10024
▁53,	-10025
▁6.5	-10026
▁8$,	-10027
▁880	-10028
▁All	-10029
▁অবি	-10030
▁ইরা	-10031
▁গাভ	-10032
▁থিও	-10033
▁রুট	-10034
▁সবই	-10035
▁৪২০	-10036
,000$	-10037
Delta	-10038
^{12}	-10039
_{15}	-10040
equal	-10041
ircle	-10042
তুলের	-10043
দশকের	-10044
ন্টার	-10045
সানের	-10046
সিডের	-10047
স্ত্র	-10048
ুমিনি	-10049
▁$(0,	-10050
▁$(10	-10051
▁$22$	-10052
▁$23$	-10053
▁$5$।	-10054
▁$6$।	-10055
▁(1.0	-10056
▁0.08	-10057
▁10$।	-10058
▁120.	-10059
▁2007	-10060
▁2023	-10061
▁20\)	-10062
▁2100	-10063
▁22.5	-10064
▁9000	-10065
▁\(25	-10066
▁grid	-10067
▁ইভান	-10068
▁গুদি	-10069
▁ঘনের	-10070
▁চ্যা	-10071
▁জমান	-10072
▁জসীম	-10073
▁জেমি	-10074
▁ধাতু	-10075
▁পটির	-10076
▁প্রহ	-10077
▁বসবে	-10078
▁বেকন	-10079
▁সাকি	-10080
▁সিজন	-10081
▁সুতা	-10082
▁স্নো	-10083
▁২০০৮	-10084
▁৪৪টি	-10085
encils	-10086
inally	-10087
{5}{4}	-10088
{8}{5}	-10089
উদাহরণ	-10090
টাইজার	-10091
শালায়	-10092
িন্ডার	-10093
▁$10$।	-10094
▁again	-10095
▁round	-10096
▁আজকের	-10097
▁এনেছে	-10098
▁কন্টে	-10099
▁কিনবে	-10100
▁কোণটি	-10101
▁ক্যাপ	-10102
▁গোলকি	-10103
▁জিমের	-10104
▁ডানার	-10105
▁ডিভাই	-10106
▁ফারেন	-10107
▁বেলাল	-10108
▁ব্লাউ	-10109
{12}{2}	-10110
{1}{10}	-10111
{4}{3}\	-10112
ভিত্তিক	-10113
▁period	-10114
▁অনুবাদ	-10115
▁অন্যটি	-10116
▁গবেষণা	-10117
▁চতুষ্প	-10118
▁দইয়ের	-10119
▁দুইগুণ	-10120
▁পিকনিক	-10121
▁প্লেটে	-10122
▁বিয়ার	-10123
▁মাউন্ট	-10124
▁যায়নি	-10125
প্রশ্নের	-10126
▁general	-10127
▁অ্যাসিড	-10128
▁উভয়েরই	-10129
▁করছিলেন	-10130
▁কোণগুলি	-10131
▁গুণফলটি	-10132
▁দৃশ্যের	-10133
▁নিক্ষেপ	-10134
▁নিযুক্ত	-10135
▁পছন্দসই	-10136
▁পার্টির	-10137
▁বিষয়েই	-10138
▁বোতামের	-10139
▁হিপোপটা	-10140
▁exchange	-10141
▁hundreds	-10142
▁আক্রান্ত	-10143
▁চেয়েছিল	-10144
▁টপিংয়ের	-10145
▁ফারেনহাই	-10146
▁বিশেষজ্ঞ	-10147
▁রায়ানের	-10148
▁Condition	-10149
▁জীববিদ্যা	-10150
▁পড়েছিলেন	-10151
▁মার্কাসের	-10152
▁শুক্রবারে	-10153
▁সুপারমার্	-10154
▁অতিক্রান্ত	-10155
▁অ্যালুমিনি	-10156
▁প্রতিযোগিতার	-10157
▁quadrilateral	-10158
+\	-10159
^7	-10160
mu	-10161
৭৩	-10162
(6)	-10163
(9)	-10164
)$.	-10165
2$,	-10166
Com	-10167
^{8	-10168
ags	-10169
izz	-10170
দির	-10171
সুম	-10172
▁6!	-10173
▁8।	-10174
▁আশ	-10175
▁লঘ	-10176
+2+3	-10177
5555	-10178
6789	-10179
8888	-10180
ches	-10181
tend	-10182
till	-10183
আপের	-10184
ধিনি	-10185
পরের	-10186
িকোণ	-10187
ুলার	-10188
্রিন	-10189
▁$34	-10190
▁1):	-10191
▁152	-10192
▁205	-10193
▁245	-10194
▁630	-10195
▁Con	-10196
▁পেছ	-10197
▁রনি	-10198
▁রাস	-10199
▁লরা	-10200
▁শুন	-10201
▁সচি	-10202
▁সাং	-10203
▁১০২	-10204
▁৯৯৯	-10205
!}{5!	-10206
ength	-10207
আউটের	-10208
কুকুর	-10209
গ্যাল	-10210
ডিয়া	-10211
দ্বিখ	-10212
ম্বরে	-10213
াকারে	-10214
ামূলক	-10215
▁$(4,	-10216
▁0.04	-10217
▁1008	-10218
▁12\)	-10219
▁15\]	-10220
▁2020	-10221
▁3\).	-10222
▁\(64	-10223
▁turn	-10224
▁আগুন	-10225
▁আটার	-10226
▁আলেক	-10227
▁ইউনা	-10228
▁কিউব	-10229
▁ঘেরা	-10230
▁ডাবল	-10231
▁পশুর	-10232
▁পুলে	-10233
▁ফিনি	-10234
▁বারে	-10235
▁ব্রো	-10236
▁মজার	-10237
▁মেনু	-10238
▁যদিও	-10239
▁লিমা	-10240
▁লীগে	-10241
▁শিহা	-10242
▁শ্রম	-10243
▁সুজি	-10244
▁২০০৫	-10245
▁৬ষ্ঠ	-10246
hedron	-10247
{7}{8}	-10248
{8}{4}	-10249
বুধবার	-10250
▁\(6\)	-10251
▁\(8\)	-10252
▁parts	-10253
▁অপরকে	-10254
▁অব্যা	-10255
▁উলম্ব	-10256
▁কাঙ্গ	-10257
▁খুচরা	-10258
▁গোল্ড	-10259
▁টেকনি	-10260
▁টেপের	-10261
▁তীব্র	-10262
▁নীলের	-10263
▁বন্ধন	-10264
▁বিনের	-10265
▁বেঞ্চ	-10266
▁শিফটে	-10267
▁শোবার	-10268
▁হাঙ্গ	-10269
▁হেনরি	-10270
▁হোয়া	-10271
-3)}{2}	-10272
ধিনিষেধ	-10273
পদক্ষেপ	-10274
▁অর্জিত	-10275
▁ওয়াইন	-10276
▁জীবনের	-10277
▁নারকেল	-10278
▁বইগুলো	-10279
▁বারবার	-10280
▁রায়ান	-10281
▁রাশিকে	-10282
▁রাশিতে	-10283
০০০০০০০০	-10284
▁Divisor	-10285
▁Sundays	-10286
▁ক্রয়ের	-10287
▁গন্তব্য	-10288
▁চুইংগাম	-10289
▁জাদুঘরে	-10290
▁জানালার	-10291
▁জেরিনের	-10292
▁ডোনাটের	-10293
▁দ্বিপদী	-10294
▁পাঠানোর	-10295
▁ফ্রেডের	-10296
▁বাড়িটি	-10297
▁বেকারের	-10298
▁মার্থার	-10299
▁রাবারের	-10300
▁রেখেছেন	-10301
▁সংখ্যাও	-10302
▁সৈন্যের	-10303
▁হ্রাসের	-10304
▁identify	-10305
▁rotation	-10306
▁অলিভিয়া	-10307
▁ছাড়িয়ে	-10308
▁জিনিসটির	-10309
▁পিজ্জায়	-10310
▁প্রকল্পে	-10311
▁প্রকাশিত	-10312
▁প্রথমটির	-10313
▁সমানুপাত	-10314
▁Wednesday	-10315
▁প্রতিফলিত	-10316
▁সম্পর্কটি	-10317
▁Chocolates	-10318
▁percentage	-10319
▁পোর্টফোলিও	-10320
▁শুক্রবারের	-10321
▁বাক্সগুলিতে	-10322
▁সম্প্রদায়ের	-10323
)/	-10324
=5	-10325
MN	-10326
পক	-10327
৮৬	-10328
---	-10329
-1$	-10330
.03	-10331
12$	-10332
90}	-10333
=2$	-10334
_4$	-10335
ams	-10336
met	-10337
pty	-10338
{3,	-10339
আয়	-10340
এখন	-10341
গাল	-10342
থান	-10343
পেজ	-10344
লীন	-10345
হ্য	-10346
০টি	-10347
১২৬	-10348
৪২০	-10349
▁$-	-10350
▁1-	-10351
▁8!	-10352
▁CA	-10353
▁ml	-10354
▁টক	-10355
▁৳৯	-10356
ctop	-10357
east	-10358
eria	-10359
even	-10360
ings	-10361
valu	-10362
অন্ত	-10363
অন্য	-10364
গলের	-10365
জ্যা	-10366
ন্দর	-10367
শুনা	-10368
স্তী	-10369
োন্য	-10370
্লিপ	-10371
১৪টি	-10372
▁(60	-10373
▁153	-10374
▁21.	-10375
▁3/4	-10376
▁32,	-10377
▁325	-10378
▁3\]	-10379
▁50,	-10380
▁640	-10381
▁850	-10382
▁ear	-10383
▁আশে	-10384
▁উদয	-10385
▁কিক	-10386
▁টমি	-10387
▁ডোজ	-10388
▁নিউ	-10389
▁পচা	-10390
▁পেল	-10391
▁মাক	-10392
▁মেঘ	-10393
▁লিজ	-10394
▁১০১	-10395
▁১২৭	-10396
-4)!}	-10397
_{11}	-10398
alent	-10399
}{13}	-10400
মাদের	-10401
স্টিক	-10402
হস্তী	-10403
০০০টি	-10404
▁1.06	-10405
▁1517	-10406
▁2520	-10407
▁Shah	-10408
▁cans	-10409
▁eats	-10410
▁game	-10411
▁উঠতে	-10412
▁কৌশল	-10413
▁ক্রো	-10414
▁খোসা	-10415
▁চিতা	-10416
▁জেসি	-10417
▁তাতে	-10418
▁বলেন	-10419
▁মোড়	-10420
▁লিখি	-10421
▁শাখা	-10422
▁শুধু	-10423
▁শেল্	-10424
▁সিটি	-10425
▁সুদে	-10426
▁সূচক	-10427
▁২৯টি	-10428
ctopus	-10429
{7}{3}	-10430
প্রথমে	-10431
স্পষ্ট	-10432
াকালীন	-10433
▁$1000	-10434
▁Prime	-10435
▁These	-10436
▁\(5\)	-10437
▁অমলেট	-10438
▁অ্যান	-10439
▁আনারস	-10440
▁গৃহীত	-10441
▁চর্বি	-10442
▁জমানো	-10443
▁জলপাই	-10444
▁জাঙ্ক	-10445
▁জারের	-10446
▁ডক্টর	-10447
▁তারার	-10448
▁ধোয়া	-10449
▁প্লাগ	-10450
▁বাঘের	-10451
▁বেঁচে	-10452
▁বেলার	-10453
▁স্থাপ	-10454
▁হীরার	-10455
▁৬০০টি	-10456
maining	-10457
ক্ষিপ্ত	-10458
▁around	-10459
▁salary	-10460
▁slices	-10461
▁অপসারণ	-10462
▁এলাকার	-10463
▁কল্পনা	-10464
▁জাস্টি	-10465
▁প্রচার	-10466
▁প্রচুর	-10467
▁বর্ণমা	-10468
▁বাকিটা	-10469
▁সংযোজন	-10470
▁হাইকিং	-10471
ক্ষেত্রে	-10472
চূড়ান্ত	-10473
৬৬৬৬৬৬৬৬	-10474
▁friends	-10475
▁theorem	-10476
▁কুমড়ার	-10477
▁পুতুলের	-10478
▁প্ল্যাট	-10479
▁ফেলেছিল	-10480
▁বিদ্যুৎ	-10481
▁বোর্ডের	-10482
▁ভিত্তিক	-10483
▁শ্যাম্প	-10484
▁সাইক্লি	-10485
▁স্রোতের	-10486
▁হ্যারির	-10487
▁minimize	-10488
▁receives	-10489
▁অর্ডারের	-10490
▁বিয়োগফল	-10491
▁ব্রায়ান	-10492
▁লাফালাফি	-10493
▁guarantee	-10494
▁উপস্থাপনা	-10495
▁কাটিয়েছে	-10496
▁ডাক্তারের	-10497
▁প্রদর্শিত	-10498
▁বিধিনিষেধ	-10499
▁মিলিগ্রাম	-10500
▁operations	-10501
▁remainders	-10502
▁কার্যকলাপে	-10503
▁তাপমাত্রার	-10504
▁প্রারম্ভিক	-10505
▁রান্নাঘরের	-10506
▁rectangular	-10507
▁ক্ষেত্রফলকে	-10508
▁চ্যাম্পিয়ন	-10509
▁ত্রিভুজগুলি	-10510
▁ব্যবস্থাপনা	-10511
▁divisibility	-10512
▁ত্রিভুজগুলির	-10513
,$	-10514
87	-10515
=4	-10516
aa	-10517
gh	-10518
ss	-10519
উল	-10520
খর	-10521
ঠে	-10522
তী	-10523
৪১	-10524
৮১	-10525
*}\	-10526
809	-10527
[3]	-10528
_{3	-10529
fid	-10530
বড়	-10531
লেস	-10532
ীরা	-10533
োটা	-10534
্ডা	-10535
▁4।	-10536
▁6}	-10537
▁eg	-10538
▁আং	-10539
$:**	-10540
ough	-10541
rang	-10542
were	-10543
{200	-10544
কারি	-10545
জ্জা	-10546
তারা	-10547
ধিতা	-10548
পালা	-10549
মাইল	-10550
মূলদ	-10551
রিয়	-10552
সমান	-10553
সর্ব	-10554
▁10-	-10555
▁129	-10556
▁12।	-10557
▁22$	-10558
▁262	-10559
▁275	-10560
▁2^6	-10561
▁315	-10562
▁440	-10563
▁5$.	-10564
▁5$।	-10565
▁60%	-10566
▁8.5	-10567
▁der	-10568
▁ওরি	-10569
▁কুপ	-10570
▁জুই	-10571
▁ডিউ	-10572
▁দের	-10573
▁বিব	-10574
▁ভবন	-10575
▁যৌথ	-10576
▁শিং	-10577
▁শেফ	-10578
}{50}	-10579
ক্ষাপ	-10580
টুকরো	-10581
রিকের	-10582
লারের	-10583
▁$48$	-10584
▁0.02	-10585
▁1)$,	-10586
▁1.10	-10587
▁1189	-10588
▁3\),	-10589
▁Rash	-10590
▁\(30	-10591
▁cell	-10592
▁enti	-10593
▁item	-10594
▁mass	-10595
▁pizz	-10596
▁were	-10597
▁অন্ধ	-10598
▁অফার	-10599
▁অসম্	-10600
▁কম্প	-10601
▁খুশি	-10602
▁চালক	-10603
▁তখনই	-10604
▁ভাঁজ	-10605
▁মফিন	-10606
▁হাতা	-10607
▁হোটে	-10608
▁৩৮টি	-10609
erator	-10610
ংকারের	-10611
▁Valid	-10612
▁const	-10613
▁equiv	-10614
▁অনাহি	-10615
▁উন্নত	-10616
▁ওয়াং	-10617
▁কন্ডি	-10618
▁কর্তৃ	-10619
▁গেলেন	-10620
▁জিততে	-10621
▁ঝিনুক	-10622
▁টুলীপ	-10623
▁দাগের	-10624
▁পালিশ	-10625
▁প্রজা	-10626
▁মৌসুম	-10627
▁লিসার	-10628
▁সভায়	-10629
▁স্থূল	-10630
▁হাসান	-10631
^{2015}	-10632
reatest	-10633
তবিদ্যা	-10634
ত্রিভুজ	-10635
মাত্রিক	-10636
িনিয়ার	-10637
্সাইডের	-10638
▁center	-10639
▁column	-10640
▁cycles	-10641
▁entire	-10642
▁indeed	-10643
▁shirts	-10644
▁অশূন্য	-10645
▁আঙ্গুল	-10646
▁আলোচনা	-10647
▁কন্যার	-10648
▁ক্যারি	-10649
▁চাহিদা	-10650
▁চিজকেক	-10651
▁জাদুকর	-10652
▁ট্রেনে	-10653
▁ড্রাগন	-10654
▁পাজলের	-10655
▁পুনর্গ	-10656
▁পুরানো	-10657
▁পেত্যা	-10658
▁প্রথমত	-10659
▁বিভাজক	-10660
▁মডেলের	-10661
▁স্প্রি	-10662
▁observe	-10663
▁অব্যাহত	-10664
▁ক্রিসের	-10665
▁জাহাজের	-10666
▁জিমিনের	-10667
▁ত্রিকোণ	-10668
▁নিবন্ধন	-10669
▁পিকনিকে	-10670
▁পেট্রোল	-10671
▁বাজানোর	-10672
▁ব্যাপার	-10673
▁মিশিয়ে	-10674
▁মেলানির	-10675
▁যাত্রীর	-10676
onditions	-10677
নির্দিষ্ট	-10678
▁provided	-10679
▁প্রজাপতি	-10680
▁লেনদেনের	-10681
▁ষড়ভুজটি	-10682
▁স্থাপনের	-10683
▁principle	-10684
▁প্রতিযোগী	-10685
▁ব্যক্তিটি	-10686
▁সংক্ষিপ্ত	-10687
▁সঙ্গীতজ্ঞ	-10688
▁multiplied	-10689
▁উপায়গুলির	-10690
▁বিন্দুগুলি	-10691
▁ব্যাংকারের	-10692
▁Calculating	-10693
▁যুক্তিসঙ্গত	-10694
▁শিক্ষার্থীরা	-10695
▁corresponding	-10696
▁অংশগ্রহণকারীর	-10697
)\	-10698
31	-10699
^9	-10700
উড	-10701
টল	-10702
যথ	-10703
৮৩	-10704
)$:	-10705
)^(	-10706
+1,	-10707
2\)	-10708
760	-10709
^2,	-10710
ail	-10711
riy	-10712
।\\	-10713
কাউ	-10714
টেন	-10715
পাল	-10716
মাছ	-10717
যার	-10718
রিং	-10719
সুদ	-10720
১১৫	-10721
▁!=	-10722
▁7।	-10723
▁অর	-10724
▁৭৭	-10725
0,0)	-10726
{2}{	-10727
তরের	-10728
ত্তা	-10729
রুটি	-10730
লাইট	-10731
শিশু	-10732
াকাশ	-10733
্বেও	-10734
▁$31	-10735
▁$70	-10736
▁(50	-10737
▁1)$	-10738
▁178	-10739
▁25.	-10740
▁New	-10741
▁acc	-10742
▁ext	-10743
▁hyp	-10744
▁আংশ	-10745
▁বরফ	-10746
▁রিফ	-10747
▁শরব	-10748
▁৳১৮	-10749
^{2}+	-10750
ওয়াট	-10751
চারটি	-10752
বাদাম	-10753
রক্ষক	-10754
স্কুপ	-10755
হ্রাস	-10756
্ডারগ	-10757
▁$$\\	-10758
▁$150	-10759
▁$28$	-10760
▁10):	-10761
▁Both	-10762
▁Shan	-10763
▁pres	-10764
▁ইয়ং	-10765
▁কখনও	-10766
▁কোষা	-10767
▁গাভী	-10768
▁চন্দ	-10769
▁ছক্ক	-10770
▁ডার্	-10771
▁দাদা	-10772
▁নদীর	-10773
▁ফোনে	-10774
▁বাড়	-10775
▁ভক্ত	-10776
▁মেগা	-10777
▁সকার	-10778
▁সত্ত	-10779
▁৪৫০০	-10780
উচ্চতা	-10781
গ্যালন	-10782
ধ্যক্ষ	-10783
বোর্ডে	-10784
▁(3/4)	-10785
▁appro	-10786
▁asked	-10787
▁graph	-10788
▁seats	-10789
▁ইউনজি	-10790
▁এঞ্জে	-10791
▁ওভারে	-10792
▁কাঠির	-10793
▁কুমির	-10794
▁গার্ড	-10795
▁ছাদের	-10796
▁জাম্প	-10797
▁জুসের	-10798
▁জেসির	-10799
▁দড়ির	-10800
▁ধানের	-10801
▁বেসিল	-10802
▁যোগীর	-10803
▁লেখেন	-10804
▁লোপেজ	-10805
▁সান্ড	-10806
▁সাবান	-10807
▁স্মিথ	-10808
▁হাঁটা	-10809
{1}{2}$	-10810
দ্বয়ের	-10811
▁Length	-10812
▁fourth	-10813
▁অক্ষের	-10814
▁একদিকে	-10815
▁কনিষ্ঠ	-10816
▁ট্যাংক	-10817
▁ট্রাউট	-10818
▁ট্রাকে	-10819
▁দুপুরে	-10820
▁নম্বরে	-10821
▁পাইপের	-10822
▁বাটিতে	-10823
▁ভেড়ার	-10824
▁মহাকাশ	-10825
▁যানবাহ	-10826
▁শীর্ষে	-10827
▁সাবস্ক	-10828
দ্বিখণ্ড	-10829
বৃহস্পতি	-10830
▁decimal	-10831
▁উপকরণের	-10832
▁ওয়াশিং	-10833
▁গ্রামের	-10834
▁ছড়িয়ে	-10835
▁জেনিফার	-10836
▁দ্রুততম	-10837
▁বাতাসের	-10838
▁ব্র্যাড	-10839
▁মহিলাকে	-10840
▁সবগুলোই	-10841
▁হ্যান্ড	-10842
▁Subtract	-10843
▁অন্যোন্য	-10844
▁কেনাকাটা	-10845
▁ক্যাফেইন	-10846
▁ট্যাক্সি	-10847
▁ট্রেনটির	-10848
▁ব্যয়কৃত	-10849
▁সত্ত্বেও	-10850
▁factorial	-10851
▁কন্ডিশনার	-10852
▁ছাত্রীদের	-10853
▁জেলিবিনের	-10854
▁প্রতিসমতা	-10855
▁প্রাণীদের	-10856
▁প্রেক্ষাপ	-10857
▁ভৌতবিদ্যা	-10858
▁মিথ্যাবাদ	-10859
▁simplified	-10860
▁চেয়েছিলেন	-10861
▁ত্রিভুজটির	-10862
▁পরিকল্পনার	-10863
▁সেমিস্টারে	-10864
▁coefficient	-10865
▁denominator	-10866
▁উল্লম্বভাবে	-10867
▁টেকনিশিয়ান	-10868
▁বৃহস্পতিবারে	-10869
▁Factorization	-10870
▁বৃহস্পতিবারের	-10871
')	-10872
81	-10873
CO	-10874
যু	-10875
শম	-10876
োন	-10877
োভ	-10878
▁)	-10879
)^4	-10880
20)	-10881
3!}	-10882
=4$	-10883
_3$	-10884
gor	-10885
{8}	-10886
নিশ	-10887
পথে	-10888
পিক	-10889
মেন	-10890
শেক	-10891
িরে	-10892
্দি	-10893
৫৬০	-10894
▁'0	-10895
▁-5	-10896
▁00	-10897
▁পঙ	-10898
▁রজ	-10899
(100	-10900
/15)	-10901
1584	-10902
uice	-10903
ward	-10904
{720	-10905
}\\]	-10906
কভার	-10907
তিহা	-10908
পাকা	-10909
লাকে	-10910
৭৫টি	-10911
▁$56	-10912
▁$75	-10913
▁(1-	-10914
▁0$,	-10915
▁142	-10916
▁169	-10917
▁207	-10918
▁224	-10919
▁232	-10920
▁340	-10921
▁729	-10922
▁Per	-10923
▁bul	-10924
▁buy	-10925
▁আজি	-10926
▁আদন	-10927
▁চড়	-10928
▁টোপ	-10929
▁ডিন	-10930
▁থলি	-10931
▁ফলন	-10932
▁হিন	-10933
▁২৮০	-10934
▁৫৬০	-10935
ified	-10936
ushar	-10937
{1}{\	-10938
{2050	-10939
}{45}	-10940
}{64}	-10941
ঙ্গিত	-10942
সেন্স	-10943
▁0.95	-10944
▁16\]	-10945
▁1728	-10946
▁cups	-10947
▁dire	-10948
▁eggs	-10949
▁full	-10950
▁sons	-10951
▁ইউটি	-10952
▁ইয়া	-10953
▁একদল	-10954
▁এডের	-10955
▁এলার	-10956
▁ঝাড়	-10957
▁টুইট	-10958
▁তারি	-10959
▁বন্দ	-10960
▁মেইল	-10961
▁মোটে	-10962
▁শাবক	-10963
▁৬৪টি	-10964
▁৮৪টি	-10965
!}{4!(	-10966
apping	-10967
radius	-10968
{1}{7}	-10969
{2}{2}	-10970
{5}{1}	-10971
{9}{3}	-10972
বিকল্প	-10973
ম্বরের	-10974
সমাবেশ	-10975
সমিনের	-10976
▁$360$	-10977
▁Tamal	-10978
▁rooms	-10979
▁those	-10980
▁অমূলদ	-10981
▁কারলা	-10982
▁চালনা	-10983
▁জেরাল	-10984
▁টাকাই	-10985
▁তোড়া	-10986
▁দশগুণ	-10987
▁নাতির	-10988
▁প্রাই	-10989
▁ফ্রেড	-10990
▁বিরোধ	-10991
▁ভবনের	-10992
▁ভেন্য	-10993
▁মিল্ক	-10994
▁মেলার	-10995
▁যথাযথ	-10996
▁সাইমন	-10997
▁স্কেল	-10998
▁হার্ট	-10999
▁হ্রদে	-11000
▁১৬০টি	-11001
cending	-11002
{1}{2}\	-11003
গ্রহণের	-11004
▁Verify	-11005
▁\(10\)	-11006
▁volume	-11007
▁ইঙ্গিত	-11008
▁কর্তৃক	-11009
▁কাঠামো	-11010
▁গাছটির	-11011
▁চক্রের	-11012
▁জেব্রা	-11013
▁তত্ত্ব	-11014
▁নিচ্ছে	-11015
▁প্রিজম	-11016
▁বেলায়	-11017
▁লঘিষ্ঠ	-11018
▁লিয়াম	-11019
▁শতাংশে	-11020
▁brother	-11021
▁regular	-11022
▁rhombus	-11023
▁কেভিনের	-11024
▁ক্যামের	-11025
▁ছক্কায়	-11026
▁জামালের	-11027
▁পাহাড়ে	-11028
▁পুত্রের	-11029
▁ব্যারেল	-11030
▁মাফিনের	-11031
▁মেগানের	-11032
▁মেয়েরা	-11033
▁রয়েছেন	-11034
▁checking	-11035
▁অ্যালিসন	-11036
▁কিন্ডারগ	-11037
▁ক্যান্টি	-11038
▁চকোলেটের	-11039
▁টেসেলেশন	-11040
▁নেতিবাচক	-11041
▁পড়াশুনা	-11042
▁পরিশোধের	-11043
▁প্রাণীকে	-11044
▁বাথরুমের	-11045
▁বিরোধিতা	-11046
▁সময়সূচি	-11047
▁সাহায্যে	-11048
▁কিলোওয়াট	-11049
▁চলচ্চিত্র	-11050
▁জ্বালানির	-11051
▁equivalent	-11052
▁palindrome	-11053
▁পার্থক্যটি	-11054
▁স্ট্রবেরির	-11055
▁নিশ্চিতভাবে	-11056
▁চিহুয়াহুয়া	-11057
▁সংখ্যাগুলিতে	-11058
39	-11059
49	-11060
mo	-11061
og	-11062
ty	-11063
কু	-11064
সদ	-11065
৫৩	-11066
8\)	-11067
ild	-11068
pre	-11069
str	-11070
{0.	-11071
{2,	-11072
একই	-11073
কমি	-11074
ছির	-11075
ন্থ	-11076
ফলা	-11077
ভৎস	-11078
রিদ	-11079
ুনি	-11080
ুরো	-11081
ূপা	-11082
্সা	-11083
৫৪০	-11084
▁9}	-11085
▁\*	-11086
▁ac	-11087
▁vs	-11088
▁মল	-11089
▁৮ম	-11090
(1.0	-11091
ওভার	-11092
কালো	-11093
কৃতি	-11094
ছেলে	-11095
টাইম	-11096
য়াজ	-11097
লিফো	-11098
ানিক	-11099
োমান	-11100
▁$2,	-11101
▁'0'	-11102
▁(8,	-11103
▁1$।	-11104
▁137	-11105
▁16)	-11106
▁166	-11107
▁22)	-11108
▁234	-11109
▁24)	-11110
▁25)	-11111
▁276	-11112
▁2\]	-11113
▁33,	-11114
▁35,	-11115
▁7$.	-11116
▁73,	-11117
▁75$	-11118
▁eat	-11119
▁len	-11120
▁অমি	-11121
▁আশি	-11122
▁ইয়	-11123
▁এপি	-11124
▁জাং	-11125
▁বিছ	-11126
▁সৌর	-11127
clude	-11128
comes	-11129
টেবিল	-11130
দুপরি	-11131
নিয়া	-11132
ন্দ্ব	-11133
য়ানে	-11134
যাত্র	-11135
রিসের	-11136
ষ্ট্র	-11137
স্বাদ	-11138
ানোলা	-11139
্যবশত	-11140
্যাকে	-11141
▁10$,	-11142
▁180$	-11143
▁2\).	-11144
▁7200	-11145
▁\\\\	-11146
▁leap	-11147
▁অভাব	-11148
▁আলান	-11149
▁এবার	-11150
▁কফির	-11151
▁কারু	-11152
▁কুপন	-11153
▁জিমন	-11154
▁টডের	-11155
▁টাইফ	-11156
▁টেরি	-11157
▁পারত	-11158
▁বণ্ট	-11159
▁মশলা	-11160
▁রাজা	-11161
▁রিপো	-11162
▁রূপা	-11163
▁শাসক	-11164
▁হরের	-11165
▁৪৩টি	-11166
tition	-11167
{4}{1}	-11168
ক্ষেপে	-11169
নাল্টি	-11170
শনিবার	-11171
▁known	-11172
▁moves	-11173
▁আঁকার	-11174
▁আনিকা	-11175
▁উঠোনে	-11176
▁জাতের	-11177
▁প্যাট	-11178
▁বীভৎস	-11179
▁বুনতে	-11180
▁ভ্যান	-11181
▁রুপোর	-11182
▁লাঞ্চ	-11183
▁লিন্ড	-11184
▁লুবনা	-11185
▁লেটুস	-11186
▁সালাদ	-11187
▁সূচিত	-11188
ছাত্রীর	-11189
স্কারের	-11190
▁determ	-11191
▁middle	-11192
▁আবৃত্ত	-11193
▁আয়তঘন	-11194
▁এঞ্জেল	-11195
▁কাটানো	-11196
▁ক্লাউন	-11197
▁গুদামে	-11198
▁ঘোড়ার	-11199
▁তদুপরি	-11200
▁নিবন্ধ	-11201
▁নেকলেস	-11202
▁পিরিয়	-11203
▁প্রজনন	-11204
▁বাহুকে	-11205
▁বাহুতে	-11206
▁রেবেকা	-11207
▁সংঘর্ষ	-11208
ভাগ্যবশত	-11209
লিয়ামের	-11210
▁Finally	-11211
▁Pattern	-11212
▁overlap	-11213
▁উৎক্ষেপ	-11214
▁একদিনের	-11215
▁ওয়েণ্ড	-11216
▁কয়েকজন	-11217
▁কর্মসূচ	-11218
▁ক্যাটার	-11219
▁ক্ষমতার	-11220
▁গতকালের	-11221
▁দৃষ্টিভ	-11222
▁পরমাণুর	-11223
▁পারফর্ম	-11224
▁মৌমাছির	-11225
▁লক্ষ্যে	-11226
▁সারাহের	-11227
▁সিওকজিন	-11228
▁স্টিকের	-11229
িজিয়ামের	-11230
▁উপস্থিতি	-11231
▁কাঙ্গারু	-11232
▁গ্রানোলা	-11233
▁দাগযুক্ত	-11234
▁বিন্দুকে	-11235
▁মিলাওয়া	-11236
▁রবিবারের	-11237
▁রান্নাঘর	-11238
▁শিক্ষকতা	-11239
▁daughters	-11240
▁ছেদবিন্দু	-11241
▁ছেলেমেয়ে	-11242
▁জ্যাকেটের	-11243
▁মিলাওয়ার	-11244
▁অ্যান্টোনি	-11245
▁বিড়ালছানা	-11246
▁ব্যবস্থায়	-11247
▁distributed	-11248
▁কম্পিউটারের	-11249
▁প্রার্থীদের	-11250
▁চিড়িয়াখানা	-11251
▁সামান্তরিকের	-11252
▁পদার্থবিজ্ঞান	-11253
.}	-11254
OH	-11255
he	-11256
ia	-11257
উস	-11258
খী	-11259
৬৯	-11260
():	-11261
144	-11262
6}$	-11263
997	-11264
Con	-11265
\%$	-11266
ise	-11267
num	-11268
ren	-11269
{45	-11270
}(4	-11271
গ্ম	-11272
তেই	-11273
বকে	-11274
ভুল	-11275
রুণ	-11276
হাম	-11277
হিম	-11278
াবে	-11279
েকো	-11280
▁Ca	-11281
▁Te	-11282
▁ed	-11283
▁চম	-11284
▁০০	-11285
▁৭ম	-11286
+1)(	-11287
Form	-11288
\\).	-11289
ples	-11290
week	-11291
অক্ষ	-11292
ইঞ্চ	-11293
কেবল	-11294
ঙ্গা	-11295
দনের	-11296
প্রে	-11297
বছরে	-11298
রিতে	-11299
াদার	-11300
োডাক	-11301
্কের	-11302
৯০টি	-11303
▁$33	-11304
▁($\	-11305
▁(13	-11306
▁119	-11307
▁46,	-11308
▁510	-11309
▁72$	-11310
▁743	-11311
▁768	-11312
▁Ang	-11313
▁cub	-11314
▁{1,	-11315
▁চিং	-11316
▁ডাম	-11317
▁ডেট	-11318
▁থিম	-11319
▁নাক	-11320
▁পোষ	-11321
▁বলল	-11322
▁বাউ	-11323
▁রকি	-11324
▁শীত	-11325
▁সফট	-11326
▁১৯০	-11327
▁৳৮০	-11328
cular	-11329
ector	-11330
lceil	-11331
rceil	-11332
riyar	-11333
urren	-11334
কিনের	-11335
গ্রুপ	-11336
চেলের	-11337
জ্যাক	-11338
নিবেশ	-11339
ন্ধান	-11340
লিমের	-11341
শুনার	-11342
▁$3$,	-11343
▁$90$	-11344
▁(-1)	-11345
▁12$।	-11346
▁4017	-11347
▁6}{3	-11348
▁Time	-11349
▁\(0.	-11350
▁path	-11351
▁আঠার	-11352
▁আত্ম	-11353
▁কারি	-11354
▁কুইজ	-11355
▁কোডি	-11356
▁গোছা	-11357
▁গোপন	-11358
▁চালু	-11359
▁বনের	-11360
▁বেটা	-11361
▁মাকে	-11362
▁মিশা	-11363
▁লাভে	-11364
▁লেমন	-11365
▁সমমি	-11366
▁সুইচ	-11367
▁স্টপ	-11368
▁হবেন	-11369
▁৳৩০০	-11370
ursive	-11371
urther	-11372
খাওয়া	-11373
চলরাশি	-11374
ভিয়ান	-11375
▁1}{2}	-11376
▁20000	-11377
▁\(2^2	-11378
▁\(2^3	-11379
▁grade	-11380
▁juice	-11381
▁আলিনা	-11382
▁কলেজে	-11383
▁কানের	-11384
▁গেছেন	-11385
▁চক্রে	-11386
▁জাম্ব	-11387
▁ডিনার	-11388
▁থাম্ব	-11389
▁দক্ষি	-11390
▁দলটির	-11391
▁পাশার	-11392
▁পিতার	-11393
▁পেছনে	-11394
▁পেনিগ	-11395
▁পেনের	-11396
▁ফেলেন	-11397
▁বেথের	-11398
▁ভাজ্য	-11399
▁রাইডে	-11400
▁ল্যাব	-11401
▁সকলকে	-11402
▁স্কেট	-11403
ulation	-11404
{10}{5}	-11405
▁3.1415	-11406
▁adding	-11407
▁circum	-11408
▁groups	-11409
▁months	-11410
▁অসমতার	-11411
▁আপনাকে	-11412
▁ইন্টার	-11413
▁ইমেলের	-11414
▁ক্রমটি	-11415
▁ছায়ার	-11416
▁ধারকের	-11417
▁পঞ্চাশ	-11418
▁পাঠাতে	-11419
▁বসন্তে	-11420
▁বিষয়ই	-11421
▁ভ্যাকু	-11422
▁শতাব্দ	-11423
▁শিয়াল	-11424
▁শিল্পী	-11425
▁সমতলের	-11426
▁হারাতে	-11427
অন্যান্য	-11428
মেলোভাবে	-11429
▁Initial	-11430
▁segment	-11431
▁অস্পষ্ট	-11432
▁অ্যামির	-11433
▁কর্মীরা	-11434
▁গ্রিডের	-11435
▁ছাত্রটি	-11436
▁জিনিসটি	-11437
▁ট্র্যাশ	-11438
▁দ্রবণের	-11439
▁নাম্বার	-11440
▁ন্যায্য	-11441
▁প্রোডাক	-11442
▁বাসিন্দ	-11443
▁বিক্রিত	-11444
▁বিলিয়ন	-11445
▁লগারিদম	-11446
exclusion	-11447
▁division	-11448
▁products	-11449
▁segments	-11450
▁অধ্যায়ে	-11451
▁অ্যান্ডি	-11452
▁আমেরিকান	-11453
▁ইসাবেলার	-11454
▁চিঠিপত্র	-11455
▁ড্রাইভার	-11456
▁দাঁড়াতে	-11457
▁পিজ্জাতে	-11458
▁পুরস্কার	-11459
▁প্যাকেজে	-11460
▁মোমবাতির	-11461
▁inclusion	-11462
▁অ্যান্টিফ	-11463
▁কারুশিল্প	-11464
▁কার্লোসের	-11465
▁নিরাপত্তা	-11466
▁ভ্যারিয়ে	-11467
▁হার্ডকভার	-11468
পুনরাবৃত্তি	-11469
শীর্ষবিন্দু	-11470
▁পুরষ্কারের	-11471
▁ব্যক্তিটির	-11472
▁ব্যাগপ্যাক	-11473
▁হাইড্রোজেন	-11474
▁এলোমেলোভাবে	-11475
▁জিনিসপত্রের	-11476
▁দ্বিতীয়বার	-11477
▁ব্যঞ্জনবর্ণ	-11478
▁শ্রেণীকক্ষে	-11479
▁জীববিজ্ঞানের	-11480
▁রেফ্রিজারেটর	-11481
▁ব্যাটসম্যানের	-11482
▁অ্যালুমিনিয়াম	-11483
/1	-11484
5.	-11485
\-	-11486
`.	-11487
sl	-11488
।"	-11489
।}	-11490
আই	-11491
উম	-11492
কৃ	-11493
পণ	-11494
.5}	-11495
008	-11496
big	-11497
ero	-11498
new	-11499
vel	-11500
{(2	-11501
{70	-11502
জনক	-11503
নকে	-11504
পাস	-11505
র্চ	-11506
শতক	-11507
ৈমা	-11508
১৭৫	-11509
▁5}	-11510
▁Ar	-11511
▁BD	-11512
▁PV	-11513
▁[2	-11514
▁en	-11515
▁ওক	-11516
▁পড	-11517
▁রৌ	-11518
20$।	-11519
ides	-11520
vers	-11521
vies	-11522
{15}	-11523
কায়	-11524
কোনও	-11525
টুকু	-11526
নীয়	-11527
ফটটি	-11528
বায়	-11529
য়েট	-11530
লাইন	-11531
লিটি	-11532
শর্ত	-11533
ালিত	-11534
্রাই	-11535
্ষিত	-11536
১৭টি	-11537
২৮০০	-11538
৩২টি	-11539
▁1.3	-11540
▁138	-11541
▁15।	-11542
▁19)	-11543
▁2.4	-11544
▁264	-11545
▁301	-11546
▁310	-11547
▁4^2	-11548
▁50)	-11549
▁6$.	-11550
▁9$,	-11551
▁ADE	-11552
▁Odd	-11553
▁Try	-11554
▁\\)	-11555
▁lit	-11556
▁অবস	-11557
▁উইল	-11558
▁এমা	-11559
▁ওঠে	-11560
▁কীথ	-11561
▁গলে	-11562
▁টেল	-11563
▁ডাঃ	-11564
▁দিব	-11565
▁মলি	-11566
▁রেট	-11567
▁শীট	-11568
▁১লা	-11569
asure	-11570
ature	-11571
}{25}	-11572
এখানে	-11573
ট্যাক	-11574
নিকার	-11575
বিহীন	-11576
মেনের	-11577
ল্ডার	-11578
ানায়	-11579
ীবদ্ধ	-11580
্রবার	-11581
১০০টি	-11582
▁$2$,	-11583
▁$34$	-11584
▁0.45	-11585
▁1.50	-11586
▁1111	-11587
▁15\)	-11588
▁3:**	-11589
▁5\),	-11590
▁5}{3	-11591
▁Form	-11592
▁\)).	-11593
▁fact	-11594
▁আবরণ	-11595
▁আসেন	-11596
▁গার্	-11597
▁গ্রো	-11598
▁জেরে	-11599
▁টর্চ	-11600
▁দোলা	-11601
▁পশুচ	-11602
▁পুডল	-11603
▁ভূমি	-11604
▁যতটি	-11605
▁শরবত	-11606
▁শুশু	-11607
▁সচিব	-11608
▁সিরা	-11609
▁হলের	-11610
▁২০০৯	-11611
action	-11612
pected	-11613
second	-11614
{3}{1}	-11615
ট্রনিক	-11616
ন্ডারে	-11617
▁$150$	-11618
▁1000.	-11619
▁Rafid	-11620
▁hands	-11621
▁অঙ্কে	-11622
▁আক্রম	-11623
▁আয়কে	-11624
▁কার্ল	-11625
▁খরচকে	-11626
▁গালিব	-11627
▁জাহিদ	-11628
▁থলেতে	-11629
▁বিবরণ	-11630
▁বোল্ট	-11631
▁মজুরি	-11632
▁মোড়ক	-11633
▁রাফির	-11634
▁লিমার	-11635
▁লেবেল	-11636
▁শুটিং	-11637
▁স্ত্র	-11638
▁হেলির	-11639
ঙ্ক্ষিত	-11640
মেন্টের	-11641
▁Volume	-11642
▁\(12\)	-11643
▁binary	-11644
▁double	-11645
▁movies	-11646
▁obtain	-11647
▁sheets	-11648
▁symmet	-11649
▁অফিসের	-11650
▁অলিভার	-11651
▁অস্বীক	-11652
▁কিনলেন	-11653
▁কোর্সে	-11654
▁চন্দ্র	-11655
▁চাবিকে	-11656
▁ডানদিক	-11657
▁দুজনকে	-11658
▁নেমেছে	-11659
▁পাবলিক	-11660
▁প্যানে	-11661
▁প্রজেক	-11662
▁বইগুলি	-11663
▁বস্তার	-11664
▁বৃত্তি	-11665
▁বেকারি	-11666
▁ভূমিতে	-11667
▁মিলনের	-11668
_{3}^{3}	-11669
equality	-11670
সম্পূর্ণ	-11671
▁contrib	-11672
▁defined	-11673
▁leaving	-11674
▁pencils	-11675
▁ইভেন্টে	-11676
▁এগুলিকে	-11677
▁এলিজাবে	-11678
▁ক্লিনার	-11679
▁গ্রুপকে	-11680
▁ট্যাংকে	-11681
▁ভালুকের	-11682
▁মার্কাস	-11683
▁মিনিটকে	-11684
▁রাজ্যের	-11685
▁সেগুলোর	-11686
▁স্ট্যাক	-11687
▁স্তম্ভে	-11688
ট্রিক্সের	-11689
সর্বনিম্ন	-11690
▁Consider	-11691
▁approach	-11692
▁tangents	-11693
▁vertices	-11694
▁অভ্যন্তর	-11695
▁ক্লাসরুম	-11696
▁ডানদিকের	-11697
▁তুষারপাত	-11698
▁প্রজাতির	-11699
▁ব্যাটারি	-11700
▁শ্রমিকের	-11701
▁সৈন্যদের	-11702
কল্পকাহিনী	-11703
▁passenger	-11704
▁অভিজ্ঞতার	-11705
▁জোড়াগুলি	-11706
▁নির্ভরশীল	-11707
▁পার্কারের	-11708
▁পিতামাতার	-11709
▁প্রয়োগের	-11710
▁ইলেকট্রনিক	-11711
▁কুকুরছানার	-11712
▁ব্যবসায়িক	-11713
▁লাইব্রেরির	-11714
▁সংখ্যাটিতে	-11715
উদাহরণস্বরূপ	-11716
▁ইঞ্জিনিয়ার	-11717
▁ফেব্রুয়ারী	-11718
▁বৃষ্টিপাতের	-11719
▁চালিয়েছিলেন	-11720
▁দুর্ভাগ্যবশত	-11721
▁শিক্ষার্থীকে	-11722
▁সপ্তাহান্তের	-11723
▁ক্যালকুলেটরের	-11724
42	-11725
63	-11726
Ca	-11727
EF	-11728
^0	-11729
aw	-11730
kh	-11731
km	-11732
ঁধ	-11733
কন	-11734
ণু	-11735
দো	-11736
ধর	-11737
হো	-11738
(7)	-11739
(8,	-11740
/6)	-11741
250	-11742
=10	-11743
=3$	-11744
^{3	-11745
abi	-11746
ots	-11747
{35	-11748
{64	-11749
চলক	-11750
ভুই	-11751
ভোগ	-11752
ময়	-11753
রিস	-11754
সিন	-11755
ালু	-11756
্বং	-11757
▁3\	-11758
▁9-	-11759
▁De	-11760
▁PR	-11761
▁em	-11762
▁আভ	-11763
▁গভ	-11764
▁জম	-11765
▁নল	-11766
▁হত	-11767
▁৯৪	-11768
_3^2	-11769
amma	-11770
cube	-11771
etra	-11772
ংকটি	-11773
ংক্র	-11774
ঞ্জি	-11775
ভালো	-11776
শাকে	-11777
সাইন	-11778
োমের	-11779
্তার	-11780
্রার	-11781
২১টি	-11782
৪৫০০	-11783
▁$22	-11784
▁$49	-11785
▁-10	-11786
▁1.8	-11787
▁148	-11788
▁164	-11789
▁172	-11790
▁24.	-11791
▁290	-11792
▁343	-11793
▁4$,	-11794
▁81$	-11795
▁84$	-11796
▁9).	-11797
▁99.	-11798
▁dis	-11799
▁sit	-11800
▁sug	-11801
▁তান	-11802
▁ফটো	-11803
▁ফেস	-11804
▁মাল	-11805
▁মোজ	-11806
▁১০৬	-11807
▁১৯৫	-11808
▁৩৩০	-11809
▁৫৪০	-11810
-5)!}	-11811
^{15}	-11812
ifies	-11813
month	-11814
sided	-11815
}{18}	-11816
}{80}	-11817
ক্রমে	-11818
জ্জার	-11819
দেশ্য	-11820
পেক্ষ	-11821
মারের	-11822
মুক্ত	-11823
লিপের	-11824
িলারা	-11825
২৪০০০	-11826
▁$44$	-11827
▁0.01	-11828
▁1010	-11829
▁126.	-11830
▁12\]	-11831
▁1400	-11832
▁150$	-11833
▁200$	-11834
▁2008	-11835
▁3300	-11836
▁60\]	-11837
▁9999	-11838
▁\(40	-11839
▁rule	-11840
▁অসীম	-11841
▁ইউএস	-11842
▁উত্থ	-11843
▁এন্ট	-11844
▁গল্ফ	-11845
▁টেডি	-11846
▁তরুণ	-11847
▁তিমি	-11848
▁দাদু	-11849
▁ধারক	-11850
▁বলকে	-11851
▁বাজি	-11852
▁মূলদ	-11853
▁যাকে	-11854
▁যুগল	-11855
▁যুনা	-11856
▁রবির	-11857
▁রুবি	-11858
▁হুইল	-11859
▁হোসে	-11860
▁২০২০	-11861
argest	-11862
finite	-11863
{1}{10	-11864
চিত্রে	-11865
প্রস্থ	-11866
ভ্যাংশ	-11867
ায়নিক	-11868
্লোরিক	-11869
▁$2^3$	-11870
▁0.125	-11871
▁speed	-11872
▁আসবাব	-11873
▁উপভোগ	-11874
▁কংক্র	-11875
▁কম্বল	-11876
▁কাইলি	-11877
▁কেভিন	-11878
▁গ্লাভ	-11879
▁ঘনফুট	-11880
▁ঘুমের	-11881
▁চাচার	-11882
▁জামাল	-11883
▁প্যার	-11884
▁বণ্টন	-11885
▁বাজবে	-11886
▁ভাষার	-11887
▁মারার	-11888
▁মিলির	-11889
▁রক্ষণ	-11890
▁রাশেল	-11891
▁রিটার	-11892
▁শেখার	-11893
▁সেখান	-11894
▁সেটআপ	-11895
{10}{3}	-11896
{1}{6}\	-11897
{5}{6}\	-11898
প্যাকেট	-11899
বোর্ডের	-11900
সমস্যার	-11901
▁counts	-11902
▁eating	-11903
▁exceed	-11904
▁অলিম্প	-11905
▁অসম্ভব	-11906
▁এনেছিল	-11907
▁এরিকের	-11908
▁কাটাতে	-11909
▁কিশমিশ	-11910
▁গ্রিডে	-11911
▁চাকরির	-11912
▁ডিজাইন	-11913
▁থালায়	-11914
▁পূরণের	-11915
▁ফায়ার	-11916
▁বিয়ান	-11917
▁ব্লাউজ	-11918
▁মাকসুদ	-11919
▁মিনয়ং	-11920
▁মুদ্রণ	-11921
▁ম্যাডি	-11922
▁লাগায়	-11923
▁লিটারে	-11924
▁শতাভুই	-11925
▁সিংহের	-11926
▁১০০০টি	-11927
Solution	-11928
কাউন্টের	-11929
সর্বোচ্চ	-11930
সাইকেলের	-11931
▁octopus	-11932
▁ইয়ানের	-11933
▁উভয়কেই	-11934
▁কবুতরের	-11935
▁জোহানের	-11936
▁জ্যাকির	-11937
▁পিছিয়ে	-11938
▁প্যাটির	-11939
▁ফলাফলকে	-11940
▁ফ্রেমের	-11941
▁বহুভুজে	-11942
▁ব্যাসের	-11943
▁মূলধনের	-11944
▁মেলিসার	-11945
▁রেবেকার	-11946
▁লভ্যাংশ	-11947
▁ল্যাপটি	-11948
▁সমাধানে	-11949
▁সম্পাদন	-11950
▁Analysis	-11951
▁Starting	-11952
▁teachers	-11953
▁ওয়েণ্ডি	-11954
▁কুকুরদের	-11955
▁কেন্দ্রা	-11956
▁ক্রিস্টি	-11957
▁গ্রীষ্মে	-11958
▁জুলিয়ার	-11959
▁ডাকটিকিট	-11960
▁ডায়ানার	-11961
▁তোতাপাখি	-11962
▁দেয়ালের	-11963
▁পদগুলোকে	-11964
▁মানচিত্র	-11965
▁মানুষদের	-11966
▁রবার্টের	-11967
▁সূর্যমুখ	-11968
▁স্বরবর্ণ	-11969
chocolates	-11970
etrahedron	-11971
প্রত্যাশিত	-11972
▁Shahriyar	-11973
▁অনুসন্ধান	-11974
▁আসবাবপত্র	-11975
▁উপায়গুলি	-11976
▁ক্ষেত্রেই	-11977
▁ফারেনহাইট	-11978
▁ভবিষ্যতের	-11979
▁ভেরিয়েবল	-11980
▁ম্যাক্সের	-11981
▁যানবাহনের	-11982
▁সময়কালের	-11983
▁স্প্যানিশ	-11984
বৃহস্পতিবার	-11985
▁কর্মশালায়	-11986
▁ক্রোয়াসান	-11987
▁অ্যালার্জির	-11988
▁উপাদানগুলির	-11989
▁ক্রিস্টোফার	-11990
▁গ্রেমলিনদের	-11991
▁প্রেক্ষাপটে	-11992
▁ট্র্যাপিজয়ে	-11993
▁কিন্ডারগার্টে	-11994
▁হাইড্রোক্লোরিক	-11995
▁ফ্যাক্টোরাইজেশন	-11996
:0	-11997
Ap	-11998
hr	-11999
ডল	-12000
ষি	-12001
াউ	-12002
৬২	-12003
৯১	-12004
)$।	-12005
/4)	-12006
1$,	-12007
16)	-12008
1}$	-12009
336	-12010
384	-12011
3}$	-12012
405	-12013
Max	-12014
jat	-12015
oks	-12016
{72	-12017
কান	-12018
খির	-12019
চাপ	-12020
ঠিত	-12021
তলে	-12022
পির	-12023
রটি	-12024
সমূ	-12025
েতে	-12026
্ষণ	-12027
১৯২	-12028
▁4}	-12029
▁7!	-12030
▁AM	-12031
▁By	-12032
▁CI	-12033
▁It	-12034
▁On	-12035
▁অল	-12036
▁আধ	-12037
▁ইস	-12038
▁ওল	-12039
▁তহ	-12040
▁রী	-12041
2017	-12042
40$।	-12043
base	-12044
ived	-12045
oten	-12046
{150	-12047
{400	-12048
আয়ত	-12049
কমলা	-12050
ড্রা	-12051
বিনে	-12052
স্থল	-12053
িরগি	-12054
্তুজ	-12055
্বংস	-12056
▁$(3	-12057
▁-1,	-12058
▁0$.	-12059
▁10!	-12060
▁206	-12061
▁21)	-12062
▁272	-12063
▁289	-12064
▁34$	-12065
▁4$।	-12066
▁4.8	-12067
▁64,	-12068
▁675	-12069
▁6^2	-12070
▁70$	-12071
▁83,	-12072
▁8^2	-12073
▁\(|	-12074
▁few	-12075
▁run	-12076
▁sel	-12077
▁কলো	-12078
▁কূপ	-12079
▁জলজ	-12080
▁দ্য	-12081
▁নর্	-12082
▁পশম	-12083
▁পাও	-12084
▁মিচ	-12085
▁রিচ	-12086
▁শসা	-12087
▁শ্ব	-12088
▁১২১	-12089
▁১৭৫	-12090
▁৬৮০	-12091
▁৳১৬	-12092
sigma	-12093
start	-12094
এককের	-12095
গামীক	-12096
জেলের	-12097
বুলের	-12098
শতকের	-12099
▁$300	-12100
▁$8$।	-12101
▁(0.5	-12102
▁100.	-12103
▁1009	-12104
▁16\)	-12105
▁2880	-12106
▁37.5	-12107
▁4\),	-12108
▁\(19	-12109
▁\(36	-12110
▁\(60	-12111
▁ones	-12112
▁phot	-12113
▁seat	-12114
▁vari	-12115
▁এমবি	-12116
▁কাজু	-12117
▁কানে	-12118
▁টনির	-12119
▁নীনা	-12120
▁মারি	-12121
▁শপিং	-12122
▁১৭তম	-12123
▁২৪০০	-12124
▁৪৬টি	-12125
factor	-12126
inimum	-12127
{5}{9}	-12128
{6}{4}	-12129
ভাগশেষ	-12130
শিরভাগ	-12131
ষ্টব্য	-12132
▁$12$।	-12133
▁1000,	-12134
▁Rajat	-12135
▁\(9\)	-12136
▁makes	-12137
▁progr	-12138
▁অসঙ্গ	-12139
▁অ্যাড	-12140
▁আপলোড	-12141
▁উৎসবে	-12142
▁কমেছে	-12143
▁কারেন	-12144
▁গিরগি	-12145
▁চৌদ্দ	-12146
▁ছোট্ট	-12147
▁জিয়া	-12148
▁জ্বলে	-12149
▁ট্যান	-12150
▁ট্রাই	-12151
▁দ্রবণ	-12152
▁নাচের	-12153
▁নিলয়	-12154
▁পারার	-12155
▁পুলটি	-12156
▁বেয়ে	-12157
▁ব্রাশ	-12158
▁মারিও	-12159
▁লবণের	-12160
▁লুকাস	-12161
▁সেটিং	-12162
▁সেশনে	-12163
▁স্তবক	-12164
▁১১০টি	-12165
▁৳২০০০	-12166
imizing	-12167
▁100000	-12168
▁Tushar	-12169
▁amount	-12170
▁diagon	-12171
▁direct	-12172
▁অবস্থা	-12173
▁উত্তোল	-12174
▁কার্টে	-12175
▁গল্পের	-12176
▁চতুস্ত	-12177
▁চলেছিল	-12178
▁চ্যালে	-12179
▁ছেলেরা	-12180
▁জ্যাসন	-12181
▁দলটিতে	-12182
▁নির্মা	-12183
▁ভ্যানে	-12184
▁মনোযোগ	-12185
▁মাইনাস	-12186
▁মাটিতে	-12187
▁রাজ্যে	-12188
▁সুন্দর	-12189
▁সোনালি	-12190
▁স্টাফড	-12191
smallest	-12192
হ্রাসমান	-12193
▁অধ্যাপক	-12194
▁কার্তুজ	-12195
▁ঘনমিটার	-12196
▁ট্রোলের	-12197
▁পার্কের	-12198
▁বইগুলির	-12199
▁বাড়াতে	-12200
▁বিবাহের	-12201
▁মহিলারা	-12202
▁রান্নার	-12203
▁রিটার্ন	-12204
▁স্ত্রীর	-12205
▁স্প্রিং	-12206
▁স্যামির	-12207
▁________	-12208
▁constant	-12209
▁continue	-12210
▁infinite	-12211
▁obtained	-12212
▁outcomes	-12213
▁repeated	-12214
▁অন্যটিতে	-12215
▁তত্ত্বাব	-12216
▁পর্যায়ে	-12217
▁বেশিরভাগ	-12218
▁মুখমূল্য	-12219
▁ম্যাঙ্গো	-12220
▁র্যান্ডম	-12221
▁লাইসেন্স	-12222
▁শাকসবজির	-12223
▁Determine	-12224
▁এডওয়ার্ড	-12225
▁কেন্দ্রের	-12226
▁নির্দেশিত	-12227
▁ন্যান্সির	-12228
▁পদক্ষেপের	-12229
▁রাসায়নিক	-12230
▁সংস্করণের	-12231
▁সম্পর্কের	-12232
▁mathematic	-12233
▁অভিভাবকদের	-12234
▁প্রথমবারের	-12235
▁প্রদানকারী	-12236
▁প্রস্তাবনা	-12237
▁শিবিরার্থী	-12238
▁সেপ্টেম্বর	-12239
000000000000	-12240
▁অ্যাঞ্জেলার	-12241
▁পরিবর্তনশীল	-12242
▁প্যাটার্নের	-12243
▁প্রশিক্ষণের	-12244
▁শিবিরার্থীর	-12245
▁arrangements	-12246
▁কর্মকর্তাদের	-12247
▁শিক্ষাবর্ষের	-12248
▁ক্যাফেটেরিয়া	-12249
▁টুর্নামেন্টের	-12250
▁পূর্ণসংখ্যাকে	-12251
\&	-12252
কত	-12253
গম	-12254
তই	-12255
থন	-12256
ষক	-12257
.**	-12258
1.5	-12259
128	-12260
321	-12261
700	-12262
75$	-12263
Day	-12264
ali	-12265
amb	-12266
ani	-12267
par	-12268
{28	-12269
কলা	-12270
ডিম	-12271
ধরি	-12272
ভেদ	-12273
শবা	-12274
াকল	-12275
েয়	-12276
্যে	-12277
১০২	-12278
৩৭৫	-12279
▁2[	-12280
▁8-	-12281
▁Tr	-12282
▁এস	-12283
▁ডন	-12284
▁তক	-12285
-1}{	-12286
2}$.	-12287
72.5	-12288
ands	-12289
lamb	-12290
গ্রা	-12291
চ্যু	-12292
পরীত	-12293
য়াক	-12294
হ্যা	-12295
াকৃত	-12296
১৩টি	-12297
৩৫টি	-12298
▁$4!	-12299
▁10।	-12300
▁23$	-12301
▁299	-12302
▁384	-12303
▁3^4	-12304
▁40)	-12305
▁42,	-12306
▁55$	-12307
▁6)$	-12308
▁8$।	-12309
▁9$।	-12310
▁BAC	-12311
▁ass	-12312
▁car	-12313
▁due	-12314
▁আকা	-12315
▁দাত	-12316
▁ধান	-12317
▁নান	-12318
▁বোর	-12319
▁রিজ	-12320
▁রৌপ	-12321
▁লঙ্	-12322
▁১১৩	-12323
▁১৩৪	-12324
▁১৪৫	-12325
▁১৯২	-12326
▁২৬০	-12327
▁৳২৪	-12328
▁৳৯০	-12329
_{199	-12330
slant	-12331
units	-12332
{1}{2	-12333
}{21}	-12334
}{49}	-12335
ইঞ্চি	-12336
খানার	-12337
ঞ্জের	-12338
পুরুষ	-12339
পূর্ব	-12340
বার্ত	-12341
য়মের	-12342
রাফের	-12343
লেটিক	-12344
াইনের	-12345
ার্ধে	-12346
ীক্ষা	-12347
১২০টি	-12348
৪০০০০	-12349
▁$4$।	-12350
▁$54$	-12351
▁1120	-12352
▁125.	-12353
▁1\).	-12354
▁2)$,	-12355
▁24$।	-12356
▁5400	-12357
▁Beng	-12358
▁Team	-12359
▁\[15	-12360
▁diam	-12361
▁move	-12362
▁semi	-12363
▁size	-12364
▁stra	-12365
▁আঙ্গ	-12366
▁কামর	-12367
▁ঘটতে	-12368
▁টবির	-12369
▁পুরু	-12370
▁ফ্লা	-12371
▁বলয়	-12372
▁ভাইস	-12373
▁রয়ে	-12374
▁সাশা	-12375
▁১৩০০	-12376
▁১৪০০	-12377
▁২০০৬	-12378
▁২০২২	-12379
▁৬৬টি	-12380
▁৮৬টি	-12381
▁৳৬০০	-12382
^{2019	-12383
append	-12384
atches	-12385
lambda	-12386
গতভাবে	-12387
দশমিকে	-12388
দানিতে	-12389
ভূমিতে	-12390
মন্টের	-12391
য়াসের	-12392
্যাসের	-12393
▁$1.03	-12394
▁$24$।	-12395
▁2016,	-12396
▁\(0\)	-12397
▁fruit	-12398
▁items	-12399
▁miles	-12400
▁আতশবা	-12401
▁আলিসা	-12402
▁কবিতা	-12403
▁করায়	-12404
▁কার্য	-12405
▁কিনছে	-12406
▁গড়কে	-12407
▁গতিকে	-12408
▁গভর্ন	-12409
▁চল্লি	-12410
▁জরিপে	-12411
▁ড্রেস	-12412
▁তক্তা	-12413
▁দাদীর	-12414
▁দানের	-12415
▁দেখুন	-12416
▁ধ্বংস	-12417
▁পড়লে	-12418
▁পাতলা	-12419
▁পেনির	-12420
▁ফিতের	-12421
▁ফিল্ড	-12422
▁বর্গে	-12423
▁বলেছে	-12424
▁বেকিং	-12425
▁ব্রিক	-12426
▁মালের	-12427
▁রুবির	-12428
▁রোগীর	-12429
▁লড়াই	-12430
▁লোকটি	-12431
▁শৈবাল	-12432
▁সবজির	-12433
▁সরানো	-12434
▁১৪০টি	-12435
▁২৪০টি	-12436
▁৳১০০০	-12437
otenuse	-12438
riginal	-12439
{11}{2}	-12440
য়র্কের	-12441
স্তারিত	-12442
▁Digits	-12443
▁Second	-12444
▁closed	-12445
▁having	-12446
▁placed	-12447
▁simple	-12448
▁অ্যাপে	-12449
▁আগামীক	-12450
▁আয়োজক	-12451
▁ওষুধের	-12452
▁কর্মদি	-12453
▁কেটেছে	-12454
▁ক্রিকে	-12455
▁ঘনকটির	-12456
▁ঘুমাতে	-12457
▁চমৎকার	-12458
▁চার্লস	-12459
▁ছিঁড়ে	-12460
▁জুয়ান	-12461
▁জেসমিন	-12462
▁তারিখে	-12463
▁দক্ষতা	-12464
▁দেরিতে	-12465
▁বর্ণনা	-12466
▁বলগুলো	-12467
▁বারোজন	-12468
▁বাসায়	-12469
▁মিয়ার	-12470
▁যাতায়	-12471
▁যোগফলও	-12472
▁সার্ভি	-12473
▁সিটিতে	-12474
▁স্প্রে	-12475
▁হাড়ের	-12476
দ্বন্দ্ব	-12477
▁Bengali	-12478
▁candies	-12479
▁increas	-12480
▁present	-12481
▁অভিযানে	-12482
▁অ্যালকো	-12483
▁উপসেটের	-12484
▁কম্বলের	-12485
▁তিনজনকে	-12486
▁দৌড়াবে	-12487
▁পদগুলির	-12488
▁পরিধিতে	-12489
▁পুকুরের	-12490
▁প্যাকের	-12491
▁প্রাচীন	-12492
▁বাক্সটি	-12493
▁মানুষকে	-12494
▁হৃদয়ের	-12495
▁Fraction	-12496
▁binomial	-12497
▁অবিবাহিত	-12498
▁ওলিভিয়া	-12499
▁দর্শকদের	-12500
▁পেনাল্টি	-12501
▁বুকমার্ক	-12502
▁ভিভিয়ান	-12503
▁মিনিবাসে	-12504
▁শয়নকক্ষ	-12505
▁শর্তগুলো	-12506
▁সংক্ষেপে	-12507
▁incorrect	-12508
▁repeating	-12509
▁ডেজার্টের	-12510
▁পেট্রোলের	-12511
▁ফ্রাঙ্কের	-12512
▁বাক্সগুলি	-12513
▁ব্যবস্থিত	-12514
▁সংগ্রহকৃত	-12515
▁সিলিন্ডার	-12516
▁Difference	-12517
▁কোষাধ্যক্ষ	-12518
▁ক্রমিকভাবে	-12519
▁গুণনীয়কের	-12520
▁চেকপয়েন্ট	-12521
▁পরিসংখ্যান	-12522
▁বিকল্পভাবে	-12523
▁ব্রেসলেটের	-12524
▁যোগদানকারী	-12525
▁সমদ্বিখণ্ড	-12526
▁সাইক্লিস্ট	-12527
▁হিপোপটামাস	-12528
▁tetrahedron	-12529
▁পরীক্ষার্থী	-12530
▁পাঠ্যপুস্তক	-12531
▁ভগ্নাংশগুলি	-12532
▁পুনরাবৃত্তির	-12533
▁বর্গক্ষেত্রে	-12534
▁পাঠ্যপুস্তকের	-12535
▁প্রতিদ্বন্দ্ব	-12536
▁ব্যবস্থাপূর্ণ	-12537
▁ফ্যাক্টরাইজেশন	-12538
▁হ্যামবার্গারের	-12539
8.	-12540
ih	-12541
se	-12542
ইং	-12543
ওন	-12544
ঙা	-12545
বী	-12546
(0.	-12547
(7,	-12548
/8)	-12549
167	-12550
240	-12551
30)	-12552
36}	-12553
750	-12554
989	-12555
99}	-12556
9\)	-12557
=6$	-12558
Set	-12559
ads	-12560
oni	-12561
sub	-12562
{49	-12563
{75	-12564
কোল	-12565
তেন	-12566
ব্ল	-12567
মেট	-12568
মোক	-12569
রবি	-12570
্যং	-12571
্যো	-12572
১৯৫	-12573
৩৪০	-12574
▁"0	-12575
▁)।	-12576
▁1\	-12577
▁8\	-12578
▁>>	-12579
▁ga	-12580
▁sn	-12581
▁ইর	-12582
▁চট	-12583
▁ভু	-12584
▁৳৭	-12585
$**:	-12586
(10,	-12587
:1),	-12588
Dist	-12589
\}\)	-12590
_3^1	-12591
_3^3	-12592
aded	-12593
apez	-12594
avor	-12595
nder	-12596
orst	-12597
{16}	-12598
{2}}	-12599
}{12	-12600
ইনার	-12601
ডিবা	-12602
ত্বে	-12603
বক্স	-12604
বাবা	-12605
বুকে	-12606
সদৃশ	-12607
্তির	-12608
্বির	-12609
৪৮টি	-12610
৭০টি	-12611
▁$1.	-12612
▁$38	-12613
▁$72	-12614
▁0$।	-12615
▁1$:	-12616
▁1.6	-12617
▁184	-12618
▁2(2	-12619
▁2^7	-12620
▁39$	-12621
▁4),	-12622
▁462	-12623
▁48,	-12624
▁5),	-12625
▁54$	-12626
▁580	-12627
▁60)	-12628
▁win	-12629
▁won	-12630
▁উপে	-12631
▁উলু	-12632
▁কাম	-12633
▁জিশ	-12634
▁ঝুল	-12635
▁দাও	-12636
▁নাচ	-12637
▁পাপ	-12638
▁রুশ	-12639
▁ষোল	-12640
▁৬৫০	-12641
First	-12642
ables	-12643
iding	-12644
ordin	-12645
}{30}	-12646
অ্যাপ	-12647
কমিটি	-12648
ঙ্গের	-12649
ড়কের	-12650
তৃত্ব	-12651
পাখির	-12652
বাড়ি	-12653
মিনের	-12654
য়ানা	-12655
য়ানো	-12656
সুনের	-12657
াক্ষা	-12658
৩০০টি	-12659
▁$(5,	-12660
▁$1$,	-12661
▁$1$।	-12662
▁$72$	-12663
▁0.35	-12664
▁1080	-12665
▁17.5	-12666
▁30\)	-12667
▁4800	-12668
▁\]\[	-12669
▁bact	-12670
▁root	-12671
▁কঠোর	-12672
▁কাঁচ	-12673
▁ঘরটি	-12674
▁ঘিরে	-12675
▁জুতো	-12676
▁টার্	-12677
▁টেনে	-12678
▁তামা	-12679
▁থমাস	-12680
▁নখের	-12681
▁নিউই	-12682
▁মতিন	-12683
▁মহিষ	-12684
▁যত্ন	-12685
▁রাখল	-12686
▁রুপা	-12687
▁লুকা	-12688
▁লোলা	-12689
▁শোটি	-12690
▁সাফল	-12691
▁সুড়	-12692
▁সুবি	-12693
▁১৯৯০	-12694
▁২০০৪	-12695
▁৫১টি	-12696
▁৬৫টি	-12697
digits	-12698
ession	-12699
{3}{8}	-12700
{9}{4}	-12701
}{200}	-12702
ডিয়ার	-12703
লিফোর্	-12704
লিয়ার	-12705
ার্টের	-12706
ার্ডের	-12707
▁$18$।	-12708
▁0.375	-12709
▁1000$	-12710
▁2,000	-12711
▁2017.	-12712
▁4}{2}	-12713
▁7}{2}	-12714
▁\((1,	-12715
▁\)**:	-12716
▁areas	-12717
▁books	-12718
▁bulbs	-12719
▁empty	-12720
▁অ্যাস	-12721
▁আভাকা	-12722
▁আলীসা	-12723
▁ইউনার	-12724
▁ইয়ান	-12725
▁একাডে	-12726
▁কিনলে	-12727
▁কেটির	-12728
▁কেটের	-12729
▁ক্যাট	-12730
▁খুঁটি	-12731
▁চাবির	-12732
▁জর্জি	-12733
▁জিহাদ	-12734
▁জেনার	-12735
▁ডেমোক	-12736
▁দামকে	-12737
▁পাড়ে	-12738
▁পোড়া	-12739
▁ফ্রান	-12740
▁বিচার	-12741
▁বেগুন	-12742
▁বেটির	-12743
▁মশরুম	-12744
▁মিটিং	-12745
▁রাস্প	-12746
▁শত্রু	-12747
▁শিহাব	-12748
▁সাশার	-12749
▁১২০০০	-12750
Initial	-12751
^{2014}	-12752
arrange	-12753
icircle	-12754
ঘণ্টায়	-12755
সংস্থান	-12756
সাইকেলে	-12757
▁approx	-12758
▁ending	-12759
▁growth	-12760
▁photos	-12761
▁অনিকের	-12762
▁আলীসার	-12763
▁ইস্টার	-12764
▁গভর্নর	-12765
▁জানায়	-12766
▁জাহাজে	-12767
▁ট্যাটু	-12768
▁ত্রৈমা	-12769
▁নাটাসা	-12770
▁নাশতার	-12771
▁নৌকায়	-12772
▁পায়নি	-12773
▁বর্ণিত	-12774
▁মেরিকে	-12775
▁রাইডের	-12776
▁শস্যের	-12777
▁হিন্দি	-12778
avorable	-12779
izations	-12780
টেরিয়ার	-12781
শুক্রবার	-12782
সমীকরণটি	-12783
▁Constra	-12784
▁Fridays	-12785
▁measure	-12786
▁অতিথিকে	-12787
▁আনারসের	-12788
▁ইস্ত্রি	-12789
▁কোনওটিই	-12790
▁ক্রিস্ত	-12791
▁গ্রুপিং	-12792
▁জিতেছিল	-12793
▁টাইয়ের	-12794
▁টুকরোটি	-12795
▁ট্রান্স	-12796
▁দেখানোর	-12797
▁নম্বরটি	-12798
▁নেতৃত্ব	-12799
▁পেঁয়াজ	-12800
▁বানানোর	-12801
▁ব্যবধান	-12802
▁মহাকাশয	-12803
▁যুক্তরা	-12804
▁শঙ্কুতে	-12805
▁সামগ্রী	-12806
▁স্প্রিন	-12807
▁স্বামীর	-12808
▁স্মার্ট	-12809
▁স্যুপের	-12810
remainder	-12811
▁directly	-12812
▁straight	-12813
▁আশেপাশের	-12814
▁এপ্রিলের	-12815
▁ওভারটাইম	-12816
▁কোয়াটার	-12817
▁গ্যালনের	-12818
▁চাবিকাঠি	-12819
▁ডিসেম্বর	-12820
▁পয়েন্টে	-12821
▁পরিচালিত	-12822
▁প্রথমবার	-12823
▁বাড়ানোর	-12824
▁বাহুগুলি	-12825
▁সান্দ্রা	-12826
▁সেগুলিকে	-12827
Difference	-12828
▁123456789	-12829
▁Divisible	-12830
▁factorize	-12831
▁numerator	-12832
▁অ্যাসিডের	-12833
▁ওয়েটারের	-12834
▁কার্যকলাপ	-12835
▁ভাইবোনদের	-12836
▁মানচিত্রে	-12837
▁রাস্পবেরি	-12838
▁লাগিয়েছে	-12839
▁সংমিশ্রণে	-12840
▁সমীকরণটির	-12841
▁সম্পত্তির	-12842
▁Conditions	-12843
▁hypotenuse	-12844
▁অনুপাতগুলি	-12845
▁ক্লেয়ারের	-12846
▁ডাকটিকিটের	-12847
▁দৃশ্যকল্পে	-12848
▁দৌড়েছিলেন	-12849
▁ব্যবসায়ীর	-12850
▁শ্রেণীবদ্ধ	-12851
285714285714	-12852
▁expressions	-12853
▁কার্যকলাপের	-12854
▁চতুর্থাংশের	-12855
▁অনুভূমিকভাবে	-12856
▁সংমিশ্রণগুলি	-12857
▁অ্যান্টিফ্রিজ	-12858
▁প্রতিস্থাপনের	-12859
05	-12860
27	-12861
=7	-12862
AO	-12863
ff	-12864
xx	-12865
ঘর	-12866
মল	-12867
০৮	-12868
(8)	-12869
)^{	-12870
1),	-12871
888	-12872
^{4	-12873
_10	-12874
eon	-12875
hat	-12876
ner	-12877
non	-12878
{-1	-12879
{26	-12880
{5,	-12881
কির	-12882
গিল	-12883
দলে	-12884
পেন	-12885
প্ন	-12886
প্প	-12887
১০৪	-12888
৬৪০	-12889
▁9!	-12890
▁9:	-12891
▁He	-12892
▁\{	-12893
▁ডর	-12894
▁সফ	-12895
)\).	-12896
*}\]	-12897
.5$।	-12898
0,0,	-12899
2,3,	-12900
4444	-12901
_{10	-12902
ical	-12903
ixed	-12904
omic	-12905
ping	-12906
ript	-12907
{7}$	-12908
অতএব	-12909
উপরে	-12910
জাতে	-12911
জারে	-12912
তুতে	-12913
নালে	-12914
পাঁচ	-12915
বক্ত	-12916
বসাই	-12917
বিবে	-12918
ভানা	-12919
২৫০০	-12920
▁$2(	-12921
▁$29	-12922
▁$48	-12923
▁$5:	-12924
▁(14	-12925
▁188	-12926
▁2)$	-12927
▁251	-12928
▁31$	-12929
▁47,	-12930
▁499	-12931
▁550	-12932
▁64$	-12933
▁655	-12934
▁9$.	-12935
▁9),	-12936
▁90,	-12937
▁abc	-12938
▁had	-12939
▁whe	-12940
▁অনি	-12941
▁ওপর	-12942
▁টান	-12943
▁তাও	-12944
▁দাল	-12945
▁দিত	-12946
▁নেড	-12947
▁ফুস	-12948
▁বরং	-12949
▁বুল	-12950
▁মধু	-12951
▁রেস	-12952
▁রোব	-12953
▁শিক	-12954
▁সেগ	-12955
▁হিজ	-12956
▁হুপ	-12957
▁১৫৭	-12958
▁৮৪০	-12959
▁৳৩৬	-12960
\)**:	-12961
ersec	-12962
overl	-12963
{100}	-12964
{7}\)	-12965
উপরের	-12966
গেটিভ	-12967
গ্রিম	-12968
জেশনে	-12969
ণিজ্য	-12970
নায়ে	-12971
ব্রিক	-12972
য়ামি	-12973
সিয়ে	-12974
সেজের	-12975
াকৃতি	-12976
ুদ্রে	-12977
১৬০০০	-12978
▁$101	-12979
▁$7$।	-12980
▁0.70	-12981
▁1.15	-12982
▁11\)	-12983
▁2**:	-12984
▁3200	-12985
▁7\),	-12986
▁Dece	-12987
▁\(18	-12988
▁near	-12989
▁remo	-12990
▁অনিক	-12991
▁আকাশ	-12992
▁ইস্প	-12993
▁কর্প	-12994
▁কল্প	-12995
▁ক্রু	-12996
▁গিফট	-12997
▁গ্লু	-12998
▁চলুন	-12999
▁ছিদে	-13000
▁ডাম্	-13001
▁দাবা	-13002
▁নিকি	-13003
▁নিলো	-13004
▁নেতা	-13005
▁পরেও	-13006
▁পোষে	-13007
▁ফর্ম	-13008
▁বামে	-13009
▁ভবনে	-13010
▁র্যা	-13011
▁লরির	-13012
▁লুইস	-13013
▁সেনা	-13014
▁হলেও	-13015
▁হাবি	-13016
▁১১২০	-13017
▁১৫তম	-13018
▁২১০০	-13019
▁৮৮টি	-13020
Combin	-13021
letter	-13022
nomial	-13023
{4}{4}	-13024
প্রিয়	-13025
মিথ্যা	-13026
লোয়ার	-13027
শিয়ার	-13028
▁$20$।	-13029
▁$400$	-13030
▁0.875	-13031
▁Range	-13032
▁meter	-13033
▁still	-13034
▁under	-13035
▁অন্তঃ	-13036
▁আগামী	-13037
▁জ্যাজ	-13038
▁জ্যাম	-13039
▁ঝাড়ু	-13040
▁টিকবে	-13041
▁টিয়া	-13042
▁ট্রিট	-13043
▁ট্রের	-13044
▁ডায়া	-13045
▁ডোডেক	-13046
▁নদীতে	-13047
▁পাঠের	-13048
▁প্লাম	-13049
▁ফিনিশ	-13050
▁বেনির	-13051
▁ব্রুস	-13052
▁ব্লকে	-13053
▁মনিকা	-13054
▁মাস্ক	-13055
▁লঙ্ঘন	-13056
▁লুসির	-13057
▁শিপিং	-13058
▁সিগাল	-13059
▁সীমান	-13060
▁স্টোর	-13061
▁১৫০০০	-13062
ovember	-13063
{10}{4}	-13064
{12}{3}	-13065
{15}{2}	-13066
কমপক্ষে	-13067
বক্তব্য	-13068
মিনিটের	-13069
স্কালের	-13070
্যারনের	-13071
▁Rashik	-13072
▁pizzas	-13073
▁script	-13074
▁subset	-13075
▁vaults	-13076
▁অগ্রিম	-13077
▁কমানোর	-13078
▁কিভাবে	-13079
▁ছয়গুণ	-13080
▁জরিপের	-13081
▁ট্রেসি	-13082
▁দাতব্য	-13083
▁দেখাবে	-13084
▁দ্রবণে	-13085
▁ধনসম্প	-13086
▁পান্ডা	-13087
▁বক্তৃত	-13088
▁মেঝেতে	-13089
▁শূকরের	-13090
▁শেল্ফে	-13091
▁স্বপ্ন	-13092
▁হাঁটতে	-13093
15841584	-13094
{2}}{12}	-13095
▁derived	-13096
▁further	-13097
▁আঙ্গুলে	-13098
▁উপেক্ষা	-13099
▁এগারোটি	-13100
▁কামালের	-13101
▁কারনেশন	-13102
▁কোস্টার	-13103
▁জরিমানা	-13104
▁জিঞ্জার	-13105
▁ডিগ্রির	-13106
▁দিয়েছি	-13107
▁দূরত্বে	-13108
▁পিয়ানো	-13109
▁প্যাট্র	-13110
▁বাণিজ্য	-13111
▁ব্রুসের	-13112
▁মাত্রার	-13113
▁মিলন্তে	-13114
▁ম্যাকার	-13115
▁সমুদ্রে	-13116
▁স্টেশনে	-13117
▁December	-13118
▁Original	-13119
▁approxim	-13120
▁diameter	-13121
▁property	-13122
▁অ্যাসাইন	-13123
▁ইউয়ানের	-13124
▁ইভেন্টের	-13125
▁উদ্দেশ্য	-13126
▁ওয়েবসাই	-13127
▁ক্রিয়াক	-13128
▁খাওয়ায়	-13129
▁গোলকিপার	-13130
▁চিত্রটির	-13131
▁জেসিকাকে	-13132
▁টিউলিপের	-13133
▁পঞ্চাশটি	-13134
▁প্রবাহের	-13135
▁বিয়োগের	-13136
▁ব্যাঙ্কে	-13137
▁ব্রেন্ডা	-13138
▁মেরামতের	-13139
▁সরলরেখার	-13140
▁সামগ্রিক	-13141
▁স্পষ্টতই	-13142
▁স্লাইসের	-13143
▁Remainder	-13144
▁birthdays	-13145
▁multiplic	-13146
▁recursive	-13147
▁ঘুমিয়েছে	-13148
▁জেনিফারের	-13149
▁থিয়েটারে	-13150
▁প্রশিক্ষক	-13151
▁বিক্রেতার	-13152
▁বিড়ালদের	-13153
▁ভগ্নাংশকে	-13154
▁ভাজকগুলির	-13155
▁মিলিমিটার	-13156
▁মিলিয়েছে	-13157
▁যাত্রীদের	-13158
▁শ্রমিকদের	-13159
▁অনুরূপভাবে	-13160
▁অ্যালবামের	-13161
▁ক্যান্টিনে	-13162
▁ক্যালিফোর্	-13163
▁গুণিতকগুলি	-13164
▁গ্রেমলিনের	-13165
▁ড্যানিয়েল	-13166
▁পোস্টকার্ড	-13167
▁প্রস্তুতির	-13168
▁বিভাজ্যতার	-13169
▁ভ্যাকুয়াম	-13170
▁ষড়ভুজাকার	-13171
▁সূর্যমুখীর	-13172
▁multiplying	-13173
▁subtracting	-13174
▁অধ্যয়নকারী	-13175
▁দৃষ্টিভঙ্গি	-13176
▁বিন্দুগুলির	-13177
▁Combinations	-13178
▁আয়তক্ষেত্রে	-13179
▁পর্যায়ক্রমে	-13180
▁পাইথাগোরাসের	-13181
▁ব্যবস্থাপকের	-13182
▁ব্যাকটেরিয়ার	-13183
▁factorizations	-13184
▁পূর্ণসংখ্যাগুলি	-13185
▁বিশ্ববিদ্যালয়ে	-13186
)]	-13187
/7	-13188
93	-13189
An	-13190
PR	-13191
do	-13192
kg	-13193
py	-13194
আম	-13195
সৃ	-13196
০৭	-13197
(15	-13198
)}{	-13199
**.	-13200
+12	-13201
25)	-13202
360	-13203
990	-13204
=1$	-13205
^4$	-13206
_5,	-13207
tin	-13208
uct	-13209
uit	-13210
{29	-13211
আরো	-13212
কিড	-13213
কোচ	-13214
থিউ	-13215
দাই	-13216
পাথ	-13217
বিত	-13218
মহি	-13219
লিস	-13220
সুপ	-13221
িটো	-13222
১৫৬	-13223
১৯০	-13224
▁-7	-13225
▁AE	-13226
▁CO	-13227
▁Tk	-13228
▁sk	-13229
▁আহ	-13230
▁চু	-13231
▁জশ	-13232
.25$	-13233
:1$,	-13234
_2\)	-13235
ffec	-13236
gons	-13237
ighb	-13238
lear	-13239
{144	-13240
{2})	-13241
{300	-13242
{360	-13243
অবৈধ	-13244
গাছা	-13245
ফ্রে	-13246
মুরগ	-13247
যারা	-13248
লেটে	-13249
শ্যক	-13250
িদের	-13251
ুরির	-13252
▁$$(	-13253
▁$0,	-13254
▁$64	-13255
▁(36	-13256
▁**1	-13257
▁16।	-13258
▁1}{	-13259
▁3$:	-13260
▁34,	-13261
▁404	-13262
▁44,	-13263
▁448	-13264
▁54,	-13265
▁576	-13266
▁59,	-13267
▁680	-13268
▁780	-13269
▁8$.	-13270
▁90%	-13271
▁Set	-13272
▁\,\	-13273
▁act	-13274
▁cer	-13275
▁cir	-13276
▁neg	-13277
▁rew	-13278
▁আঁক	-13279
▁আইন	-13280
▁কিং	-13281
▁চিফ	-13282
▁চের	-13283
▁জলক	-13284
▁ডার	-13285
▁দাউ	-13286
▁পরী	-13287
▁ফিও	-13288
▁ফ্ল	-13289
▁রশি	-13290
▁লরে	-13291
▁লিন	-13292
▁লিল	-13293
▁লেই	-13294
▁১২৩	-13295
▁১৩২	-13296
▁১৪৭	-13297
▁৩৬৫	-13298
▁৬৪০	-13299
▁৳১৪	-13300
icity	-13301
oring	-13302
}{28}	-13303
}{36}	-13304
পালের	-13305
ফলাফল	-13306
লালের	-13307
ুটেশন	-13308
১৫০টি	-13309
▁$55$	-13310
▁$70$	-13311
▁$9$।	-13312
▁0.64	-13313
▁1980	-13314
▁2025	-13315
▁3**:	-13316
▁30\]	-13317
▁4096	-13318
▁60^\	-13319
▁True	-13320
▁\[18	-13321
▁\[60	-13322
▁plus	-13323
▁sets	-13324
▁thus	-13325
▁অভিন	-13326
▁আলির	-13327
▁এমপি	-13328
▁ওরিও	-13329
▁কারো	-13330
▁কৃমি	-13331
▁খালা	-13332
▁জয়স	-13333
▁থার্	-13334
▁নেবো	-13335
▁ব্লে	-13336
▁মাপা	-13337
▁রুবল	-13338
▁লাফে	-13339
▁লিমন	-13340
▁সিটে	-13341
▁১০৫০	-13342
▁১৩তম	-13343
▁১৯৮৬	-13344
▁৩১টি	-13345
▁৪১টি	-13346
▁৭৯টি	-13347
▁৯০০০	-13348
^2}{4}	-13349
circle	-13350
column	-13351
ildren	-13352
mathbf	-13353
tended	-13354
কিয়ার	-13355
ফর্মের	-13356
▁$15$।	-13357
▁9}{2}	-13358
▁\(7\)	-13359
▁____।	-13360
▁about	-13361
▁avoid	-13362
▁clock	-13363
▁plate	-13364
▁আগাছা	-13365
▁ওয়াল	-13366
▁কব্জি	-13367
▁কয়টা	-13368
▁কোচিং	-13369
▁কোটের	-13370
▁কোণার	-13371
▁ক্লিন	-13372
▁খোদাই	-13373
▁গ্রান	-13374
▁গ্রেট	-13375
▁জানান	-13376
▁জানেন	-13377
▁জেফের	-13378
▁জোসের	-13379
▁জ্ঞান	-13380
▁ট্রাম	-13381
▁থলিতে	-13382
▁থালার	-13383
▁পারতো	-13384
▁ফার্ন	-13385
▁বসালে	-13386
▁ভেস্ট	-13387
▁মিচেল	-13388
▁রুমির	-13389
▁রোজির	-13390
▁লিভিং	-13391
▁শারীর	-13392
▁শিখতে	-13393
▁শুষ্ক	-13394
▁সমতলে	-13395
▁স্টুল	-13396
▁হারান	-13397
▁হোটেল	-13398
Summing	-13399
{1}{20}	-13400
{3}}{4}	-13401
অবশিষ্ট	-13402
ঘন্টায়	-13403
জান্ডার	-13404
বিবেচনা	-13405
▁\(1000	-13406
▁consis	-13407
▁liters	-13408
▁reduce	-13409
▁simply	-13410
▁অঙ্ককে	-13411
▁অভিমুখ	-13412
▁অর্কিড	-13413
▁আবশ্যক	-13414
▁আরেকজন	-13415
▁উদ্ধার	-13416
▁করেননি	-13417
▁গুণফলে	-13418
▁গ্লাসে	-13419
▁চাইনিজ	-13420
▁চারবার	-13421
▁চিংড়ি	-13422
▁ট্যাকো	-13423
▁দক্ষিণ	-13424
▁দুটিতে	-13425
▁দৌড়ান	-13426
▁পঙক্তি	-13427
▁পাহাড়	-13428
▁বোনদের	-13429
▁ভরাটের	-13430
▁ম্যারা	-13431
▁রাশেলে	-13432
▁লায়লা	-13433
▁লুকানো	-13434
▁শরীরের	-13435
▁সুপারি	-13436
▁সোয়ান	-13437
▁হাঙ্গর	-13438
▁হ্যালো	-13439
_{4}^{2}	-13440
possible	-13441
অনুভূমিক	-13442
▁1000000	-13443
▁context	-13444
▁nearest	-13445
▁picking	-13446
▁অগ্রগতি	-13447
▁অর্ধেকই	-13448
▁অ্যান্থ	-13449
▁অ্যাপার	-13450
▁আগ্রহের	-13451
▁আলমারির	-13452
▁উভয়টিই	-13453
▁কাচগুলো	-13454
▁ক্রেটের	-13455
▁গুণফলকে	-13456
▁জিরাফের	-13457
▁ডাম্বেল	-13458
▁ড্রিঙ্ক	-13459
▁দিচ্ছেন	-13460
▁নম্বরকে	-13461
▁পৌঁছেছে	-13462
▁বিছানার	-13463
▁বিশ্বাস	-13464
▁মিস্টার	-13465
▁মেশিনের	-13466
▁ম্যাথিউ	-13467
▁লাঞ্চের	-13468
▁সফলভাবে	-13469
▁সহপাঠীর	-13470
▁সাদিয়া	-13471
▁স্কোয়া	-13472
▁স্টোরেজ	-13473
▁স্তূপের	-13474
▁স্বাস্থ	-13475
▁হারুনের	-13476
ecreasing	-13477
▁birthday	-13478
▁circular	-13479
▁ensuring	-13480
▁negative	-13481
▁ইরেজারের	-13482
▁ক্যাম্পে	-13483
▁চারগুণের	-13484
▁তানিয়ার	-13485
▁দাঁড়ায়	-13486
▁নিরপেক্ষ	-13487
▁পিতামাতা	-13488
▁পুনরুদ্ধ	-13489
▁পেয়ারার	-13490
▁বক্তৃতার	-13491
▁বর্গফুটে	-13492
▁বিছানায়	-13493
▁বেকারিতে	-13494
▁ব্রাউজার	-13495
▁ব্রাউনের	-13496
▁শ্যাম্পু	-13497
পূর্ববর্তী	-13498
▁resulting	-13499
▁আমন্ত্রিত	-13500
▁ক্যাম্পার	-13501
▁ক্যালোরির	-13502
▁গ্রহণকারী	-13503
▁গ্রীষ্মের	-13504
▁চিত্রটিতে	-13505
▁ট্যাঙ্কটি	-13506
▁প্রবন্ধের	-13507
▁ফলাফলগুলি	-13508
▁ফলাফলমূলক	-13509
▁বহুভুজটির	-13510
▁বাইসাইকেল	-13511
▁স্ট্রিপের	-13512
▁constraint	-13513
▁semicircle	-13514
▁অ্যালবার্ট	-13515
▁ওয়ার্কশিট	-13516
▁কল্পকাহিনী	-13517
▁চিহ্নিতকরণ	-13518
▁টুকরোগুলির	-13519
▁থাম্বট্যাক	-13520
▁প্যানকেকের	-13521
▁বোতামযুক্ত	-13522
▁Probability	-13523
▁calculating	-13524
▁ত্রুটিযুক্ত	-13525
▁কনফিগারেশনের	-13526
▁কোয়ার্টারের	-13527
▁চতুর্ভুজাকার	-13528
▁প্রতিবেশীদের	-13529
▁প্রতিনিধিত্বে	-13530
▁কিন্ডারগার্টেন	-13531
!"	-13532
0]	-13533
BB	-13534
DD	-13535
DF	-13536
|$	-13537
লু	-13538
ীম	-13539
৭১	-13540
৮৯	-13541
)(1	-13542
+6)	-13543
40)	-13544
43}	-13545
76$	-13546
=2}	-13547
_2(	-13548
_5$	-13549
ake	-13550
ank	-13551
led	-13552
lim	-13553
pri	-13554
ugg	-13555
ংহি	-13556
গেন	-13557
জনী	-13558
পান	-13559
ভান	-13560
মকে	-13561
মোর	-13562
লাভ	-13563
ীসৃ	-13564
২৩০	-13565
▁&&	-13566
▁-9	-13567
▁7-	-13568
▁7}	-13569
▁AP	-13570
▁No	-13571
▁PM	-13572
▁Sc	-13573
▁TD	-13574
▁টড	-13575
331}	-13576
6667	-13577
7,8,	-13578
akes	-13579
ayra	-13580
bols	-13581
ffic	-13582
igur	-13583
pand	-13584
urns	-13585
{3}\	-13586
{500	-13587
}{36	-13588
উসের	-13589
ক্রম	-13590
খুঁত	-13591
গনের	-13592
গুনি	-13593
ছাড়	-13594
জনকে	-13595
টাকা	-13596
টায়	-13597
ডিতে	-13598
য়োর	-13599
লিকে	-13600
ষেধা	-13601
ৃহীত	-13602
৫৫৫৫	-13603
▁$42	-13604
▁(4)	-13605
▁-0.	-13606
▁0),	-13607
▁1.4	-13608
▁11)	-13609
▁11।	-13610
▁14.	-13611
▁151	-13612
▁157	-13613
▁236	-13614
▁26.	-13615
▁2^8	-13616
▁3.6	-13617
▁324	-13618
▁36.	-13619
▁40.	-13620
▁42$	-13621
▁520	-13622
▁525	-13623
▁570	-13624
▁63,	-13625
▁672	-13626
▁792	-13627
▁819	-13628
▁873	-13629
▁99,	-13630
▁ACB	-13631
▁\[9	-13632
▁arc	-13633
▁jam	-13634
▁key	-13635
▁kid	-13636
▁lie	-13637
▁tre	-13638
▁আমে	-13639
▁একশ	-13640
▁গোছ	-13641
▁চলক	-13642
▁টুন	-13643
▁নিভ	-13644
▁রেড	-13645
▁লুপ	-13646
▁হাঙ	-13647
▁হেল	-13648
▁১১৭	-13649
▁১১৯	-13650
▁১৩৬	-13651
▁৪৪০	-13652
▁৫১০	-13653
_{201	-13654
aring	-13655
ayons	-13656
enter	-13657
first	-13658
ippet	-13659
nings	-13660
words	-13661
}{5}$	-13662
গোষ্ঠ	-13663
টিয়ে	-13664
ত্রের	-13665
নীচের	-13666
ফিশের	-13667
শিক্ষ	-13668
স্থির	-13669
হিয়ং	-13670
িনীতে	-13671
▁$(6,	-13672
▁$0$।	-13673
▁$2!$	-13674
▁$29$	-13675
▁$3^2	-13676
▁$42$	-13677
▁10.5	-13678
▁1999	-13679
▁2006	-13680
▁2009	-13681
▁20\%	-13682
▁4}{2	-13683
▁Iter	-13684
▁What	-13685
▁With	-13686
▁\(21	-13687
▁\[0.	-13688
▁\\[2	-13689
▁cate	-13690
▁date	-13691
▁radi	-13692
▁rate	-13693
▁wins	-13694
▁আংটি	-13695
▁আসিফ	-13696
▁এককে	-13697
▁কন্ট	-13698
▁কিনল	-13699
▁গন্ধ	-13700
▁ছুটে	-13701
▁জোনা	-13702
▁ট্রল	-13703
▁থাকত	-13704
▁দাদী	-13705
▁ধরেন	-13706
▁পঁচি	-13707
▁মিগু	-13708
▁মেলা	-13709
▁সংকে	-13710
▁সর্প	-13711
▁সামস	-13712
▁স্মু	-13713
▁১০তম	-13714
▁২০০৭	-13715
▁২৫০০	-13716
▁৭৮টি	-13717
4-2)!}	-13718
Second	-13719
allons	-13720
umayra	-13721
{3}{7}	-13722
{4}{7}	-13723
{4}{9}	-13724
কারদের	-13725
গাড়ির	-13726
বস্তুর	-13727
বেগুনি	-13728
মায়ের	-13729
▁$$100	-13730
▁$500$	-13731
▁1.008	-13732
▁100\]	-13733
▁15000	-13734
▁2019.	-13735
▁avail	-13736
▁dates	-13737
▁exist	-13738
▁fixed	-13739
▁indic	-13740
▁marks	-13741
▁types	-13742
▁অভিনে	-13743
▁আদর্শ	-13744
▁একাদশ	-13745
▁এলসার	-13746
▁কাকটি	-13747
▁কাস্ট	-13748
▁কিনলো	-13749
▁টপিংস	-13750
▁ট্রেই	-13751
▁ডালিম	-13752
▁ডিয়ে	-13753
▁থামার	-13754
▁দিলেন	-13755
▁পদকের	-13756
▁পান্থ	-13757
▁পার্ম	-13758
▁পেনশন	-13759
▁পেলিখ	-13760
▁পেস্ট	-13761
▁প্রেৎ	-13762
▁ফেললে	-13763
▁বাজনা	-13764
▁বানের	-13765
▁বাসটি	-13766
▁বুনতি	-13767
▁ভলিউম	-13768
▁মাহিন	-13769
▁মিশেল	-13770
▁মেলের	-13771
▁মোলার	-13772
▁রক্ষা	-13773
▁রম্বস	-13774
▁রাখলে	-13775
▁রাসেল	-13776
▁রুবিন	-13777
▁রুমের	-13778
▁রৌপ্য	-13779
▁লিখিত	-13780
▁লুনার	-13781
▁লেজের	-13782
▁শ্বাস	-13783
▁সমাকল	-13784
▁সাকিব	-13785
▁সুস্থ	-13786
▁সোর্ড	-13787
Express	-13788
apezoid	-13789
ference	-13790
perties	-13791
{1}{3}$	-13792
{1}{4}$	-13793
}{1331}	-13794
ফিল্ডের	-13795
সেন্টের	-13796
▁11}{2}	-13797
▁60,000	-13798
▁enough	-13799
▁inside	-13800
▁neighb	-13801
▁অক্ষরে	-13802
▁আবিরের	-13803
▁ইঞ্চির	-13804
▁উঠেছিল	-13805
▁এইগুলি	-13806
▁কতটুকু	-13807
▁ক্যারো	-13808
▁গ্লাভস	-13809
▁চারকোল	-13810
▁ছক্কার	-13811
▁জনসনের	-13812
▁জাদুঘর	-13813
▁ডেল্টা	-13814
▁তমালের	-13815
▁নিখুঁত	-13816
▁পাউডার	-13817
▁পাপড়ি	-13818
▁পাশায়	-13819
▁পেরেছে	-13820
▁প্রত্ন	-13821
▁ফলাফলে	-13822
▁ভিড়ের	-13823
▁মেলিসা	-13824
▁রসুনের	-13825
▁লিস্টে	-13826
▁সবশেষে	-13827
▁সিয়াম	-13828
▁সোনালী	-13829
▁স্টেসি	-13830
▁হিলারি	-13831
Possible	-13832
ক্রিয়ার	-13833
▁Finding	-13834
▁categor	-13835
▁certain	-13836
▁counted	-13837
▁crayons	-13838
▁snippet	-13839
▁tangent	-13840
▁traffic	-13841
▁অ্যাপের	-13842
▁আত্মীয়	-13843
▁গাছগুলো	-13844
▁গ্যাব্র	-13845
▁গ্যালার	-13846
▁চন্দ্রা	-13847
▁জায়গার	-13848
▁জাস্টিন	-13849
▁জিতেছেন	-13850
▁জিসানের	-13851
▁ডালিয়া	-13852
▁পেমেন্ট	-13853
▁প্রথমটি	-13854
▁ফুটবলের	-13855
▁ফ্রেঞ্চ	-13856
▁রম্বসের	-13857
▁সংস্থার	-13858
▁হিসেবেও	-13859
▁হেদারের	-13860
perimeter	-13861
▁choosing	-13862
▁expected	-13863
▁question	-13864
▁symmetry	-13865
▁আগামীকাল	-13866
▁ইস্পাতের	-13867
▁কনসার্টে	-13868
▁কমিয়েছে	-13869
▁ক্যাবিনে	-13870
▁গন্তব্যে	-13871
▁গোল্ডফিশ	-13872
▁চন্দ্রার	-13873
▁ডিভাইসের	-13874
▁ড্রাফটিং	-13875
▁পুনর্গঠন	-13876
▁বর্গগুলি	-13877
▁available	-13878
▁increases	-13879
▁অতিক্রমিত	-13880
▁অলিভিয়ার	-13881
▁আলবার্টের	-13882
▁কারখানায়	-13883
▁কেন্দ্রার	-13884
▁দেখেছিলেন	-13885
▁বাইন্ডারে	-13886
▁বিস্তারিত	-13887
▁বৃত্তীকরণ	-13888
▁হিজকিয়ার	-13889
Probability	-13890
▁__________	-13891
▁inequality	-13892
▁অংশগ্রহণের	-13893
▁অঙ্কগুলিকে	-13894
▁উইলিয়ামের	-13895
▁ট্যাবলেটের	-13896
▁দৌড়বিদদের	-13897
▁ফ্যাক্টরের	-13898
▁হারিয়েছেন	-13899
▁অঙ্কদ্বয়ের	-13900
▁প্রতিবেশীকে	-13901
▁ভ্যারিয়েন্স	-13902
▁হোয়াইটবোর্ড	-13903
▁circumference	-13904
▁বৈশিষ্ট্যগুলি	-13905
▁শীর্ষবিন্দুগুলি	-13906
+(	-13907
/8	-13908
3\	-13909
=.	-13910
CA	-13911
co	-13912
উং	-13913
কী	-13914
গস	-13915
ভু	-13916
(0,	-13917
)$$	-13918
+2,	-13919
-1,	-13920
.02	-13921
.07	-13922
1)^	-13923
18,	-13924
4!}	-13925
7\)	-13926
:1$	-13927
Equ	-13928
Per	-13929
Ver	-13930
edi	-13931
iel	-13932
lse	-13933
ood	-13934
rho	-13935
{22	-13936
{27	-13937
{6,	-13938
গমন	-13939
চডা	-13940
টপত	-13941
পেক	-13942
য়ী	-13943
রকম	-13944
সাপ	-13945
সিল	-13946
সেক	-13947
্ধব	-13948
্বই	-13949
১৩২	-13950
১৭০	-13951
৫২০	-13952
৯৬০	-13953
▁-6	-13954
▁1]	-13955
▁9।	-13956
▁AO	-13957
▁DP	-13958
▁[]	-13959
▁\;	-13960
▁ax	-13961
▁de	-13962
▁ওজ	-13963
▁ডট	-13964
▁সৃ	-13965
(200	-13966
)}{\	-13967
+4+5	-13968
2,1,	-13969
7692	-13970
=10$	-13971
Cons	-13972
^2\]	-13973
^{5}	-13974
chie	-13975
hole	-13976
term	-13977
umns	-13978
{240	-13979
{250	-13980
}.\]	-13981
}_{\	-13982
}}{4	-13983
কড়া	-13984
ক্লা	-13985
খণ্ড	-13986
জকের	-13987
ডমিন	-13988
ধারা	-13989
ন্ডে	-13990
বাইট	-13991
ভূমি	-13992
শালী	-13993
ষষ্ঠ	-13994
ামেল	-13995
ুটার	-13996
্থার	-13997
১১টি	-13998
৪৫টি	-13999
▁$2!	-14000
▁1).	-14001
▁12:	-14002
▁14)	-14003
▁15%	-14004
▁182	-14005
▁19.	-14006
▁2$:	-14007
▁215	-14008
▁23)	-14009
▁37.	-14010
▁4)$	-14011
▁430	-14012
▁460	-14013
▁55,	-14014
▁65$	-14015
▁79,	-14016
▁7\]	-14017
▁810	-14018
▁One	-14019
▁Squ	-14020
▁আঠা	-14021
▁গবল	-14022
▁ছোঁ	-14023
▁জেস	-14024
▁ঝোপ	-14025
▁টবে	-14026
▁বোধ	-14027
▁বোল	-14028
▁মাথ	-14029
▁মাপ	-14030
▁মিক	-14031
▁মুন	-14032
▁রজত	-14033
▁শিল	-14034
▁ষাট	-14035
▁১০ম	-14036
gamma	-14037
gests	-14038
using	-14039
where	-14040
{2015	-14041
}{14}	-14042
কেদের	-14043
ঙ্কার	-14044
ছায়া	-14045
ন্টাল	-14046
ব্যাপ	-14047
মহিলা	-14048
শেলের	-14049
সমস্ত	-14050
সাম্য	-14051
ুক্ষণ	-14052
২০০টি	-14053
▁$0.5	-14054
▁$110	-14055
▁$117	-14056
▁$33$	-14057
▁(0-9	-14058
▁0.06	-14059
▁0.09	-14060
▁0.16	-14061
▁1.07	-14062
▁10^3	-14063
▁12$,	-14064
▁12.0	-14065
▁1320	-14066
▁14\]	-14067
▁15$.	-14068
▁2021	-14069
▁2401	-14070
▁24\)	-14071
▁300$	-14072
▁300)	-14073
▁4018	-14074
▁4620	-14075
▁7434	-14076
▁Bind	-14077
▁City	-14078
▁\$10	-14079
▁\(90	-14080
▁\\[5	-14081
▁edge	-14082
▁else	-14083
▁fits	-14084
▁আমির	-14085
▁ইয়ে	-14086
▁ইরার	-14087
▁এলির	-14088
▁কুইন	-14089
▁ক্ষে	-14090
▁চলার	-14091
▁জনির	-14092
▁জামা	-14093
▁ট্যু	-14094
▁ডগের	-14095
▁ডনের	-14096
▁ডাটা	-14097
▁দেখব	-14098
▁নাদি	-14099
▁নোটে	-14100
▁পাতি	-14101
▁পৃথি	-14102
▁ফাঁক	-14103
▁বক্র	-14104
▁বদলি	-14105
▁মানক	-14106
▁মেলে	-14107
▁রজার	-14108
▁শিফট	-14109
▁সায়	-14110
▁২০১৬	-14111
cribed	-14112
{2}{1}	-14113
}{400}	-14114
তামূলক	-14115
ন্টাইন	-14116
রবিবার	-14117
রাউন্ড	-14118
সমূহের	-14119
স্তরের	-14120
স্থলের	-14121
্যাঙ্ক	-14122
▁$0.50	-14123
▁$30$।	-14124
▁Place	-14125
▁\[100	-14126
▁close	-14127
▁games	-14128
▁thous	-14129
▁worst	-14130
▁অবসরে	-14131
▁অ্যাং	-14132
▁আইফোন	-14133
▁আড়াই	-14134
▁করলেও	-14135
▁কলোনি	-14136
▁কার্প	-14137
▁কিমের	-14138
▁কুইজে	-14139
▁ঘনমূল	-14140
▁চলেছে	-14141
▁চিজের	-14142
▁জামির	-14143
▁টাচডা	-14144
▁টানার	-14145
▁ডালের	-14146
▁দেবেন	-14147
▁নকশার	-14148
▁নামার	-14149
▁পিটের	-14150
▁পিঠার	-14151
▁প্রাপ	-14152
▁ফোল্ড	-14153
▁বেল্ট	-14154
▁বোলিং	-14155
▁মিলবে	-14156
▁মেঝের	-14157
▁ম্যান	-14158
▁রডনির	-14159
▁রাকিব	-14160
▁রাজুর	-14161
▁শুনতে	-14162
▁সরীসৃ	-14163
▁সিটির	-14164
▁স্যাল	-14165
▁১০৫টি	-14166
▁১১০০০	-14167
▁১২৫টি	-14168
divisor	-14169
valuate	-14170
বোর্ডিং	-14171
স্কেলেট	-14172
িজিয়াম	-14173
▁$1000$	-14174
▁10}{2}	-14175
▁asking	-14176
▁calcul	-14177
▁chairs	-14178
▁reason	-14179
▁অপেক্ষ	-14180
▁উচ্চতর	-14181
▁উদযাপন	-14182
▁উদ্ধৃত	-14183
▁কান্তা	-14184
▁ক্যাথি	-14185
▁খাচ্ছে	-14186
▁জাম্বো	-14187
▁জোড়ের	-14188
▁টেক্সা	-14189
▁ডোডেকা	-14190
▁থমাসের	-14191
▁থার্মো	-14192
▁দ্বিপদ	-14193
▁নিষেধা	-14194
▁পরিসরে	-14195
▁বিচ্যু	-14196
▁রাইসিন	-14197
▁রেডিওর	-14198
▁লিফটটি	-14199
▁শিবিরে	-14200
▁সিক্কা	-14201
▁সুইমিং	-14202
▁স্টেশন	-14203
Applying	-14204
{1}{100}	-14205
ষ্ট্রপতি	-14206
▁3.14159	-14207
▁Humayra	-14208
▁closest	-14209
▁columns	-14210
▁perform	-14211
▁অক্টোবর	-14212
▁আতশবাজি	-14213
▁আদনানের	-14214
▁উপনিবেশ	-14215
▁এক্সটেন	-14216
▁এগুলোকে	-14217
▁ওয়াশার	-14218
▁কারিনার	-14219
▁কার্লার	-14220
▁কোর্সের	-14221
▁গ্রুপটি	-14222
▁চড়েছিল	-14223
▁চারজনকে	-14224
▁টাইফুনে	-14225
▁ডিজেলের	-14226
▁ত্রিশটি	-14227
▁দর্শকের	-14228
▁ধুয়েছে	-14229
▁পতাকায়	-14230
▁পাউরুটি	-14231
▁ফলোয়ার	-14232
▁বন্ধনীর	-14233
▁বিকেলের	-14234
▁ভবিষ্যত	-14235
▁মিনিবাস	-14236
▁স্কেটিং	-14237
▁স্পর্শক	-14238
▁স্মিথের	-14239
▁স্যাম্প	-14240
▁স্যুটের	-14241
▁Checking	-14242
▁Counting	-14243
▁Dividing	-14244
▁Multiply	-14245
▁contains	-14246
▁suggests	-14247
▁উৎক্ষেপণ	-14248
▁কিছুক্ষণ	-14249
▁ক্রিস্টে	-14250
▁গোলরক্ষক	-14251
▁জলাশয়ের	-14252
▁টর্চলাইট	-14253
▁দিনগুলির	-14254
▁নির্মাতা	-14255
▁বামহস্তী	-14256
▁মোড়ানোর	-14257
▁সিয়ানের	-14258
▁inclusive	-14259
▁questions	-14260
▁কার্ডগুলো	-14261
▁কোস্টারের	-14262
▁চতুর্ভুজে	-14263
▁দুর্ঘটনার	-14264
▁পর্যটকদের	-14265
▁প্রযুক্তি	-14266
▁ফুলদানিতে	-14267
▁বিস্কুটের	-14268
▁সরঞ্জামের	-14269
▁স্থানাঙ্ক	-14270
Identifying	-14271
multicolumn	-14272
▁অ্যাথলেটিক	-14273
▁উভয়পক্ষকে	-14274
▁ওয়ার্কবুক	-14275
▁ছুড়েছিলেন	-14276
▁পরিষ্কারের	-14277
▁পুনরুদ্ধার	-14278
▁পেপারব্যাক	-14279
▁প্রচারমূলক	-14280
▁ল্যামন্টের	-14281
▁শয়নকক্ষের	-14282
▁স্পষ্টভাবে	-14283
▁হ্যামস্টার	-14284
333333333333	-14285
প্রাথমিকভাবে	-14286
▁progression	-14287
▁গ্রীষ্মকালে	-14288
▁প্রকৃতপক্ষে	-14289
▁গ্রীষ্মকালীন	-14290
▁প্রতিযোগীদের	-14291
▁ইঞ্জিনিয়ারিং	-14292
▁আয়তক্ষেত্রটির	-14293
▁স্বেচ্ছাসেবককে	-14294
▁অ্যাপার্টমেন্টে	-14295
▁পুনরাবৃত্তিমূলক	-14296
!1	-14297
"-	-14298
(7	-14299
->	-14300
2।	-14301
=8	-14302
Na	-14303
mn	-14304
রত	-14305
ষম	-14306
েউ	-14307
13,	-14308
205	-14309
345	-14310
615	-14311
BDE	-14312
_0(	-14313
_12	-14314
_7$	-14315
com	-14316
ega	-14317
els	-14318
red	-14319
}{}	-14320
কিছ	-14321
ক্স	-14322
গরু	-14323
চেন	-14324
জান	-14325
ঠাক	-14326
বুল	-14327
মেশ	-14328
রাত	-14329
রাস	-14330
রেখ	-14331
ষড়	-14332
াকী	-14333
১২৪	-14334
২৭৫	-14335
৩৬৫	-14336
▁8:	-14337
▁<=	-14338
▁জং	-14339
▁পট	-14340
▁মধ	-14341
-1)!	-14342
/10)	-14343
8}$.	-14344
_{1}	-14345
_{7}	-14346
ayel	-14347
osed	-14348
pril	-14349
zero	-14350
})^3	-14351
ইউরো	-14352
ইয়ং	-14353
কোসা	-14354
গতির	-14355
ছনের	-14356
ছন্দ	-14357
ছিলো	-14358
জাতক	-14359
ণ্ডা	-14360
ণ্ডু	-14361
বনের	-14362
বিকি	-14363
ব্রি	-14364
ভবতী	-14365
মিকা	-14366
ম্মা	-14367
লম্ব	-14368
শ্রম	-14369
সমতা	-14370
সলের	-14371
সূচক	-14372
স্টন	-14373
হারী	-14374
ারার	-14375
িতাম	-14376
িরার	-14377
ুটের	-14378
েনের	-14379
্যিক	-14380
▁(1:	-14381
▁(24	-14382
▁(9,	-14383
▁(99	-14384
▁17)	-14385
▁18)	-14386
▁26$	-14387
▁30।	-14388
▁32.	-14389
▁36)	-14390
▁456	-14391
▁51,	-14392
▁56.	-14393
▁72)	-14394
▁72,	-14395
▁7^1	-14396
▁928	-14397
▁95$	-14398
▁989	-14399
▁<->	-14400
▁Col	-14401
▁Two	-14402
▁arm	-14403
▁cow	-14404
▁six	-14405
▁too	-14406
▁wal	-14407
▁অণু	-14408
▁আকি	-14409
▁আনি	-14410
▁আনো	-14411
▁কমপ	-14412
▁কেপ	-14413
▁খুল	-14414
▁ঘেউ	-14415
▁চিট	-14416
▁চিব	-14417
▁ছুট	-14418
▁জুল	-14419
▁ডিল	-14420
▁পেজ	-14421
▁ফর্	-14422
▁বিগ	-14423
▁মজু	-14424
▁রাব	-14425
▁লিফ	-14426
▁সির	-14427
▁সেক	-14428
▁২৫৬	-14429
Sigma	-14430
^{11}	-14431
igeon	-14432
inish	-14433
okies	-14434
omega	-14435
ওয়াই	-14436
কেয়া	-14437
ধ্যার	-14438
ন্ডের	-14439
পেনের	-14440
ফিল্ড	-14441
বেশির	-14442
শনারি	-14443
৬০০০০	-14444
▁$(8,	-14445
▁$10.	-14446
▁$49$	-14447
▁(12,	-14448
▁0)$,	-14449
▁1**:	-14450
▁12$.	-14451
▁2.25	-14452
▁200.	-14453
▁2001	-14454
▁24\]	-14455
▁25\]	-14456
▁5500	-14457
▁90^\	-14458
▁\(14	-14459
▁ages	-14460
▁crit	-14461
▁real	-14462
▁runs	-14463
▁আন্ত	-14464
▁আলিস	-14465
▁আশিস	-14466
▁উইলো	-14467
▁একমত	-14468
▁এরকম	-14469
▁এসিড	-14470
▁কখনো	-14471
▁কমার	-14472
▁কাইফ	-14473
▁কারল	-14474
▁চলবে	-14475
▁চেইন	-14476
▁টমকে	-14477
▁ডাকা	-14478
▁দালা	-14479
▁দেড়	-14480
▁ধাতব	-14481
▁নারি	-14482
▁বদলে	-14483
▁বাবদ	-14484
▁মঞ্চ	-14485
▁মলির	-14486
▁মুর্	-14487
▁রক্ত	-14488
▁রক্ষ	-14489
▁লিচু	-14490
▁লীলা	-14491
▁লুনা	-14492
▁শাকা	-14493
▁শিলা	-14494
▁শেলি	-14495
▁সদ্য	-14496
▁সহজে	-14497
▁সুইট	-14498
▁সুষম	-14499
▁২০০১	-14500
▁৬৮টি	-14501
▁৮৫টি	-14502
ecause	-14503
}{343}	-14504
অ্যাপল	-14505
জ্যামি	-14506
নিয়াম	-14507
পৃষ্ঠা	-14508
ব্যাপী	-14509
মেয়ের	-14510
▁$240$	-14511
▁$3^2$	-14512
▁$\{1,	-14513
▁12\).	-14514
▁achie	-14515
▁cards	-14516
▁clear	-14517
▁doesn	-14518
▁white	-14519
▁আংশিক	-14520
▁আরনের	-14521
▁আর্চি	-14522
▁ইনস্ট	-14523
▁এম্মা	-14524
▁কীটপত	-14525
▁চাইলে	-14526
▁জার্ক	-14527
▁জিনের	-14528
▁ট্রোল	-14529
▁ডেকের	-14530
▁দায়ী	-14531
▁দোলার	-14532
▁নার্স	-14533
▁নিলেন	-14534
▁পজিশন	-14535
▁পাজলে	-14536
▁পার্ট	-14537
▁ফোনের	-14538
▁বাড়ে	-14539
▁বার্ট	-14540
▁বিবাহ	-14541
▁মেকআপ	-14542
▁মেষের	-14543
▁মোমের	-14544
▁রান্ন	-14545
▁রূপের	-14546
▁রেসিং	-14547
▁রোমান	-14548
▁র্যাক	-14549
▁লুকের	-14550
▁ষোলটি	-14551
▁সমর্থ	-14552
▁সেটকে	-14553
▁স্ক্র	-14554
উপন্যাস	-14555
ডমিন্টন	-14556
বঅ্যাপল	-14557
স্থানের	-14558
▁12}{2}	-14559
▁Salary	-14560
▁arrang	-14561
▁assign	-14562
▁lights	-14563
▁opened	-14564
▁passes	-14565
▁picked	-14566
▁scores	-14567
▁অনাহির	-14568
▁অভিযোগ	-14569
▁অ্যামো	-14570
▁ইউরোতে	-14571
▁ইথানের	-14572
▁এসেছেন	-14573
▁কবিতার	-14574
▁কারলার	-14575
▁গুণনের	-14576
▁চালকের	-14577
▁ঠিকঠাক	-14578
▁ডায়েট	-14579
▁ডিগ্রী	-14580
▁ডেইজির	-14581
▁ত্রয়ী	-14582
▁থাকবেন	-14583
▁দুইটির	-14584
▁নরওয়ে	-14585
▁পাণ্ডু	-14586
▁পায়েল	-14587
▁পুডলের	-14588
▁পোমেলো	-14589
▁বর্ধিত	-14590
▁বলগুলি	-14591
▁বলেছেন	-14592
▁বাজাতে	-14593
▁বিয়ের	-14594
▁মরিচের	-14595
▁মাখনের	-14596
▁মেনুতে	-14597
▁মেশিনে	-14598
▁ম্যাটি	-14599
▁সবাইকে	-14600
▁সাভানা	-14601
▁স্কিইং	-14602
▁স্টকিং	-14603
▁স্টেডি	-14604
▁হোসকের	-14605
▁হ্যালি	-14606
--------	-14607
_{2}^{2}	-14608
entially	-14609
ribution	-14610
{4!}{2!(	-14611
বেশিরভাগ	-14612
▁centers	-14613
▁colored	-14614
▁cookies	-14615
▁gallons	-14616
▁symbols	-14617
▁অক্সাইড	-14618
▁অ্যালেক	-14619
▁আয়তকার	-14620
▁কর্মদিব	-14621
▁কার্লের	-14622
▁ক্যালরি	-14623
▁গর্ভবতী	-14624
▁গাছপালা	-14625
▁ছিটিয়ে	-14626
▁জানেটের	-14627
▁ডিউটিতে	-14628
▁ড্রয়ার	-14629
▁তারিখের	-14630
▁পুরুষরা	-14631
▁প্যাটের	-14632
▁রিপোর্ট	-14633
▁শারীরিক	-14634
▁সংগৃহীত	-14635
▁স্তবকের	-14636
কেবলমাত্র	-14637
কোসাহেড্র	-14638
ুয়ারিয়া	-14639
▁children	-14640
▁counting	-14641
▁includes	-14642
▁received	-14643
▁অতিথিদের	-14644
▁এস্কেলেট	-14645
▁করেছিলাম	-14646
▁ক্যাপ্টে	-14647
▁গ্রাহককে	-14648
▁তথ্যগুলি	-14649
▁থিয়েটার	-14650
▁পদ্ধতিটি	-14651
▁প্রজেক্ট	-14652
▁বাক্সটির	-14653
▁বামদিকের	-14654
▁ব্রাউনির	-14655
▁মানগুলির	-14656
▁ল্যাডিবা	-14657
▁শাকাহারী	-14658
▁সন্ধ্যার	-14659
▁সিরিয়াল	-14660
কেন্দ্রীয়	-14661
▁Principle	-14662
▁continues	-14663
▁fractions	-14664
▁অনুক্রমের	-14665
▁অভ্যন্তরে	-14666
▁এক্সটেনশন	-14667
▁ওয়েবসাইট	-14668
▁জিতেছিলেন	-14669
▁টুকরোগুলি	-14670
▁তাকগুলিতে	-14671
▁পছন্দগুলি	-14672
▁পাস্কালের	-14673
▁পোস্টারের	-14674
▁বাণিজ্যিক	-14675
▁র্যান্ডির	-14676
▁সংযোগকারী	-14677
▁সনাক্তকরণ	-14678
▁সাহিত্যের	-14679
▁congruence	-14680
▁polynomial	-14681
▁কম্পিউটারে	-14682
▁ক্লাসরুমের	-14683
▁নিষেধাজ্ঞা	-14684
▁পাণ্ডুলিপি	-14685
▁প্রশ্নটিতে	-14686
▁প্রস্তাবিত	-14687
▁বিপরীতভাবে	-14688
▁ব্যবস্থাগত	-14689
▁ব্যায়ামের	-14690
▁ব্র্যান্ডন	-14691
▁মিথ্যাবাদী	-14692
▁লাগিয়েছিল	-14693
▁সম্প্রসারণ	-14694
▁কার্যকরভাবে	-14695
▁ত্রিমাত্রিক	-14696
▁পরিস্থিতিটি	-14697
▁প্রত্নবস্তু	-14698
▁প্রদর্শনীতে	-14699
▁সমন্বয়গুলি	-14700
▁সিদ্ধান্তের	-14701
▁পুনর্বিবেচনা	-14702
{4!}{2!(4-2)!}	-14703
▁intersections	-14704
▁ক্র্যাবঅ্যাপল	-14705
▁ফেব্রুয়ারিতে	-14706
▁সুপারমার্কেটে	-14707
(.	-14708
(9	-14709
-5	-14710
/(	-14711
/.	-14712
AP	-14713
}[	-14714
নব	-14715
পড	-14716
পল	-14717
মূ	-14718
হী	-14719
৯৭	-14720
▁;	-14721
(9,	-14722
)}\	-14723
.05	-14724
.5,	-14725
/15	-14726
/2$	-14727
222	-14728
22}	-14729
3$,	-14730
4),	-14731
70}	-14732
7\]	-14733
900	-14734
>>.	-14735
Cho	-14736
[0]	-14737
bar	-14738
eds	-14739
ott	-14740
sim	-14741
sph	-14742
tab	-14743
ude	-14744
}}}	-14745
টনা	-14746
দুর	-14747
নেস	-14748
বোর	-14749
ভেস	-14750
মতো	-14751
লেব	-14752
াইল	-14753
িকে	-14754
ুইন	-14755
োলো	-14756
৩৭০	-14757
▁3^	-14758
▁CE	-14759
▁dx	-14760
▁dy	-14761
▁kh	-14762
▁ow	-14763
▁গহ	-14764
▁ঠে	-14765
▁সৎ	-14766
!}\]	-14767
2019	-14768
60$।	-14769
80$।	-14770
:0$,	-14771
Last	-14772
\%\)	-14773
alse	-14774
cted	-14775
face	-14776
pute	-14777
ules	-14778
{8}$	-14779
{9}$	-14780
}{2\	-14781
}}{5	-14782
আমার	-14783
ইলের	-14784
ট্রে	-14785
ড্রে	-14786
দেশে	-14787
ভুজে	-14788
রামা	-14789
লকের	-14790
ষণের	-14791
ালের	-14792
২১০০	-14793
৪৮০০	-14794
▁$$4	-14795
▁$(5	-14796
▁$(6	-14797
▁$5!	-14798
▁$52	-14799
▁(35	-14800
▁1.1	-14801
▁131	-14802
▁161	-14803
▁17.	-14804
▁185	-14805
▁20।	-14806
▁248	-14807
▁27.	-14808
▁285	-14809
▁307	-14810
▁333	-14811
▁346	-14812
▁352	-14813
▁43.	-14814
▁490	-14815
▁6),	-14816
▁6).	-14817
▁71,	-14818
▁930	-14819
▁961	-14820
▁HCl	-14821
▁\);	-14822
▁\\\	-14823
▁bag	-14824
▁অলো	-14825
▁আঙ্	-14826
▁এগো	-14827
▁গুল	-14828
▁জলি	-14829
▁ডুপ	-14830
▁মৌচ	-14831
▁সুর	-14832
▁০টি	-14833
▁৩৪০	-14834
▁৩৭৫	-14835
▁৯৬০	-14836
▁৳৩৫	-14837
Digit	-14838
Given	-14839
Least	-14840
^{83}	-14841
arget	-14842
asses	-14843
ually	-14844
verse	-14845
wards	-14846
}_{5}	-14847
}{90}	-14848
উইনের	-14849
ক্ষিত	-14850
খাবার	-14851
খ্যাত	-14852
জিস্ট	-14853
টার্ট	-14854
নার্থ	-14855
বর্তন	-14856
বারিক	-14857
র্টের	-14858
লিক্স	-14859
লিস্ট	-14860
শাদার	-14861
শিয়া	-14862
সম্ভব	-14863
াইলের	-14864
াক্কা	-14865
ান্তি	-14866
োটেলে	-14867
▁$31$	-14868
▁$63$	-14869
▁$65$	-14870
▁(200	-14871
▁0.18	-14872
▁0.65	-14873
▁10$.	-14874
▁1020	-14875
▁1140	-14876
▁1170	-14877
▁1275	-14878
▁13$.	-14879
▁18\)	-14880
▁20$।	-14881
▁2002	-14882
▁210$	-14883
▁3)$,	-14884
▁32\)	-14885
▁4:**	-14886
▁9\).	-14887
▁Even	-14888
▁\(32	-14889
▁\\[1	-14890
▁\{0,	-14891
▁just	-14892
▁long	-14893
▁plum	-14894
▁sequ	-14895
▁আরাফ	-14896
▁উঠার	-14897
▁কলির	-14898
▁কানা	-14899
▁কোকো	-14900
▁চিনা	-14901
▁জগার	-14902
▁জলির	-14903
▁জেডন	-14904
▁ডেকে	-14905
▁দারু	-14906
▁দিলো	-14907
▁পরার	-14908
▁পরেন	-14909
▁প্রি	-14910
▁ফাটা	-14911
▁বাটন	-14912
▁বিরল	-14913
▁বুফে	-14914
▁মহাস	-14915
▁মাশা	-14916
▁যোসে	-14917
▁রায়	-14918
▁লেখক	-14919
▁শসার	-14920
▁সমতা	-14921
▁সাইট	-14922
▁সাহে	-14923
▁সিপি	-14924
▁সোজা	-14925
▁স্না	-14926
▁হারি	-14927
▁হেঁট	-14928
▁হেলি	-14929
▁হোসক	-14930
▁১১তম	-14931
▁১৯৯২	-14932
▁২০১০	-14933
▁২০১৫	-14934
▁৩৫০০	-14935
▁৬৩টি	-14936
▁৮৭টি	-14937
▁৳১২০	-14938
2,3,4,	-14939
307692	-14940
6,7,8,	-14941
ucture	-14942
ugging	-14943
{7}{5}	-14944
কর্মের	-14945
চ্ছন্ন	-14946
ডিয়ান	-14947
তিক্রম	-14948
দেওয়া	-14949
পরিমাণ	-14950
পিরামি	-14951
প্রধান	-14952
বিক্রি	-14953
য়েসের	-14954
সংখ্যক	-14955
সংলগ্ন	-14956
সামনের	-14957
্টারের	-14958
্লিকেট	-14959
▁$2019	-14960
▁$600$	-14961
▁(4/3)	-14962
▁**(2,	-14963
▁122.5	-14964
▁172.5	-14965
▁2017,	-14966
▁3}{2}	-14967
▁Balls	-14968
▁Payel	-14969
▁\(3^2	-14970
▁minus	-14971
▁seven	-14972
▁আবারও	-14973
▁আমিবা	-14974
▁আসেনি	-14975
▁একাকী	-14976
▁কমানো	-14977
▁কাকের	-14978
▁কাটান	-14979
▁ক্রাউ	-14980
▁খণ্ডে	-14981
▁খোলার	-14982
▁গোলের	-14983
▁গ্রহে	-14984
▁গ্রিল	-14985
▁ঘুমান	-14986
▁চাইছি	-14987
▁টুনার	-14988
▁ডেনের	-14989
▁তহবিল	-14990
▁তারটি	-14991
▁থেকেই	-14992
▁ধাতুর	-14993
▁পাওনা	-14994
▁পেড্র	-14995
▁ফ্লোর	-14996
▁বললেন	-14997
▁বাগেট	-14998
▁বার্ন	-14999
▁বিয়ে	-15000
▁বেগের	-15001
▁বেরির	-15002
▁ভাগটি	-15003
▁মশলার	-15004
▁মাপের	-15005
▁মালার	-15006
▁মেলডি	-15007
▁ম্যাল	-15008
▁যুগ্ম	-15009
▁যোদ্ধ	-15010
▁শালিক	-15011
▁সিদ্ধ	-15012
▁সিরিজ	-15013
▁স্নান	-15014
▁১১৫টি	-15015
▁১৩০টি	-15016
^{2018}	-15017
cluding	-15018
initial	-15019
কুকুরের	-15020
ট্রোজেন	-15021
্লেষণের	-15022
▁$120$।	-15023
▁2^{10}	-15024
▁\(15\)	-15025
▁finish	-15026
▁inches	-15027
▁letter	-15028
▁making	-15029
▁occurs	-15030
▁shaded	-15031
▁অ্যাডি	-15032
▁আইনজীব	-15033
▁আঙ্কেল	-15034
▁আন্নার	-15035
▁আর্থার	-15036
▁ইউঞ্জি	-15037
▁ইউনিটে	-15038
▁ইসাবেল	-15039
▁কিনেছি	-15040
▁ক্যাটা	-15041
▁ক্যারে	-15042
▁ক্লারা	-15043
▁ক্লিনি	-15044
▁খেলছিল	-15045
▁গাইডের	-15046
▁চল্লিশ	-15047
▁টুথপিক	-15048
▁ট্রিপল	-15049
▁ড্যারে	-15050
▁দালালি	-15051
▁দ্রুতি	-15052
▁নির্বা	-15053
▁পক্ষের	-15054
▁ফেয়ের	-15055
▁ফ্রিজে	-15056
▁বামদিক	-15057
▁ভ্রমনে	-15058
▁মতিনের	-15059
▁রুপালি	-15060
▁রূপালী	-15061
▁লোকেরা	-15062
▁শিশুরা	-15063
▁সড়কের	-15064
▁সময়টি	-15065
▁সরীসৃপ	-15066
▁সান্ডে	-15067
▁সিকুইন	-15068
▁স্কার্	-15069
▁স্পঞ্জ	-15070
▁হটডগের	-15071
▁হেয়ার	-15072
Checking	-15073
Greatest	-15074
geqslant	-15075
urrences	-15076
সম্ভাবনা	-15077
▁Product	-15078
▁answers	-15079
▁covered	-15080
▁equally	-15081
▁অনুলিপি	-15082
▁অনুসারী	-15083
▁ইংরেজির	-15084
▁ইউয়ানে	-15085
▁এককভাবে	-15086
▁কমপ্লেক	-15087
▁কার্ডটি	-15088
▁কেটেছেন	-15089
▁কোয়ারে	-15090
▁ক্যারোল	-15091
▁ক্লার্ক	-15092
▁খামারের	-15093
▁গভীরতার	-15094
▁গালিবের	-15095
▁ঘরগুলির	-15096
▁জামিলের	-15097
▁টুনারের	-15098
▁তানিয়া	-15099
▁ত্রিগুণ	-15100
▁দম্পতির	-15101
▁নাস্তার	-15102
▁নেগেটিভ	-15103
▁পেত্যার	-15104
▁পৌঁছায়	-15105
▁প্রত্যা	-15106
▁বাজেটের	-15107
▁বারান্দ	-15108
▁বার্তার	-15109
▁বিখ্যাত	-15110
▁ব্যয়ের	-15111
▁ব্যাঙটি	-15112
▁ব্ল্যাক	-15113
▁মারুফের	-15114
▁মূল্যকে	-15115
▁রুস্টার	-15116
▁লুকাসের	-15117
▁শাস্ত্র	-15118
▁সাবধানে	-15119
▁সিমেন্ট	-15120
▁স্টাফিং	-15121
▁স্থানকে	-15122
▁স্প্যাম	-15123
▁হাইওয়ে	-15124
Condition	-15125
remaining	-15126
solutions	-15127
▁polygons	-15128
▁অনুপাতকে	-15129
▁অর্ধেকটি	-15130
▁আমান্ডার	-15131
▁উল্টানোর	-15132
▁কার্যকরী	-15133
▁কোস্টারে	-15134
▁গ্রাহকরা	-15135
▁জুলিয়ান	-15136
▁জ্যাসনের	-15137
▁টাইলারের	-15138
▁দারুচিনি	-15139
▁নিয়োগের	-15140
▁পরিবহনের	-15141
▁পেইন্টের	-15142
▁বিজ্ঞানে	-15143
▁বিয়োগ্য	-15144
▁রক্ষণাবে	-15145
▁লেমনেডের	-15146
▁সংস্থায়	-15147
▁স্থাপত্য	-15148
Substitute	-15149
▁neighbors	-15150
▁operation	-15151
▁trapezoid	-15152
▁অন্যোন্যক	-15153
▁অ্যালিসের	-15154
▁কংক্রিটের	-15155
▁জ্যাকসনের	-15156
▁ঝুলিয়েছে	-15157
▁ডুপ্লিকেট	-15158
▁দর্শনার্থ	-15159
▁নিম্নমুখী	-15160
▁নির্বাচনী	-15161
▁পারিবারিক	-15162
▁পুনর্বাসন	-15163
▁পেরেছিলেন	-15164
▁ফ্যাব্রিক	-15165
▁বর্গফুটের	-15166
▁বিয়ান্কা	-15167
▁ব্র্যাডের	-15168
▁লাফালাফির	-15169
▁শক্তিশালী	-15170
▁স্টেশনারি	-15171
তৃতীয়াংশের	-15172
▁ন্যাপকিনের	-15173
▁পঞ্চভুজীয়	-15174
▁প্যাটার্নে	-15175
▁প্রতিযোগীর	-15176
▁বিশ্লেষণের	-15177
▁যন্ত্রপাতি	-15178
▁সমাবেশগুলি	-15179
▁সামান্তরিক	-15180
▁স্ট্রাইপের	-15181
▁অন্তর্লিখিত	-15182
▁আকুয়ারিয়া	-15183
▁ডিসকাউন্টের	-15184
▁ত্রিকোণাকার	-15185
▁বাধ্যতামূলক	-15186
▁বাস্কেটবলের	-15187
▁বিন্যাসগুলি	-15188
▁ব্র্যান্ডের	-15189
▁রেস্তোরাঁটি	-15190
▁রেস্তোরাঁয়	-15191
▁সমদ্বিখণ্ডক	-15192
▁সেমিস্টারের	-15193
▁স্থানগুলিতে	-15194
▁ছেলেমেয়েদের	-15195
▁relationships	-15196
%$	-15197
'-	-15198
1]	-15199
53	-15200
AA	-15201
BG	-15202
If	-15203
MP	-15204
Pi	-15205
kn	-15206
tc	-15207
অক	-15208
অধ	-15209
ওক	-15210
ঘো	-15211
!$.	-15212
(1.	-15213
+7+	-15214
,\)	-15215
.56	-15216
1)$	-15217
1.2	-15218
101	-15219
12}	-15220
16,	-15221
19,	-15222
2!}	-15223
24)	-15224
300	-15225
64$	-15226
99,	-15227
=0$	-15228
=5$	-15229
air	-15230
}(2	-15231
ইনে	-15232
টিন	-15233
টেড	-15234
দাত	-15235
ভাল	-15236
মিট	-15237
রাজ	-15238
রোধ	-15239
শতা	-15240
ষ্ণ	-15241
সংশ	-15242
হুন	-15243
ুকে	-15244
০০১	-15245
৪৪০	-15246
৮৪০	-15247
▁3*	-15248
▁6(	-15249
▁9\	-15250
▁BF	-15251
▁DA	-15252
▁__	-15253
▁cd	-15254
▁mg	-15255
▁ol	-15256
---|	-15257
...$	-15258
1}$.	-15259
4}$.	-15260
50$।	-15261
\,\,	-15262
^3$.	-15263
down	-15264
ifts	-15265
ired	-15266
ires	-15267
odes	-15268
pace	-15269
plic	-15270
ross	-15271
team	-15272
with	-15273
ycle	-15274
{17}	-15275
{6}$	-15276
}\)।	-15277
}}{3	-15278
আমরা	-15279
কিউট	-15280
খরোট	-15281
গন্ধ	-15282
গ্রে	-15283
চেইন	-15284
জন্য	-15285
টনের	-15286
পাথর	-15287
ফারে	-15288
মাগত	-15289
য়টি	-15290
লিকা	-15291
লেনা	-15292
সিতে	-15293
াসিড	-15294
ুরোদ	-15295
োভনা	-15296
োমিন	-15297
্রিক	-15298
্রিপ	-15299
১০৫০	-15300
১৪০০	-15301
১৪২৮	-15302
▁$$1	-15303
▁$(4	-15304
▁$44	-15305
▁$46	-15306
▁$7!	-15307
▁(2!	-15308
▁(6)	-15309
▁107	-15310
▁176	-15311
▁183	-15312
▁2).	-15313
▁22.	-15314
▁265	-15315
▁295	-15316
▁3+3	-15317
▁364	-15318
▁378	-15319
▁39,	-15320
▁44$	-15321
▁49$	-15322
▁53.	-15323
▁61,	-15324
▁620	-15325
▁648	-15326
▁66$	-15327
▁70,	-15328
▁<<(	-15329
▁Int	-15330
▁Max	-15331
▁Tih	-15332
▁cos	-15333
▁suc	-15334
▁আফি	-15335
▁কুন	-15336
▁কেই	-15337
▁চেন	-15338
▁টিফ	-15339
▁ট্য	-15340
▁পিল	-15341
▁মতে	-15342
▁মিত	-15343
▁মুর	-15344
▁শিট	-15345
▁শেখ	-15346
▁সীক	-15347
▁১২৪	-15348
▁১৫২	-15349
▁১৫৫	-15350
▁১৬৯	-15351
▁৩৯০	-15352
Solve	-15353
ament	-15354
final	-15355
under	-15356
{2}$.	-15357
}{6}\	-15358
}{81}	-15359
কেস্ট	-15360
ঙ্গিক	-15361
ট্রাক	-15362
তারের	-15363
ধারার	-15364
নারের	-15365
পাতির	-15366
ব্রেড	-15367
ভ্যান	-15368
মুরগি	-15369
লেনার	-15370
সুফের	-15371
হিমের	-15372
১৫০০০	-15373
২৪০টি	-15374
▁$0.0	-15375
▁$3!$	-15376
▁$37$	-15377
▁$38$	-15378
▁$46$	-15379
▁0\).	-15380
▁13.5	-15381
▁1850	-15382
▁1\):	-15383
▁2}{2	-15384
▁4\).	-15385
▁500$	-15386
▁6}{2	-15387
▁7500	-15388
▁9\}$	-15389
▁Days	-15390
▁Sadi	-15391
▁\(13	-15392
▁\(24	-15393
▁\(33	-15394
▁\(35	-15395
▁\[24	-15396
▁meet	-15397
▁আইভি	-15398
▁আগেই	-15399
▁আসছে	-15400
▁ইথান	-15401
▁এখনো	-15402
▁এমিল	-15403
▁ওজনে	-15404
▁কঙ্ক	-15405
▁কপির	-15406
▁ক্ষু	-15407
▁খ্রি	-15408
▁গেমে	-15409
▁চেপে	-15410
▁জানো	-15411
▁জেলা	-15412
▁টিমে	-15413
▁ডুবে	-15414
▁তেরে	-15415
▁থামে	-15416
▁দেখল	-15417
▁পাঠে	-15418
▁ফিওড	-15419
▁বড়ি	-15420
▁বন্য	-15421
▁বাঁধ	-15422
▁মানব	-15423
▁রসুন	-15424
▁রুপি	-15425
▁লামি	-15426
▁লোহা	-15427
▁শুভে	-15428
▁শেরি	-15429
▁হীরা	-15430
▁১৩৫০	-15431
▁২০২৩	-15432
▁৫টির	-15433
▁৮১টি	-15434
▁৳১৫০	-15435
!}{5!(	-15436
Factor	-15437
sphere	-15438
urface	-15439
{14154	-15440
{300}{	-15441
ক্র্যা	-15442
ঘর্ষিক	-15443
ন্যবাদ	-15444
পানীয়	-15445
প্রদান	-15446
বর্ণের	-15447
য়ানার	-15448
লিয়েন	-15449
স্টনের	-15450
▁$2^2$	-15451
▁$\{0,	-15452
▁(0.40	-15453
▁(3600	-15454
▁2^{20	-15455
▁4,000	-15456
▁99999	-15457
▁False	-15458
▁\((0,	-15459
▁birds	-15460
▁coins	-15461
▁cubes	-15462
▁extra	-15463
▁falls	-15464
▁green	-15465
▁might	-15466
▁picks	-15467
▁plays	-15468
▁radii	-15469
▁rules	-15470
▁shape	-15471
▁subtr	-15472
▁আইসোট	-15473
▁আবদ্ধ	-15474
▁এদিকে	-15475
▁এপিসো	-15476
▁ওলগার	-15477
▁করেছো	-15478
▁কাটলে	-15479
▁কেচাপ	-15480
▁খেলেন	-15481
▁গাভীর	-15482
▁গুলির	-15483
▁ঘুরতে	-15484
▁চলাচল	-15485
▁জেব্র	-15486
▁টিউটর	-15487
▁ডাইনো	-15488
▁ডোনার	-15489
▁তোমরা	-15490
▁নব্বই	-15491
▁নামতে	-15492
▁পীচের	-15493
▁ফাহিম	-15494
▁বাথটা	-15495
▁বাল্ড	-15496
▁ভাতার	-15497
▁ভোটার	-15498
▁মোলের	-15499
▁যোগের	-15500
▁রিভার	-15501
▁রোলের	-15502
▁লুডোর	-15503
▁লোডের	-15504
▁সানডে	-15505
▁স্কাউ	-15506
▁স্টেক	-15507
▁হেলমে	-15508
▁হোসোক	-15509
▁৮০০টি	-15510
!}{2!(5	-15511
^{2011}	-15512
atively	-15513
itemize	-15514
pecific	-15515
plement	-15516
squared	-15517
{12}{4}	-15518
তিহাসিক	-15519
বার্ষিক	-15520
বৃদ্ধির	-15521
মূল্যের	-15522
সরলীকরণ	-15523
হাজারের	-15524
ান্তরের	-15525
▁$180^\	-15526
▁Divide	-15527
▁\(\{1,	-15528
▁define	-15529
▁higher	-15530
▁revers	-15531
▁অ্যানি	-15532
▁আক্রমণ	-15533
▁উদ্ভূত	-15534
▁একটিকে	-15535
▁কতজনের	-15536
▁কাইলার	-15537
▁কিউবের	-15538
▁গণনাকে	-15539
▁ছয়কোণ	-15540
▁ছুড়তে	-15541
▁টিয়ার	-15542
▁পৃষ্ঠে	-15543
▁প্যারে	-15544
▁প্রহসন	-15545
▁ফোয়ের	-15546
▁বর্গটি	-15547
▁বহুগুণ	-15548
▁বানায়	-15549
▁বালতির	-15550
▁রাফটিং	-15551
▁রিবনের	-15552
▁রেফারি	-15553
▁লিজাকে	-15554
▁লুবাবা	-15555
▁শিফটের	-15556
▁সাবসেট	-15557
▁সারাকে	-15558
▁সুবিধা	-15559
▁স্কটিশ	-15560
▁স্বর্ণ	-15561
▁হোটেলে	-15562
ড়িয়েছে	-15563
্যাসার্ধ	-15564
৩৩৩৩৩৩৩৩	-15565
▁Formula	-15566
▁Summing	-15567
▁modular	-15568
▁student	-15569
▁success	-15570
▁wrapper	-15571
▁অঙ্কটির	-15572
▁আলবার্ত	-15573
▁এন্ট্রি	-15574
▁কর্পোরে	-15575
▁কেটেছিল	-15576
▁ক্রমাগত	-15577
▁ক্লারার	-15578
▁গোল্লাই	-15579
▁গ্রান্ট	-15580
▁ঘাতগুলি	-15581
▁ঘুরিয়ে	-15582
▁জানিনের	-15583
▁জিমন্যা	-15584
▁জীমিনের	-15585
▁জুনায়ে	-15586
▁জোড়াটি	-15587
▁ডিনারের	-15588
▁দীর্ঘতম	-15589
▁দ্বারাও	-15590
▁নারীদের	-15591
▁নিচ্ছেন	-15592
▁পরিচালক	-15593
▁পরিদর্শ	-15594
▁পরিশেষে	-15595
▁প্যানেল	-15596
▁ফাইনালে	-15597
▁বৃত্তটি	-15598
▁বেড়ায়	-15599
▁ব্যাটিং	-15600
▁ব্রাশের	-15601
▁ব্রিটিশ	-15602
▁ভাগফলের	-15603
▁মেবেলের	-15604
▁লবণাক্ত	-15605
▁লোকেদের	-15606
▁সময়মতো	-15607
▁সম্পাদক	-15608
▁সুজানের	-15609
▁স্কিটলস	-15610
▁হয়েছেন	-15611
igeonhole	-15612
itionally	-15613
{5!}{2!(5	-15614
▁Plugging	-15615
▁bisector	-15616
▁combined	-15617
▁increase	-15618
▁interpre	-15619
▁requires	-15620
▁totaling	-15621
▁অঙ্কুরোদ	-15622
▁অর্কেস্ট	-15623
▁আপেলগুলো	-15624
▁ক্রিসমাস	-15625
▁চিজকেকের	-15626
▁জনপ্রিয়	-15627
▁পরিবারকে	-15628
▁পরিমাণটি	-15629
▁পরিমাপের	-15630
▁পরিশোধিত	-15631
▁ফোল্ডারে	-15632
▁বন্ধুবান	-15633
▁বিচ্যুতি	-15634
▁বেডরুমের	-15635
▁ব্যাঙটির	-15636
▁ভাজকগুলো	-15637
▁মরিয়মের	-15638
▁শুভেচ্ছা	-15639
▁শেলযুক্ত	-15640
▁সময়টিকে	-15641
▁স্থানাংক	-15642
▁1,000,000	-15643
▁described	-15644
▁favorable	-15645
▁thousands	-15646
▁অস্বীকৃতি	-15647
▁কাউন্টারে	-15648
▁গায়কদলের	-15649
▁গ্রান্টের	-15650
▁চেসবোর্ডে	-15651
▁থাকাকালীন	-15652
▁নিভিয়েছে	-15653
▁বিদ্যুতের	-15654
▁ব্রাউজারে	-15655
▁রান্নাকার	-15656
▁লাফিয়েছে	-15657
▁সাংঘর্ষিক	-15658
▁সুইটটার্ট	-15659
▁হয়েছিলেন	-15660
Simplifying	-15661
▁considered	-15662
▁determined	-15663
▁passengers	-15664
▁translated	-15665
▁উপাদানগুলি	-15666
▁কর্মকর্তার	-15667
▁ক্যাশিয়ার	-15668
▁ট্রাপিজয়ে	-15669
▁দ্বিগুণেরও	-15670
▁পাঠিয়েছেন	-15671
▁বর্গাকারের	-15672
▁সমস্যাটিকে	-15673
▁সমীকরণগুলো	-15674
▁সমীকরণটিতে	-15675
▁সিনিয়রদের	-15676
▁palindromic	-15677
▁অ্যান্টাসিড	-15678
▁ওভারল্যাপিং	-15679
▁কর্মসংস্থান	-15680
▁খেলোয়াড়রা	-15681
▁জানুয়ারিতে	-15682
▁প্রোগ্রামের	-15683
▁প্ল্যাটফর্ম	-15684
▁ভগ্নাংশগুলো	-15685
▁Additionally	-15686
▁সম্ভাবনাগুলি	-15687
▁টেকনিশিয়ানদের	-15688
▁সামঞ্জস্যপূর্ণ	-15689
!]	-15690
""	-15691
".	-15692
%:	-15693
'।	-15694
*1	-15695
,"	-15696
BO	-15697
Br	-15698
WW	-15699
uz	-15700
বণ	-15701
সূ	-15702
৮২	-15703
16}	-15704
286	-15705
33$	-15706
4}$	-15707
789	-15708
^2.	-15709
exp	-15710
fit	-15711
gin	-15712
ilk	-15713
man	-15714
set	-15715
var	-15716
zen	-15717
{4,	-15718
{8\	-15719
গির	-15720
ছেদ	-15721
জকে	-15722
বিট	-15723
মতী	-15724
রেল	-15725
র্ধ	-15726
শিন	-15727
সিত	-15728
ুটি	-15729
ুতি	-15730
১১৬	-15731
১২২	-15732
১৬৫	-15733
২২৪	-15734
২৩৪	-15735
২৬০	-15736
৪৭৬	-15737
৭৬০	-15738
৯৯৮	-15739
▁$.	-15740
▁-8	-15741
▁6\	-15742
▁BG	-15743
[...]
